##'
##a
##abazz
##abbing
##abby
##abcock
##abiliz
##abilizing
##abilly
##abji
##ablish
##ablishing
##ably
##absburg
##abulary
##ack
##ackbu
##ackdown
##ackh
##ackhawks
##acking
##ackish
##acksmith
##acock
##adajoz
##adblock
##adbury
##adcliff
##addock
##adically
##aditionally
##adnought
##adnoughts
##adock
##adow
##adowing
##adows
##adstock
##adually
##aff
##affi
##affic
##affick
##afficking
##affin
##affir
##affirm
##affit
##affiti
##affo
##affor
##afford
##aftsmanship
##agh
##aghy
##agonally
##agrang
##agship
##agstaff
##aguchi
##aharishi
##ahashi
##aifeng
##ainbow
##aintiff
##aithful
##ajj
##ajor
##ajoz
##ajunga
##akaguchi
##akahashi
##akashi
##akdown
##akeng
##akeshift
##aking
##akrapong
##akrishna
##akshi
##akshmi
##akthrough
##alazzo
##alfback
##alimpong
##alisbury
##aliz
##alizing
##allagh
##alleng
##allenging
##alligraphy
##alliz
##allowing
##ally
##alsingham
##alstaff
##alympic
##alzburg
##amaguchi
##amakrishna
##amashi
##amethrow
##amically
##ammock
##ammoth
##ampfgrupp
##amph
##amphl
##ampionship
##ampl
##ampshir
##ampuch
##ampung
##amrock
##anagh
##anbury
##ancashir
##ancock
##anddaught
##andenburg
##andmoth
##andown
##ang
##angh
##anghai
##angzhou
##anically
##anish
##anishing
##ankish
##anksgiving
##annock
##anpow
##anquish
##anship
##anslaught
##anterbury
##antock
##anually
##anwhil
##aparazzi
##apeshift
##aphically
##aphy
##aphyl
##apong
##app
##apping
##apstick
##apuchin
##aq
##aqqa
##arack
##aralympic
##araphy
##arazzi
##arborough
##arbuck
##arbury
##archlight
##archlights
##arcliff
##ardianship
##ardiff
##ardship
##ardships
##ardwick
##arginally
##arish
##arkably
##arlborough
##arnborough
##aroj
##arouch
##arrack
##arracks
##arrang
##arrow
##arrowhawk
##arrowing
##arrowly
##arruth
##arthqu
##artially
##arvick
##arving
##arwhal
##arwickshir
##aryng
##asgow
##ashback
##ashi
##ashing
##ashington
##asically
##asonally
##asseng
##asshopp
##assically
##astonbury
##asually
##atally
##aterally
##athrow
##ationally
##ationship
##atowski
##atrically
##atrick
##attack
##attleships
##aturally
##atzgrupp
##aufight
##augh
##aught
##author
##authoriz
##avelength
##avelengths
##aving
##avish
##awback
##awfully
##awong
##ayashi
##ayback
##ayflow
##ayish
##aylight
##ayoff
##azz
##azza
##azzi
##azzo
##b
##bably
##back
##bally
##baugh
##bayashi
##bazz
##bb
##bbing
##bby
##bcock
##beknownst
##beng
##bengu
##bengul
##biliz
##bilizing
##billy
##biography
##bish
##bishm
##bj
##bji
##bliography
##blish
##blishing
##block
##bly
##bock
##boj
##bolish
##bolishing
##borough
##both
##bow
##bq
##brick
##brough
##brow
##brows
##brush
##bsburg
##bu
##buch
##buck
##buckl
##buff
##buk
##bul
##bula
##bular
##bulary
##bum
##bump
##bumps
##buqu
##bur
##burg
##burgh
##burh
##burn
##bury
##bush
##but
##buth
##buthn
##buthno
##buthnot
##butm
##butt
##butu
##byshire
##c
##cabulary
##caffo
##cally
##carborough
##cashi
##ccessfully
##ccidentally
##cclintock
##ccomplish
##ccormack
##ccormick
##ccrack
##ccumb
##cdonough
##cdow
##cessfully
##ch
##chaff
##challeng
##chang
##chanically
##chback
##chbish
##chbisho
##chbishop
##chcock
##chdown
##cheng
##chieving
##chiff
##chirappall
##chitecturally
##chlight
##chnically
##choff
##chologically
##choth
##chothe
##chow
##chuck
##cially
##cianship
##cibly
##cidentally
##cientifically
##cifically
##cipally
##ciz
##cizing
##ck
##ckdown
##ckh
##ckha
##ckham
##ckhaw
##ckhawk
##ckhawks
##ckho
##ckhou
##ckhous
##ckhouse
##ckiff
##ckingh
##cklenburg
##cklow
##cknow
##ckoff
##ckshi
##cksmith
##ckx
##claugh
##cliff
##clintock
##clockw
##clockwi
##clockwis
##cloth
##clough
##club
##cnally
##cock
##cography
##complish
##conomically
##copically
##cormack
##cormick
##corrhiz
##cothick
##cottish
##cow
##crack
##cracke
##cracker
##crapp
##crapping
##credibly
##croscopically
##crow
##crush
##ctionally
##ctish
##ctomycorrhiz
##ctrically
##ctronically
##ctually
##cturally
##cully
##cumb
##d
##dajoz
##daught
##dblock
##dbury
##dcliff
##ddaught
##ddick
##dditionally
##ddlesbrough
##ddock
##denburg
##dentally
##derally
##dericksburg
##dflow
##dfrapp
##dgwick
##dially
##dianship
##dibly
##dically
##dick
##diff
##dinburgh
##dish
##distinguish
##distribut
##distributi
##distributio
##distribution
##ditionally
##dividually
##dlesbrough
##dmoth
##dnapping
##dnough
##dnought
##dock
##doliz
##donough
##doub
##doubt
##dow
##dowing
##down
##drock
##dshift
##dship
##dshipm
##dships
##dshirt
##dstock
##dtrack
##dually
##dubb
##dubbing
##dwick
##e
##eacock
##eadnought
##eadnoughts
##eadow
##eadows
##eaffirm
##eakdown
##eakthrough
##eanwhil
##earchlight
##earchlights
##earrang
##easonally
##eathrow
##eatrically
##eaufight
##ebby
##ebrows
##ebuff
##ebumps
##ebut
##echanically
##echnically
##ecifically
##eckiff
##ecklenburg
##ectrically
##ectronically
##ecturally
##ederally
##edericksburg
##edibly
##edically
##ediff
##edistribut
##edistribution
##edoubt
##edrock
##edshift
##edshirt
##efurbish
##efurbishm
##egally
##egetthoff
##egionally
##ehaving
##ehigh
##ehoboth
##eighbor
##eighborhood
##eighboring
##eighbors
##eighbour
##eighbourhood
##eighbouring
##eighbours
##eighing
##eknownst
##elationship
##elength
##elengths
##elfish
##elieving
##elightful
##elinquish
##ellfish
##ellish
##ellowish
##ellowship
##ellyfish
##elonging
##elznick
##emarkably
##embly
##emlock
##emobiliz
##emolish
##emolishing
##emoving
##emphis
##empting
##enbow
##enburg
##endship
##enerally
##eng
##engg
##enghazi
##enghis
##engough
##ength
##enhow
##ennock
##enough
##enown
##ensibly
##entally
##entifically
##entionally
##entrally
##entually
##entucky
##enumb
##eophysical
##eowulf
##epburn
##epmoth
##epriving
##eptionally
##epublic
##epublican
##epublika
##epublish
##erally
##erationally
##erattack
##erbally
##erbock
##erborough
##erbury
##erbyshire
##erchange
##erckx
##erclockwis
##erengganu
##erfishing
##erflowing
##ergrown
##ergrowth
##erically
##ericksburg
##eriliz
##eriodically
##erkshire
##erlapping
##erlocking
##erlordship
##ernally
##ernationally
##ernship
##errang
##ershocks
##ersially
##ersonally
##erthrown
##ertiliz
##ertuzzi
##erving
##erything
##erywh
##esbrough
##escothick
##eshadow
##eshiba
##eshift
##eships
##eshuffl
##esseng
##essfully
##essionally
##estabiliz
##establish
##estinghous
##estrength
##esumably
##esupply
##etaphysical
##etaphysics
##eterborough
##ethamph
##ethrow
##etribution
##etrically
##etrieving
##etthoff
##ettysburg
##eumothorax
##eving
##eviving
##evolving
##ewardship
##ewburgh
##ewbury
##ewhat
##ewhere
##ewish
##ewsbury
##exually
##eymouth
##ezzanin
##ezzl
##f
##faithful
##faq
##fback
##feng
##fessionally
##ff
##ffhang
##fgh
##fgrupp
##fically
##fight
##fighting
##fish
##fishing
##fjor
##fjord
##flaq
##flight
##flow
##flowing
##fow
##frapp
##ftershocks
##ftsmanship
##ftwaff
##fully
##furbish
##furbishm
##g
##gally
##getthoff
##gfight
##gfish
##ggish
##gh
##gically
##ginally
##ginboth
##ginbotha
##ginbotham
##gionally
##gish
##gitally
##giving
##gonally
##gong
##goth
##gough
##gow
##grang
##graphically
##graphy
##gripp
##grippin
##grown
##growth
##grupp
##gsburg
##gship
##gstaff
##guably
##guch
##guchi
##gwick
##h
##hang
##hannock
##harish
##harishi
##hashi
##haugh
##having
##heng
##high
##hish
##hiz
##hoboth
##hoff
##hough
##how
##hq
##hrough
##hub
##humb
##i
##iagonally
##ially
##ianship
##iarcliff
##iatowski
##iazza
##ibby
##ibliography
##ibly
##ibular
##ibut
##ically
##icianship
##iciz
##icizing
##ick
##ickerbock
##icking
##ickoff
##ickshi
##icrow
##ictish
##iddick
##iddlesbrough
##identally
##idnapping
##idow
##idshipm
##idships
##idually
##iendship
##ientifically
##ieving
##ifeng
##iff
##iffhang
##iffith
##ifically
##igh
##ighb
##ighbo
##ighbor
##ighborh
##ighborho
##ighborhoo
##ighborhood
##ighboring
##ighbors
##ighbou
##ighbour
##ighbourh
##ighbourho
##ighbourhoo
##ighbourhood
##ighbouring
##ighbours
##ighing
##ight
##iginally
##igitally
##igraphy
##ijack
##ijacking
##ilburn
##ilbury
##ildflow
##ilipp
##iliz
##ilizing
##illenburg
##illingham
##illoughby
##illsborough
##illy
##ilmography
##ilosophy
##imick
##imicking
##iminish
##iminishing
##immick
##imothy
##imply
##impong
##inally
##inboth
##inbow
##inburgh
##incidentally
##incipally
##indenburg
##indow
##ing
##ingh
##ingha
##ingham
##inghamsh
##ingho
##inghou
##inghous
##inguish
##inguishing
##inish
##inishing
##inkish
##inkoff
##innock
##inquish
##insatzgrupp
##insborough
##inship
##intiff
##intock
##inually
##iodically
##iography
##ionally
##ionship
##ioshock
##ipally
##ipbu
##ipp
##ippi
##ippin
##ipping
##ippu
##ippus
##ipstick
##iraff
##irappall
##irflow
##iritually
##irkpatrick
##irmingham
##irmish
##irmishing
##iroshima
##iruchirappalli
##isapp
##isbury
##ischoff
##iscography
##iseng
##isenhow
##isgivings
##ish
##ishing
##isionally
##ismuth
##issippi
##ississippi
##issolving
##istinguish
##istinguishing
##istorically
##istoriography
##istraught
##istribut
##itally
##itchcock
##itecturally
##iterally
##ith
##ithf
##ithfu
##ithful
##itially
##iticiz
##iticizing
##itionally
##itish
##itsubish
##ittsburgh
##itually
##itzpatrick
##iumph
##ividually
##iviliz
##iving
##ixth
##iz
##izing
##izontally
##izz
##izzl
##izzly
##j
##jack
##jacking
##jang
##jj
##jkow
##jkows
##jkowsk
##jkowski
##jo
##joh
##john
##jok
##jor
##joy
##joz
##jub
##jung
##junga
##jungb
##k
##kably
##kaguchi
##kahashi
##kashi
##kdown
##keng
##keshift
##kh
##khang
##khsh
##kick
##kiff
##king
##kipp
##kipping
##kirmish
##kirmishing
##kish
##kishi
##kishim
##kishima
##known
##knowns
##knownst
##koff
##kong
##kow
##kowi
##kowit
##kowitz
##kows
##kowsk
##kowski
##kpatrick
##krapong
##krish
##krishn
##krishna
##ksgiving
##ksh
##ksha
##kshi
##kshm
##kshmi
##ksho
##kshop
##kthrough
##ktown
##kushim
##kushima
##l
##lack
##lackbu
##lackhawks
##lackish
##lacksmith
##lagh
##lagship
##lagstaff
##laintiff
##lakshmi
##lamethrow
##lapping
##lapstick
##laq
##lasgow
##lashback
##lashing
##lassically
##lastonbury
##lationship
##laugh
##laught
##layback
##layoff
##lazzo
##lborough
##lbow
##lbum
##lbuqu
##lburn
##lbury
##lbut
##ldflow
##ldfrapp
##lectrically
##lectronically
##legally
##lenburg
##leng
##length
##lengths
##lesbrough
##leships
##lfback
##lfish
##lically
##lick
##licking
##lieving
##liff
##liffhang
##light
##lightf
##lightfu
##lightful
##ligraphy
##limpong
##lingham
##linquish
##lintock
##liography
##lipp
##lipping
##lisbury
##lish
##lishing
##liz
##lizing
##lizz
##lkoff
##llack
##llagh
##llegally
##llenburg
##lleng
##llenging
##llfish
##lligraphy
##llingham
##llish
##lliz
##llock
##llough
##lloughby
##llow
##llowing
##llowish
##llowsh
##llowshi
##llowship
##llsborough
##lly
##llyfish
##llyw
##llywo
##llywoo
##llywood
##lmography
##lobally
##lobular
##lock
##lockhou
##locking
##lockw
##logically
##long
##longing
##loomsbury
##lopp
##loppy
##lordship
##losophy
##loth
##lothing
##lotho
##lough
##loughby
##lourish
##lourishing
##low
##lowing
##lsborough
##lsewhere
##lsingham
##lstaff
##ltdown
##lthough
##lturally
##lub
##lubb
##lucky
##luggish
##luish
##lumb
##lumbing
##lush
##lushi
##lushing
##lving
##ly
##lyfish
##lymouth
##lymp
##lympi
##lympic
##lywh
##lzburg
##lznick
##m
##mably
##mack
##mackdown
##maguchi
##major
##makrishna
##manship
##markably
##mashi
##mashing
##mb
##mbang
##mbaugh
##mbly
##mbolically
##mboliz
##mbolizing
##mbush
##mentally
##merically
##methrow
##metrically
##mewhat
##mewhere
##mically
##mick
##micking
##midships
##minally
##mingh
##mingha
##mingham
##minish
##minishing
##mish
##mishing
##mith
##mlock
##mmick
##mmobiliz
##mmock
##mmoth
##mobiliz
##mock
##mography
##molish
##molishing
##mong
##mooth
##moothly
##morrow
##moth
##mothy
##motionally
##mouth
##moving
##mow
##mp
##mpback
##mpfgrupp
##mph
##mpha
##mphi
##mphis
##mphl
##mphy
##mpionship
##mpl
##mplish
##mply
##mpong
##mpshi
##mpshir
##mpt
##mpting
##mptly
##mpuch
##mpung
##mrock
##msbury
##mstrong
##mumb
##muth
##mycorrhiz
##n
##nagh
##naghy
##nally
##namically
##naphyl
##napping
##nationally
##naught
##nborough
##nboth
##nbow
##nbuckl
##nburg
##nburgh
##nbury
##ncashi
##ncashir
##nchback
##ncidentally
##ncipally
##ncock
##nctionally
##nddaught
##ndenburg
##ndmoth
##ndow
##ndown
##ndship
##ndtrack
##nerally
##neumothorax
##nflow
##ng
##ngh
##ngha
##nghai
##ngham
##nghaz
##nghazi
##nghi
##nghis
##ngough
##ngq
##ngqing
##ngth
##ngzh
##ngzho
##ngzhou
##nhow
##nially
##niatowski
##nically
##nick
##nickerbock
##ningham
##nipp
##nish
##nishing
##njoy
##nkish
##nkoff
##nksgiving
##nlight
##nningham
##nnock
##nnually
##nock
##nomically
##nophyl
##noth
##nough
##now
##nowing
##nown
##npow
##nquish
##nsatzgrupp
##nsborough
##nshin
##nship
##nsibly
##nsically
##nslaught
##nswick
##ntally
##nterbury
##ntially
##ntiff
##ntifically
##ntionally
##ntock
##ntrally
##ntually
##ntucky
##nually
##numb
##nwhil
##nything
##nywh
##o
##oadblock
##obably
##obally
##obayashi
##obbing
##obby
##obengul
##obiliz
##obiography
##oboth
##obular
##ocabulary
##ocally
##ock
##ockdown
##ockh
##ockha
##ockhau
##ockhaus
##ockho
##ockhol
##ockhold
##ockholm
##ockhou
##odblock
##odically
##odstock
##ofessionally
##off
##ogfight
##ogfish
##ogh
##ogically
##ogoth
##ographically
##ography
##oj
##oldfrapp
##olically
##olish
##olishing
##oliz
##olizing
##olkoff
##ollack
##ollock
##ollow
##ollowing
##ollywood
##ologically
##olub
##olubl
##olving
##omewhat
##omewhere
##omically
##omph
##omplish
##ompting
##omptly
##omsbury
##omycorrhiz
##onagh
##onaghy
##onally
##onbury
##ong
##ongh
##ongho
##onghol
##onghold
##ongj
##ongju
##ongqing
##oniatowski
##onically
##onishing
##onlight
##onomically
##onophyl
##onough
##onship
##ontally
##oodblock
##oodstock
##oolish
##oomsbury
##oonlight
##oosebumps
##ooth
##oothing
##oothly
##ophy
##ophyl
##ophys
##ophysi
##ophysic
##ophysica
##ophysical
##ophyt
##opically
##oportionally
##opp
##opping
##oppy
##opshi
##opwith
##oquially
##orabji
##oradically
##orally
##ordship
##orically
##oriography
##orizontally
##orkshi
##orkshop
##orktown
##ormack
##ormick
##orongo
##orothy
##orough
##orphologically
##orphy
##orrhiz
##orrow
##orrowing
##orshipp
##ortally
##orthumb
##orthwhil
##ortionally
##ortsmanship
##oscopically
##oscow
##osebumps
##oshi
##oshim
##oshima
##oshock
##osophy
##ossibly
##oth
##othenburg
##othick
##othing
##othly
##otionally
##ottinghamsh
##ottish
##oub
##oubl
##ouch
##ough
##oughb
##oughby
##oughk
##ought
##oughto
##oughton
##oundtrack
##oung
##ourish
##ourishing
##outh
##outhw
##oversially
##oving
##ovisionally
##ow
##owback
##owhawk
##owhe
##owhea
##owhead
##owho
##owing
##own
##ownish
##ownlow
##owth
##owu
##owul
##owulf
##oxbury
##ozz
##ozzi
##p
##pack
##pally
##parazzi
##patrick
##pbu
##pbur
##pburn
##peshift
##pfgrupp
##ph
##phically
##phologically
##phy
##pically
##pionship
##plish
##pmoth
##pography
##poliz
##polize
##pong
##portionally
##poth
##pow
##powe
##power
##pp
##pping
##priving
##pshi
##pstick
##ptionally
##pub
##publ
##publi
##public
##publica
##publican
##publik
##publika
##publish
##puch
##puchi
##puchin
##pwith
##q
##qh
##qq
##qqa
##qu
##quially
##quish
##quith
##r
##rabbing
##rabji
##rack
##rackdown
##racking
##rackish
##racks
##radbury
##raddock
##radically
##raditionally
##radock
##radually
##raff
##raffic
##raffick
##rafficking
##raffiti
##rafford
##rakeng
##rally
##ralympic
##rampl
##ranagh
##randdaught
##randenburg
##randmoth
##rang
##rankish
##raphically
##raphy
##rapong
##rapp
##rappa
##rappal
##rappall
##rapping
##raq
##rashing
##rasshopp
##rationally
##rattack
##raught
##rawback
##rawong
##rayish
##razzi
##razzo
##rbally
##rbish
##rbishm
##rbock
##rboj
##rborough
##rbuck
##rbury
##rbuthnot
##rbyshire
##rchang
##rchange
##rchbishop
##rchitecturally
##rchlight
##rckx
##rcliff
##rclockwis
##rdianship
##rdiff
##rdock
##rdship
##rdships
##rdwick
##readnought
##readnoughts
##reakdown
##reakthrough
##redericksburg
##redibly
##rengg
##rengga
##renggan
##rengganu
##rength
##rescothick
##resumably
##rewsbury
##rfishing
##rflow
##rflowing
##rgh
##rginally
##rgrown
##rgrowth
##rguably
##rhiz
##rially
##riarcliff
##ribly
##ribut
##rically
##rick
##rickly
##ricksburg
##riendship
##rieving
##riff
##riffith
##riliz
##rincipally
##ringham
##rinsborough
##riodically
##riography
##ripp
##rippin
##ripping
##rish
##rishing
##riticizing
##ritish
##ritually
##riumph
##riving
##rizontally
##rizzl
##rizzly
##rkably
##rkish
##rkpatrick
##rkshi
##rkshir
##rkshire
##rkshop
##rktown
##rlapping
##rlborough
##rlocking
##rlordship
##rmack
##rmick
##rmingham
##rmish
##rmishing
##rmstrong
##rnally
##rnationally
##rnborough
##rnbuckl
##rnishing
##rnship
##robably
##rock
##rofessionally
##rogoth
##roj
##rompting
##romptly
##rong
##ronghold
##rongo
##ronically
##rophy
##rophyl
##rophyll
##roportionally
##ropp
##ropping
##ropshi
##roscopically
##roshima
##roth
##rothy
##roubl
##rouch
##rough
##roughs
##roversially
##roving
##rovisionally
##row
##rowback
##rowhawk
##rowhead
##rowing
##rowly
##rown
##rownish
##rownlow
##rowth
##rphologically
##rphy
##rplish
##rrack
##rracks
##rrang
##rrawong
##rrhiz
##rribly
##rriving
##rroughs
##rrow
##rrowhawk
##rrowhead
##rrowing
##rrowly
##rruth
##rship
##rshipp
##rshock
##rshocks
##rsially
##rsonally
##rstwhil
##rtally
##rthqu
##rthrown
##rthumb
##rthwhil
##rtially
##rtiliz
##rtionally
##rtsmanship
##rtually
##rtuzzi
##rubb
##ruchirappalli
##ruck
##ructurally
##rumb
##rumbi
##rumbl
##rumbling
##runswick
##rupp
##rush
##rushch
##rushing
##rutally
##ruth
##rvick
##rving
##rviving
##rwhal
##rwickshi
##rwickshir
##rydock
##ryng
##rystalliz
##rything
##rywh
##s
##sapp
##satzgrupp
##sbj
##sborough
##sbrough
##sburg
##sburgh
##sbury
##schoff
##scography
##scopically
##scothick
##scow
##sebumps
##sembly
##seng
##senhow
##serving
##sewhere
##sfully
##sgiving
##sgivings
##sgow
##sh
##shack
##shadow
##shadowing
##shback
##shbu
##shdown
##shi
##shib
##shiba
##shif
##shift
##shim
##shin
##shing
##shingt
##shingto
##shington
##ship
##shipp
##ships
##shir
##shire
##shirt
##shock
##shopp
##show
##shuff
##shuffl
##sially
##sibly
##sically
##sicianship
##sick
##singham
##sionally
##sippi
##sissippi
##slaught
##smanship
##smith
##smuth
##sock
##solubl
##solving
##sonally
##sophy
##squith
##ssembly
##sseng
##ssfully
##sshopp
##ssibly
##ssically
##ssionally
##ssippi
##ssissippi
##ssolving
##stabiliz
##stablish
##stablishing
##staff
##stalliz
##stbury
##stensibly
##stick
##sticks
##stinghous
##stinguish
##stinguishing
##stock
##stonbury
##stonishing
##stopp
##storically
##storiography
##stow
##strang
##straught
##strength
##stribut
##strogoth
##strong
##strophy
##stwhil
##sually
##subish
##successfully
##sumably
##supp
##suppl
##supply
##sushim
##swick
##sychologically
##sympto
##t
##tabbing
##tabiliz
##tabilizing
##tablish
##tablishing
##tack
##tacking
##taff
##talliz
##tally
##taphy
##taphys
##taphysi
##taphysic
##taphysica
##taphysical
##taphysics
##tarbuck
##tarving
##tbury
##tchcock
##tcliff
##tdown
##tecturally
##tempting
##tenburg
##tensibly
##tentionally
##tepmoth
##terally
##terborough
##terbury
##terchange
##teriliz
##terlocking
##ternally
##ternationally
##ternship
##tershocks
##tewardship
##th
##thamph
##thenburg
##thically
##thick
##thing
##thnically
##thoff
##thography
##though
##thought
##thqu
##through
##throw
##thrown
##thumb
##thwhil
##tially
##tically
##ticiz
##ticizing
##tick
##ticking
##tiff
##tifically
##tiliz
##tilizing
##tingham
##tinghamsh
##tinghous
##tinguish
##tinguishing
##tionally
##tionship
##tish
##tleships
##tobiography
##tock
##tockhaus
##tockhold
##tockholm
##tomycorrhiz
##tonbury
##tonishing
##tooth
##topp
##topping
##torically
##toriography
##touch
##tow
##town
##tows
##towsk
##towski
##track
##trally
##trang
##trapp
##trapping
##traught
##trength
##tribut
##tributi
##tributio
##tribution
##trically
##trick
##trieving
##tripp
##tripping
##triving
##trogoth
##trong
##tronghold
##tronically
##trophy
##truck
##tructurally
##trupp
##truth
##tsburgh
##tsmanship
##tsubish
##ttack
##ttacking
##ttempting
##tthoff
##ttingham
##ttinghamsh
##ttish
##ttleships
##ttock
##ttribut
##ttsburgh
##ttysburg
##tually
##tubb
##tucky
##tumbl
##turally
##tuzzi
##twaff
##twhil
##tylish
##tyliz
##tysburg
##tzgrupp
##tzpatrick
##u
##uably
##ually
##uangzhou
##uardianship
##ub
##ubb
##ubbing
##ubbish
##ubby
##ubish
##ubj
##ublish
##ublishing
##ubrick
##uccessfully
##uccumb
##uch
##uchback
##uchdown
##uchirappall
##uchirappalli
##uck
##uckingh
##ucky
##ucturally
##ucumb
##udbury
##uff
##uffing
##ufight
##uftwaff
##uggish
##ugh
##ugong
##ugsburg
##uish
##uishing
##ullough
##ully
##ulturally
##umably
##umb
##umba
##umbing
##umbl
##umbling
##umerically
##umoth
##umotho
##umothor
##umothora
##umothorax
##umpback
##umph
##umumb
##unchback
##unctionally
##undown
##undtrack
##unflow
##ung
##unish
##unishing
##unlight
##unningham
##unpow
##unshin
##unship
##unswick
##upp
##urally
##urang
##urbish
##urbishm
##urboj
##urdock
##urgh
##urish
##urishing
##urkish
##urnbuckl
##urnishing
##urphy
##urplish
##urrawong
##urroughs
##urrow
##urrowing
##urviving
##ush
##ushch
##ushi
##ushim
##ushing
##ushk
##usically
##usicianship
##usick
##usually
##utally
##utcliff
##utdown
##uth
##uthb
##utho
##uthor
##uthoriz
##uthw
##utobiography
##uttock
##utually
##uybrush
##uzz
##uzzi
##v
##velength
##velengths
##veng
##venge
##versially
##vick
##vidually
##viliz
##ving
##vish
##visionally
##viving
##volving
##vow
##w
##waff
##wallowing
##wang
##wapp
##wapping
##wardship
##washing
##wback
##wburgh
##wbury
##wfully
##wh
##wha
##whal
##wham
##what
##whaw
##whawk
##whe
##wher
##where
##whi
##whil
##whit
##who
##whu
##wick
##wickshi
##wight
##wish
##with
##wong
##wsbury
##wung
##x
##xbury
##xth
##xually
##y
##yashi
##yback
##ybrush
##ychologically
##ycorrhiz
##ydock
##yebrows
##yfish
##yflow
##ygh
##yish
##ylight
##ylish
##yliz
##ymbolically
##ymboliz
##ymbolizing
##ymouth
##ymph
##ympt
##ympto
##ynamically
##yng
##yngham
##yoff
##yong
##yoshi
##ypically
##ypoth
##yrically
##ysburg
##yshire
##ystalliz
##ystick
##ything
##yush
##ywh
##yzhk
##z
##zbu
##zbur
##zburg
##zeng
##zgrupp
##zh
##zhk
##ziz
##ziza
##znick
##zong
##zow
##zpatrick
##zz
##zza
##zzan
##zzani
##zzanin
##zzl
##zzo
[UNK]
a
abb
abby
abolish
abolishing
abu
abun
abund
abunda
abundan
abundanc
abundance
abundant
abus
abusing
abut
abutm
abutme
abutmen
abutment
accidentally
accomplish
accomplishm
accomplishme
accomplishmen
accomplishment
accomplishments
achieving
acknow
acknowl
acknowle
acknowled
acknowledg
acknowledge
acknowledged
acknowledgem
acknowledgeme
acknowledgemen
acknowledgement
acknowledges
acknowledging
acknowledgm
acknowledgme
acknowledgmen
acknowledgment
actually
additionally
aff
afgh
afgha
afghan
afghani
afghanis
afghanist
afghanista
afghanistan
aflaq
aftershocks
agripp
agrippa
agrippin
agrippina
airflow
album
albuqu
albuque
albuquer
albuquerqu
albuquerque
allow
allowing
along
although
ambush
amidships
among
amph
amphi
amphib
amphibi
amphibia
amphibian
amphibians
amphibio
amphibiou
amphibious
amphith
amphithe
amphithea
amphitheat
amphitheate
amphitheater
amphitheatr
amphitheatre
anaphyl
anaphyla
ang
angl
anglo
angloph
anguish
annually
anoth
anothe
another
anything
anywh
anywhe
anywher
anywhere
apoth
apothe
apothec
apotheca
apothecar
app
apply
applying
approving
aqh
aqha
arbuthnot
archange
archangel
archbishop
architecturally
arguably
armstrong
arrang
arrange
arranged
arrangem
arrangeme
arrangemen
arrangement
arrangements
arranging
arriving
arrow
arrowhead
arrows
ashbu
ashbur
asquith
assembly
astonishing
astrophy
astrophys
astrophysi
astrophysic
astrophysics
asympto
attack
attacking
attempting
attribut
attributa
attributab
attributabl
attributable
attribute
attributed
attributes
attributi
attributing
attributio
attribution
augsburg
auth
authe
authen
authent
authenti
authentic
authentici
authenticit
authenticity
autho
author
authori
authoris
authorit
authorita
authoritar
authoritari
authoritaria
authoritarian
authoritat
authoritati
authoritativ
authoritative
authoriti
authoritie
authorities
authority
authoriz
authorizing
authorship
autobiography
aveng
avenge
avenger
avengers
aziz
b
babcock
back
backg
backgr
backgro
backgrou
backgroun
background
backing
backpack
backw
backwa
backwar
backward
backwards
badajoz
baff
baffl
bagh
baghd
baghda
baghdad
bakshi
banagh
banaghe
banagher
bang
banging
bangk
bangko
bangkok
bangl
bangla
banglad
banglade
bangladesh
bangladeshi
banish
banishm
banishme
banishmen
banishment
barack
barracks
barrow
barrowm
barrowma
barrowman
bashi
bashir
basically
battleships
beaufight
beaufighte
beaufighter
bedrock
behaving
believing
belonging
benbow
beng
benga
bengal
benghazi
bengough
beowulf
berkshire
bertuzzi
bibliography
bick
biff
biffl
biffle
billy
bingham
binghamt
binghamto
binghamton
biography
bioshock
birmingham
bischoff
bish
bisho
bishop
bismuth
black
blackbu
blackbur
blackburn
blackhawks
blackish
blacksmith
blizz
blizza
blizzar
blizzard
block
blockb
blockbu
blockbus
blockbust
blockbuste
blockbuster
blockhou
blockhous
blockhouse
blocking
bloomsbury
blow
blowing
bluish
bobby
bock
boj
boji
bollywood
bong
bongo
booth
borough
borrow
borrowing
both
bouch
boucha
bouchar
bouchard
bouche
boucher
bough
bought
bow
bowing
bowl
bowling
brack
bracke
bracken
bracket
brackets
brackish
bradbury
braddock
branagh
brandenburg
breakdown
breakthrough
briarcliff
brick
brickw
brickwo
brickwor
brickwork
british
brock
brockm
brockma
brockman
brockw
broth
brothe
brothel
brothels
brother
brotherh
brotherho
brotherhoo
brotherhood
brothers
brough
brougha
brougham
brought
brow
brown
brownish
brownlow
brows
bruck
brunswick
brush
brushing
brutally
bu
bubb
bubba
bubbl
bubble
bubbleg
bubblegu
bubblegum
bubbles
bubbling
buck
buckingh
buckingha
buckingham
buckinghamsh
buckinghamshi
buckinghamshir
buckinghamshire
buckl
buff
buffa
buffal
buffalo
buffy
bui
buil
build
building
built
bullock
bully
bullying
bumb
bumbl
bump
bung
bunga
bungalow
bungi
bungie
burgh
burroughs
burrow
burrowing
burrows
bush
bushf
bushfi
bushfir
bushfire
but
buttock
buttocks
buzz
buzzw
buzzwo
buzzwor
by
byng
byz
byza
byzan
byzant
byzanti
byzantin
byzantine
byzantiu
byzantium
c
ca
cabb
cabba
cabbag
cabbage
cadbury
caff
callagh
callagha
callaghan
calligraphy
camb
cambo
cambod
cambodi
cambodia
cambodian
cambr
cambri
cambria
cambrian
cambrid
cambridg
cambridge
cambridgeshire
camp
campa
campai
campaig
campaign
campan
campani
campania
campb
campbe
campbel
campbell
camping
campu
campus
canterbury
cap
capa
capab
capabi
capabil
capabili
capabilit
capabiliti
capabilitie
capabilities
capability
capabl
capabla
capablan
capablanc
capablanca
capable
capac
capaci
capacit
capaciti
capacitie
capacities
capacito
capacitor
capacity
capi
capil
capill
capilla
capillar
capit
capita
capital
capitaliz
capito
capitol
capitu
capitul
capitula
capitulat
capitulate
capitulated
capitulati
capitulatio
capitulation
capp
capt
capta
captai
captain
capti
captio
caption
captiv
captivi
captivit
captivity
capto
captor
captors
captu
captur
capture
captured
capturing
capuchin
cardiff
carruth
carving
carvings
cash
cashi
casually
cath
catho
cathod
cathode
cathol
catholi
catholic
caugh
caught
centrally
ch
cha
chab
chaba
chabo
chabon
chadwick
chaff
chai
chain
chair
chairm
chairma
chairman
chairmanship
chait
chak
chako
chakot
chakota
chakotay
chakr
chakra
chakrapong
challeng
challenge
challenging
chamb
chamba
chambe
chamber
chamberl
chamberla
chamberlai
chamberlain
chamberli
chamberlin
chambers
champ
champi
champio
champion
champions
championship
chan
chanc
chance
chancel
chancell
chancelle
chanceller
chancellery
chancello
chancellor
chand
chandl
chandle
chandler
chandr
chandra
chang
change
changed
changes
changing
chann
channe
channel
channing
chant
chanting
chap
chape
chapel
chapl
chapla
chaplai
chaplain
chapli
chaplin
chapm
chapma
chapman
chapp
chappu
chappui
chappuis
chapt
chapte
chapter
char
chara
charac
charact
characte
character
characteriz
characters
charan
charc
charco
charcoa
charcoal
charg
charge
charged
charges
charging
chari
charing
chario
chariot
charis
charism
charisma
charismat
charismati
charismatic
charit
charita
charitab
charitabl
charitable
chariti
charitie
charities
charity
chariz
chariza
charizar
charizard
charl
charm
charmb
charmbr
charmbra
charmbrac
charmbrace
charmbracel
charmbracele
charmbracelet
charming
chart
chas
chasing
chath
chatha
chatham
chauff
chauffe
chauffeu
chauffeur
che
check
checking
checkp
checkpo
checkpoi
checkpoin
checkpoint
checkpoints
chekh
chekho
chekhov
chem
chemi
chemic
chemica
chemical
chemically
chemis
chemist
chemistr
chemistry
chemoth
chemothe
chemother
chemothera
chemotherap
chemotherapy
cheng
chenow
chenowe
chenoweth
chequ
cheque
cherish
chesh
chesha
chesham
cheshire
chew
chewing
chh
chi
chiang
chic
chica
chicag
chicago
chican
chick
chico
chiff
chiffr
chiffre
chih
chil
child
childb
childbi
childbir
childbirth
childh
childho
childhoo
childhood
childish
childr
childre
children
chimp
chimpa
chimpan
chimpanz
chimpanze
chimpanzee
chin
china
chinatown
ching
chip
chipp
chiqu
chiqui
chiquit
chish
chisho
chishol
chisholm
chiswick
chl
chlo
chlor
chlori
chlorid
chloride
chlorin
chloro
cho
chong
chongqing
chopp
chough
chow
chr
chri
chris
christ
christch
christchu
christchur
christchurch
christg
christga
christgau
christi
christia
christian
christianiz
christin
christina
christine
christm
christma
christmas
christo
christoph
christophe
christopher
christy
chro
chrom
chroma
chromat
chromati
chromatic
chrome
chromi
chromiu
chromium
chromo
chromos
chromoso
chromosom
chromosome
chromosomes
chron
chroni
chronic
chronicl
chronicle
chrono
chronol
chronolo
chronolog
chronologi
chronologic
chronologica
chronological
chronologicall
chronologically
chronology
chry
chrys
chrysa
chrysl
chrysle
chrysler
chryso
chu
chuck
chun
chung
chunk
chunks
chur
church
churn
chy
ci
cibb
cibbe
cibber
cig
ciga
cigar
cin
cinc
cinci
cincin
cincinn
cincinna
cincinnat
cincinnati
cinqu
cinque
cinquem
cinquema
cinqueman
cinquemani
ciph
ciphe
cipher
cir
circ
circa
circl
circle
circling
circu
circui
circuit
circul
circula
circular
circulat
circulate
circulated
circulati
circulating
circulatio
circulation
circulato
circulator
circulatory
circum
circumc
circumci
circumcis
circumcisi
circumcisio
circumcision
circumf
circumfe
circumfer
circumfere
circumferen
circumferenc
circumference
circumn
circumna
circumnav
circumnavi
circumnavig
circumnaviga
circumnavigat
circums
circumst
circumsta
circumstan
circumstanc
circumstance
circumstances
circumstant
circumstanti
circumstantia
circumstantial
circumv
circumve
circumven
circumvent
circus
cirqu
cirque
cirr
cirrh
cirrho
cirrhos
cirrhosi
cirrhosis
cirru
cirrus
cit
citi
citie
cities
citing
citiz
citize
citizen
citizens
citizenship
city
civ
civi
civic
civil
civiliz
civiliza
civilizat
civilizati
civilizatio
civilization
civilize
civilized
cl
cla
clack
clad
clai
claib
claibo
claibor
claiborn
claiborne
claim
claiming
clair
clam
clamp
clan
clank
clap
claph
clapha
clapham
clapp
clapping
clapt
clapto
clapton
clar
clari
clarif
clarifi
clarific
clarifica
clarificat
clarificati
clarificatio
clarification
clarifie
clarified
clarify
clarin
clarine
clarinet
claris
clariss
clarit
clarity
clark
clas
clash
clashing
clasp
class
classi
classic
classica
classical
classically
classif
classifi
classific
classifica
classificat
classificati
classificatio
classification
classifie
classified
classifier
classifiers
classifies
classify
classifying
clau
claud
claude
claudi
claudia
claudio
claudiu
claudius
claus
clav
clava
clavi
claw
claws
clay
cle
clea
clean
cleaning
clear
clearing
clearly
cleav
clef
cleft
cleg
clegg
clem
cleo
cleom
cleome
cleomen
cleomene
cleomenes
cleop
cleopa
cleopat
cleopatr
cleopatra
cler
clerg
clergy
clergym
clergyma
clergyman
clergyme
clergymen
cleri
cleric
clerica
clerical
clerics
clerk
clerm
clermo
clermon
clermont
clev
cleve
cleved
clevedo
clevedon
clevel
clevela
clevelan
cleveland
clever
cleverly
cley
clg
cli
clich
click
clicking
clif
cliff
cliffhang
cliffhange
cliffhanger
clift
clifto
clifton
clim
clima
climac
climact
climacti
climactic
climat
climate
climati
climatic
climato
climatol
climatolo
climatolog
climax
climb
climbing
clin
clinch
clinching
cling
clinging
clini
clinic
clinica
clinical
clint
clinto
clinton
clip
clipp
clipping
clips
cliqu
clique
cliv
clive
clo
clock
clockw
clockwi
clockwis
clockwise
clockwo
clockwor
clockwork
clog
clogg
clon
cloning
clos
close
closed
closely
closing
closu
closur
closure
cloth
clothing
clou
cloud
clouds
clough
clout
clouti
cloutie
cloutier
clouz
clouzo
clouzot
clov
clove
clover
cloverl
cloverle
cloverlea
cloverleaf
clow
clown
clu
club
cluj
clum
clump
clumps
clums
clumsy
clus
clust
cluste
cluster
clusters
clut
clutch
clutt
co
cobb
cobbl
cobble
cobbled
cobbles
cobby
cobu
cobur
coburg
cock
cockp
cockpi
cockpit
coff
coffe
coffi
coffin
cogh
coh
coincidentally
col
colb
colby
colch
cold
coldp
coldpl
coldpla
coldplay
coldw
coldwa
coldwat
coldwate
coldwater
coll
colloquially
colo
colog
cologn
cologne
colom
coloma
coloman
colomb
colombi
colombia
colombo
colon
colone
colonel
coloni
colonia
colonial
colonie
colonies
colonis
colonisa
colonisat
colonisati
colonisatio
colonisation
colonist
colonists
coloniz
coloniza
colonizat
colonizati
colonizatio
colonization
colonn
colonna
colonnad
colonnade
colony
color
colorf
colorfu
colorful
colos
coloss
colossa
colossal
colossu
colossus
colou
colour
colourf
colourfu
colourful
colu
colui
coluim
colum
columb
columba
columbi
columbia
columbin
columbine
columbu
columbus
column
columns
com
comb
comba
combat
combi
combin
combining
combo
combs
combu
combus
combust
combusti
combustio
combustion
comf
comfo
comfor
comfort
comforta
comfortab
comfortabl
comfortable
comfortably
coming
comm
commu
commun
communa
communal
commune
communi
communic
communica
communicat
communicate
communicati
communicating
communicatio
communication
communications
communio
communion
communiqu
communis
communism
communist
communit
communiti
communitie
communities
community
commut
commuting
comp
compa
compac
compact
compan
compani
companie
companies
companio
companion
company
compar
comparing
compas
compass
compassi
compassio
compassion
compat
compati
compatib
compatibi
compatibil
compatibili
compatibilit
compatibility
compatibl
compatible
compatr
compatri
compatrio
compatriot
compatriots
compl
compo
compon
compone
componen
component
components
compos
compose
composed
composer
composi
composing
composit
composite
compositi
compositio
composition
compou
compoun
compound
compounds
compu
compul
compuls
compulsi
compulsiv
compulsive
compulso
compulsor
compulsory
comput
computa
computat
computati
computatio
computation
computationa
computational
compute
computed
computer
computeriz
computerize
computerized
computing
comstock
con
conc
conch
concho
concub
concubi
concubin
concubine
cond
conde
condem
condemn
condemning
conden
condens
condes
condesc
condesce
condescen
condi
condit
conditi
conditio
condition
conditioning
conditions
condo
condol
condole
condolen
condolenc
condolence
condolences
condom
condomi
condomin
condomini
condominiu
condominium
condominiums
condoms
condon
condor
condu
conduc
conduci
conduciv
conducive
conduct
conducting
condui
conduit
conf
cong
congo
congol
congole
congoles
congolese
congr
congra
congrat
congratu
congratul
congratula
congratulat
congre
congreg
congrega
congregat
congregate
congregati
congregatio
congregation
congres
congress
conj
conju
conjug
conjuga
conjugat
conjun
conjunc
conjunct
conjuncti
conjunctio
conjunction
conjur
conk
conkl
conkling
conn
conqu
conque
conquer
conquering
conques
conquest
conqui
conquis
conquist
conquista
conquistad
conquistado
conquistador
cons
consi
consid
conside
consider
considerably
considering
consig
consign
consis
consist
consisting
consp
conspe
conspec
conspeci
conspecif
conspecifi
conspecific
conspi
conspic
conspicu
conspicuo
conspicuou
conspicuous
conspicuously
conspir
conspira
conspirac
conspiraci
conspiracy
conspirat
conspirato
conspirator
conspirators
conspire
conspired
conspiring
const
consta
constab
constabl
constable
constabu
constabul
constabula
constabular
constabulary
constan
constanc
constance
constant
constanti
constantin
constantine
constantino
constantinop
constantinopl
constantinople
constantiu
constantius
constantl
constantly
conste
constel
constell
constella
constellat
constellati
constellatio
constellation
conster
constern
consterna
consternat
consternati
consternatio
consternation
consti
constit
constitu
constitue
constituen
constituenc
constituenci
constituencie
constituencies
constituency
constituent
constituents
constitut
constitute
constituted
constitutes
constituti
constituting
constitutio
constitution
constitutionally
constr
constra
constrai
constrain
constraint
constraints
constri
constric
constrict
constru
construc
construct
constructi
constructing
constructio
construction
constructiv
construe
construed
consu
consul
consult
consulta
consultan
consultant
consultat
consultati
consultatio
consultation
consulting
consum
consume
consumed
consumer
consumers
consuming
consumm
consumma
consummat
consump
consumpt
consumpti
consumptio
consumption
cont
continually
contribut
contributi
contributing
contributio
contribution
contributions
controversially
conv
conventionally
conw
conwa
conway
conwy
conyngham
cop
copi
copie
copied
copies
copio
copiou
copious
copp
copy
copying
cou
couch
coug
couga
cougar
cougars
cough
coughing
coul
could
couls
coulso
coulson
coult
coulte
coulter
coulth
coultha
coulthar
coulthard
coun
counc
counci
council
couns
counse
counsel
counseling
count
countdown
counterattack
counterclockwis
counterclockwise
countr
countri
countrie
countries
country
county
coup
coupl
couple
coupling
cour
coura
courag
courage
couran
courant
couri
courie
courier
cours
course
coursing
court
courth
courtho
courthou
courthous
courthouse
courtsh
courtshi
courtship
cous
cousi
cousin
cousy
cout
couta
coutan
coutanc
coutance
coutances
cov
cova
coval
covale
covalen
covalent
cove
coven
covena
covenan
covenant
covent
coventr
coventry
cover
covering
coving
covingt
covingto
covington
cox
cpp
cr
crack
crackdown
cracking
cradock
craftsmanship
crapp
crashing
crick
cricke
cricket
cripp
crippl
cripple
crippled
crippling
criticiz
criticize
criticized
criticizes
criticizing
crock
crocke
crocker
crocket
crockett
cropp
croppe
cropped
crouch
crow
crowd
crowl
crowle
crowley
crown
crowth
crowthe
crowther
crumb
crumbl
crumble
crumbling
crush
crushing
crystalliz
cu
cub
cuba
cuban
cubi
cubic
cubit
cubitt
cubs
cuck
cucko
cuckoo
cucumb
cucumbe
cucumber
cuff
cul
culi
culin
culina
culinar
culinary
cull
culm
culmi
culmin
culmina
culminat
culminating
culp
culpa
culpab
culpr
culpri
culprit
cult
culti
cultiv
cultiva
cultivar
cultivars
cultivat
cultivati
cultivatio
cultivation
cultu
cultur
cultura
cultural
culturally
culture
culv
culve
culver
culverh
culverho
culverhou
culverhous
culverhouse
culvert
cum
cuma
cuman
cumans
cumb
cumm
cumming
cummings
cumu
cumul
cumula
cumulat
cumulati
cumulativ
cumulative
cumulu
cumulus
cunningham
cup
cur
curb
curf
curfe
curfew
curly
curr
curra
curran
currawong
curre
curren
currenc
currenci
currencie
currencies
currency
current
currently
curri
curric
curricu
curricul
curricula
curriculu
curriculum
currie
curry
curt
curta
curtai
curtail
curtain
curti
curtin
curtis
curv
curva
curvat
curvatu
curvatur
curvature
curve
curveb
curveba
curvebal
curveball
curved
curves
curving
curz
curzo
curzon
cus
cushi
cushing
cushio
cushion
cusp
cusps
cust
custo
custod
custodi
custodia
custodian
custody
custom
customiz
customiza
customizat
customizati
customizatio
customization
customize
customized
cut
cuthb
cuthbe
cuthber
cuthbert
cutoff
cutth
cutthr
cutthro
cutthroa
cutthroat
cy
cyb
cyc
cycl
cycling
cyclo
cyclog
cycloge
cyclogen
cyclogene
cyclogenes
cyclogenesi
cyclogenesis
cyclon
cyclone
cycloni
cyclonic
cyclop
cyclops
cyclot
cyclotr
cyclotro
cyclotron
cyg
cygn
cyl
cyli
cylin
cylind
cylo
cylon
cymb
cymba
cymbal
cymbals
cyp
cypr
cypre
cypres
cypress
cypri
cyprio
cypriot
cypru
cyprus
cyr
cyri
cyril
cyrill
cyrilli
cyrillic
cyru
cyrus
cz
d
daffo
daffod
daffodi
daffodil
dang
dange
danger
dangero
dangerou
dangerous
dangerously
dangi
dangl
danish
dashing
daugh
daught
daughte
daughter
daylight
dazz
dazzl
dazzle
dazzling
debby
debut
delightful
demobiliz
demolish
demolishe
demolished
demolishing
deng
dengu
dengue
depriving
derbyshire
destabiliz
diagonally
dick
diff
digitally
diminish
diminishing
dingh
dipp
dippe
dipped
dipping
disapp
disappo
disappoi
disappoin
disappoint
disappointe
disappointed
disappointing
disappointm
disappointme
disappointmen
disappointment
discography
diseng
disenga
disengag
disengage
disengaged
dish
dissolving
distinguish
distinguishing
distraught
distribut
distributi
distributing
distributio
distribution
diving
dizz
dizzy
djang
django
djok
djoko
djokov
djokovi
djokovic
dmow
dmows
dmowsk
dmowski
dock
docking
docky
dockya
dockyar
dockyard
dogfight
dogfish
donaghy
dong
dopp
doppe
doppel
doppelg
doppl
dopple
doppler
dorothy
doth
doub
doubl
double
doubleh
doublehe
doublehea
doublehead
doubleheade
doubleheader
doubling
doubt
doubtf
doubtfu
doubtful
dough
doughn
doughnu
doughnut
dow
down
downg
downgr
downgra
downgrad
downgrade
downgraded
downh
downhi
downhil
downhill
downtown
drakeng
drakenga
drakengar
drakengard
draught
drawback
dreadnought
dreadnoughts
dripping
driving
dropp
droppe
dropped
dropping
drough
drought
drow
drown
drowning
druck
druckm
druckma
druckman
druckmann
drydock
dub
dubb
dubbe
dubbed
dubbing
dubl
dubli
dublin
duch
duche
duches
duchess
ducho
duchov
duchovn
duchovny
duchy
duck
ducks
duckw
duckwo
duckwor
duckworth
duff
duffy
dugong
dugongs
dumb
dumbl
dumble
dumbled
dumbledo
dumbledor
dumbledore
dung
dwight
dynamically
e
earthqu
earthqua
earthquak
earthquake
eckh
eckha
eckhar
eckhart
economically
ectomycorrhiz
ectomycorrhiza
ectomycorrhizal
edinburgh
eff
effe
effec
effect
effecti
effectiv
effective
effectively
effects
effem
effemi
effemin
effemina
effi
effic
effica
efficac
efficacy
effici
efficie
efficien
efficienc
efficiency
efficient
efficiently
effig
effigy
effo
effor
effort
efforts
effu
effus
effusi
eiff
eiffe
eiffel
eigh
eight
eighth
einsatzgrupp
einsatzgruppe
einsatzgruppen
eisenhow
eisenhowe
eisenhower
eith
eithe
either
elbow
electrically
electronically
eliz
eliza
elizab
elizabe
elizabeth
elong
elonga
elongat
elongate
elongated
elsewhere
emb
emba
embal
embalm
emban
embank
embankm
embankme
embankmen
embankment
embar
embarg
embargo
embark
embarking
embarr
embarra
embarras
embarrass
embarrassing
embarrassm
embarrassme
embarrassmen
embarrassment
embas
embass
embassi
embassie
embassies
embassy
embellish
embezzl
embl
embo
embod
embodi
embodie
embodied
embodies
embodim
embodime
embodimen
embodiment
embody
embol
embold
embolde
embolden
emboldene
emboldened
embr
embra
embrac
embrace
embraced
embracing
embrae
embraer
embras
embrasu
embrasur
embrasure
embrasures
embro
embroi
embroid
embroide
embroider
embroidere
embroidered
embroidery
embroil
embroile
embroiled
embry
embryo
embryon
embryoni
embryonic
embryos
emotionally
emp
emph
empha
emphas
emphasi
emphasis
emphasising
emphasiz
emphasize
emphasized
emphasizes
emphasizing
emphat
emphati
emphatic
emphy
emphys
emphyse
emphysem
emphysema
empi
empir
empire
empiri
empiric
empirica
empirical
empl
empla
emplac
emplace
emplacem
emplaceme
emplacemen
emplacement
emplacements
emplo
employ
employing
employm
employme
employmen
employment
empow
empowe
empower
empowering
empowerm
empowerme
empowermen
empowerment
endow
endowe
endowed
endowm
endowme
endowmen
endowment
eng
enga
engag
engage
engaged
engagem
engageme
engagemen
engagement
engaging
engi
engin
engine
engl
engla
englan
england
english
engr
engra
engrav
engrave
engraved
engraver
engraving
engravings
engro
engros
engross
engu
engul
engulf
engus
enjoy
enjoying
enlight
enlighte
enlighten
enlightenm
enlightenme
enlightenmen
enlightenment
enough
ep
epi
epic
epid
epide
epidem
epidemi
epidemic
epidemio
epidemiol
epidemiolo
epidemiolog
epidemiology
epider
epiderm
epig
epigr
epigra
epigraph
epik
epikl
epikle
epikler
epiklero
epil
epile
epilep
epileps
epilepsy
epilept
epilepti
epileptic
epilo
epilog
epilogu
epilogue
epiph
epipha
epiphan
epiphany
epir
epiro
epirot
epirote
epiru
epirus
epis
episc
episco
episcop
episcopa
episcopal
episcopat
episcopate
episo
episod
episode
episodi
episodic
epist
epistl
epistle
epistles
epit
epita
epitaph
epith
epithe
epithel
epitheli
epitheliu
epithelium
epithet
epito
epitom
epitome
epitomi
epitomiz
epitomize
epp
equ
equa
equal
equaliz
equall
equally
equat
equate
equated
equati
equating
equatio
equation
equations
equato
equator
equatori
equatoria
equatorial
eque
eques
equest
equestr
equestri
equestria
equestrian
equi
equil
equili
equilib
equilibr
equilibri
equilibriu
equilibrium
equin
equine
equino
equinox
equip
equipm
equipme
equipmen
equipment
equipp
equippe
equipped
equipping
equit
equita
equitab
equitabl
equitable
equity
equiv
equiva
equival
equivale
equivalen
equivalenc
equivalent
equivo
equivoc
equivoca
equu
equus
erick
ericks
erickso
erickson
erinsborough
erstwhil
erstwhile
establish
establishing
establishm
establishme
establishmen
establishment
estrang
estrange
estranged
ethnically
euch
eucha
euchar
euchari
eucharis
eucharist
euth
eutha
euthan
ev
evang
evange
evangel
evangeli
evangelic
evangelica
evangelical
evangelio
evangelion
evangelis
evangelist
eventually
everything
everywh
everywhe
everywher
everywhere
evolving
ex
exampl
example
exc
exceptionally
exch
excha
exchan
exchang
exchange
exchanging
exche
exchequ
excheque
exchequer
excl
excla
exclai
exclaim
exclam
exclama
exclu
exclud
exclude
excluded
excluding
exclus
exclusi
exclusio
exclusion
exclusiv
exclusive
exclusively
exclusivi
exclusivit
exclusivity
exh
exha
exhau
exhaus
exhaust
exhausting
exhi
exhib
exhibi
exhibit
exhibiti
exhibiting
exhibitio
exhibition
exhil
exhila
exhilar
exhilara
exhilarat
exhilarating
exho
exhor
exhort
exhu
exhum
exi
exil
exile
exiled
exis
exist
existing
exit
exiting
exp
expl
expla
explai
explain
explaining
explan
explana
explanat
explanati
explanatio
explanation
explanato
explanator
explanatory
expli
explic
explici
explicit
explicitl
explicitly
explo
explod
explode
exploded
explodes
exploding
exploi
exploit
exploiting
explor
exploring
explos
explosi
explosio
explosion
explosiv
explosive
explosives
exqu
exqui
exquis
exquisi
exquisit
exquisite
ext
externally
extinguish
exub
exube
exuber
exubera
exuberan
exuberant
eyebrows
f
faithful
faithfully
falstaff
farnborough
fashi
fashio
fashion
fatally
federally
fellowship
feng
fertiliz
fick
figh
fight
fighting
filipp
filmography
finally
finish
finishing
fish
fishing
fitzpatrick
fjor
fjord
flagship
flagstaff
flamethrow
flamethrowe
flamethrower
flashback
flashbacks
flashing
flick
flight
flipp
flipping
flock
flocks
flourish
flourishing
flow
flowing
flush
flushing
fo
foc
foca
focal
fock
focu
focus
focusing
fog
fogg
foggy
fok
fokk
fokke
fokker
fol
fold
folding
foli
folia
foliag
foliage
folio
foliot
folk
folkl
folklo
folklor
foll
folli
follic
follicl
follicle
follicles
follie
follies
follow
following
folly
fon
fond
fondly
font
fonta
fontai
fontain
fontaine
fontan
fontana
foo
food
fool
foolish
foot
footb
footba
footbal
football
footbr
footbri
footbrid
footbridg
footbridge
footh
foothi
foothil
foothill
foothills
footho
foothol
foothold
footp
footpa
footpath
footpr
footpri
footprin
footprint
footprints
for
forcibly
foreshadow
form
formaliz
formalize
formalized
formally
fos
foss
fossi
fossil
fossiliz
fossils
fost
foste
foster
fostering
fou
fough
fought
foul
foun
found
fount
founta
fountai
fountain
four
fourth
fow
fowl
fox
foxh
foxho
foy
frankish
fraught
fredericksburg
friendship
frown
fuch
fuchs
fuck
fucking
fully
fumb
fumbl
fumble
fumbled
functionally
fung
funga
fungal
fungi
fungu
fungus
furnishing
furnishings
furrow
furrows
fuzz
fuzzy
g
gaff
gallagh
gallaghe
gallagher
gang
generally
genghis
geophysical
gettysburg
ghq
giff
giffo
giffor
gifford
gillingham
gilly
gimmick
giraff
giraffe
giraffes
gish
giving
glasgow
glastonbury
glick
globally
globular
glock
glow
glowing
goff
gogh
goldfrapp
gong
goosebumps
goth
gotha
gotham
gothenburg
gothi
gothic
gough
gow
gown
gq
grabbing
gradually
graffiti
granddaught
granddaughte
granddaughter
grandmoth
grandmothe
grandmother
grang
grange
graphically
grapp
grappl
grapple
grappling
grasshopp
grasshoppe
grasshopper
grasshoppers
grayish
grieving
griff
griffi
griffin
griffith
gripping
grizzl
grizzli
grizzlie
grizzlies
grizzly
grouch
grow
growing
grown
growth
grupp
gruppe
gruppen
gruppenk
gruppenko
gruppenkom
gruppenkomm
gruppenkomma
gruppenkomman
gruppenkommand
gruppenkommande
gruppenkommandeu
gruppenkommandeur
guangzhou
guardianship
gub
gube
guber
gubern
guberna
gubernat
gubernato
gubernator
gubernatori
gubernatoria
gubernatorial
gully
gumb
gumbo
gunpow
gunpowd
gunpowde
gunpowder
gunship
guth
guthr
guthri
guthrie
guybrush
h
habsburg
hack
hacking
haddock
hajj
halfback
hammock
hampshir
hampshire
hancock
hang
hanging
hangzhou
happ
happy
hardship
hardships
hardwick
harrow
harrowing
harvick
hashi
hashim
hashimo
hashimot
hashimoto
haught
having
heathrow
hemlock
heng
hepburn
hick
hickm
hickma
hickman
hicko
hickok
hickor
hickory
hicks
high
highbu
highbur
highbury
highlight
highlighting
highly
highw
highwa
highway
hijack
hijacke
hijacked
hijacker
hijackers
hijacking
hillenburg
hillsborough
hilly
hindenburg
hipp
hippo
hippoc
hippoca
hippocamp
hippocampu
hippocampus
hippocr
hippocra
hippocrat
hippod
hippodr
hippodro
hippodrom
hippodrome
hippop
hippopo
hippopot
hippopota
hippopotam
hippopotamu
hippopotamus
hippos
hiroshima
historically
historiography
hitchcock
hobby
hock
hocke
hockey
hoff
hoffm
hoffma
hoffman
hollow
hollywood
hong
hopp
hoppe
hopper
hopping
hoppu
hoppus
horizontally
hoth
hough
hought
houghto
houghton
how
hub
hubb
hubba
hubbar
hubbard
hubbl
hubble
huffing
huffingt
huffingto
huffington
hugh
humb
humbl
humpback
humph
humphr
humphre
humphrey
hunchback
hung
hunga
hungar
hungari
hungaria
hungarian
hungary
hush
hypoth
hypothe
hypothes
hypothese
hypotheses
hypothesi
hypothesis
hypothesiz
hypothesize
hypothesized
hypothet
hypotheti
hypothetic
hypothetica
hypothetical
hypothy
hypothyr
hypothyro
hypothyroi
hypothyroid
hypothyroidi
hypothyroidis
hypothyroidism
i
ibu
ibuk
ibuki
ick
idoliz
idolize
if
iff
ij
ija
ijn
ikhsh
ikhshi
ikhshid
illegally
illy
illyr
illyri
illyria
im
ima
imag
imam
imax
imf
imi
imit
imita
imitat
imitati
imitating
imitatio
imitation
imm
immobiliz
imp
impa
impac
impact
impai
impair
impairm
impairme
impairmen
impairment
impal
impar
impart
imparti
impartia
impartial
impas
impass
impassa
impassab
impassabl
impassable
impassi
impassio
impassion
impassione
impassioned
impat
impati
impatie
impatien
impatient
impl
impli
implic
implica
implicat
implicate
implicated
implicati
implicatio
implication
implications
implici
implicit
implicitly
implie
implied
implies
imply
implying
impo
impor
import
importa
importan
importanc
importance
important
importantly
importat
importati
importatio
importation
importing
impos
imposing
imposs
impossi
impossib
impossibi
impossibil
impossibili
impossibilit
impossibility
impossibl
impossible
impot
impote
impoten
impou
impoun
impound
impov
impove
impover
impoverish
impoverishe
impoverished
impr
impro
improb
improba
improbab
improbabl
improbable
impromp
imprompt
impromptu
improp
improv
improve
improved
improvem
improveme
improvemen
improvement
improvements
improvi
improving
improvis
improvising
in
inapp
inappr
inappro
inapprop
inappropr
inappropri
inappropria
inappropriat
inappropriate
incidentally
incredibly
incumb
incumbe
incumben
incumbent
indiff
indiffe
indiffer
indiffere
indifferen
indifferenc
indifference
indifferent
indistinguish
indistinguisha
indistinguishab
indistinguishabl
indistinguishable
individually
infighting
inflow
ingh
ingha
ingham
initially
inj
inje
injec
inject
injecti
injecting
injectio
injection
inju
injun
injunc
injunct
injuncti
injunctio
injunction
injur
injure
injured
injuri
injurie
injuries
injuring
injury
injus
injust
injusti
injustic
injustice
insolubl
insoluble
intentionally
interchange
interlocking
internally
internationally
internship
involving
iow
iowa
iph
ipho
iphon
iphone
iq
iqb
iqba
iqbal
iraq
irish
ironically
irving
is
ish
ishi
ishik
ishika
ishikaw
ishikawa
it
izz
izzi
izzie
j
ja
jab
jaba
jabal
jabb
jabba
jac
jaci
jacin
jacint
jacinto
jack
jacks
jackso
jackson
jaco
jacob
jacqu
jaff
jaffa
jaffn
jaffna
jag
jaga
jagan
jagann
jaganna
jagannath
jagd
jagdg
jagdge
jagdges
jagdgesch
jagdgeschw
jagdgeschwa
jagdgeschwad
jagdgeschwade
jagdgeschwader
jagg
jagge
jagged
jagger
jagi
jagie
jagiel
jagu
jagua
jaguar
jah
jaj
jajc
jajce
jak
jam
jamb
jambo
jan
jang
janu
janua
januar
january
janus
jap
japa
japan
japo
japon
jarrow
jav
java
jave
javel
javeli
javelin
javi
jaw
jaws
jay
jayh
jayha
jayhaw
jayhawk
jayhawks
jaz
jazi
jazir
jazira
jazz
jellyfish
jewish
jo
job
jock
joff
joffr
joffre
joh
joha
johan
johann
johans
johanss
johansso
johansson
johar
john
joho
johor
joi
join
joining
jok
joke
joking
jokingl
jokingly
jolly
jong
josh
joshu
joshua
jou
jour
jourd
jourda
jourdan
journ
journa
journal
journali
journalis
journalism
journalist
journe
journey
jous
joust
joystick
ju
jua
juan
jub
juba
jubi
jubil
jud
juda
judah
judai
judais
judaism
judas
judg
judge
judging
judgm
judgme
judgmen
judgment
judi
judic
judici
judicia
judicial
judiciar
judiciary
judith
judy
jug
jugg
juggl
juk
juke
jukeb
jukebo
jukebox
jul
juli
julia
julian
juliu
julius
july
jumb
jumbo
jump
jumping
jun
jung
jungl
jungle
jup
jupi
jupit
jupite
jupiter
jur
jura
juras
jurass
jurassi
jurassic
jurch
jurche
jurchen
jurchens
juri
juris
jurisd
jurisdi
jurisdic
jurisdict
jurisdicti
jurisdictio
jurisdiction
jurisp
jurispr
jurispru
jurisprud
jurisprude
jurispruden
jurisprudenc
jurisprudence
jurist
juro
juror
jurors
jury
jus
just
juv
juve
juven
juveni
juvenil
juvenile
juveniles
juvent
juventu
juventus
jux
juxt
juxta
juxtap
juxtapo
juxtapos
juxtaposi
juxtaposit
juxtapositi
juxtapositio
juxtaposition
k
kaifeng
kakashi
kalimpong
kampfgrupp
kampfgruppe
kampuch
kampuche
kampuchea
kampuchean
kampung
kang
kanga
kangar
kangaro
kangaroo
kangaroos
kapp
kappa
kaq
kaqch
kaqchi
kaqchik
kaqchike
kaqchikel
kashi
kentucky
kerrang
kh
kha
khag
khaga
khagan
khal
khali
khalid
khalif
khalifa
khan
khar
khark
khaw
khawa
khaz
khaza
khazar
khazars
khm
khme
khmer
khrushch
khrushche
khrushchev
khu
khur
khura
khuras
khurasa
khurasan
khz
kick
kicking
kickoff
kidnapping
king
kingd
kingdo
kingdom
kingfish
kingfishe
kingfisher
kingsh
kingshi
kingship
kinship
kipp
kirkpatrick
kish
kishi
kishim
kishimo
kishimot
kishimoto
km
knick
knickerbock
knickerbocke
knickerbocker
knicks
knock
knocking
know
knowing
knowingly
knowl
knowle
knowled
knowledg
knowledge
knowles
known
kobayashi
koj
koji
kojim
kojima
kong
kopp
kow
kowa
kowal
krish
krishn
krishna
krupp
kub
kubi
kubic
kubica
kubice
kubicek
kubl
kubla
kublai
kubrick
kuch
kuching
kumb
kumba
kumbak
kumbako
kumbakon
kumbakona
kumbakonam
kung
kush
kwh
kyush
kyushu
l
lack
lacking
laff
laffo
laffoo
laffoon
lagrang
lakshmi
lancashir
lancashire
landown
landowne
landowner
landowners
lang
langf
langfo
langfor
langford
langu
langua
languag
language
larouch
larouche
laryng
laterally
laugh
laughing
lavish
lavishly
layoff
lazz
legally
lehigh
leng
length
lengthy
libby
lick
licking
ligh
light
lighth
lighthe
lighthea
lighthear
lightheart
lighthearte
lighthearted
lightho
lighthou
lighthous
lighthouse
lighting
lightly
lilly
lindow
lipp
lipstick
literally
lith
lithi
lithiu
lithium
litho
lithog
lithogr
lithogra
lithograph
lithu
lithua
lithuan
lithuani
lithuania
lithuanian
living
liz
lizz
lizzi
lizzie
lizzy
ljub
ljubl
ljublj
ljublja
ljubljan
ljubljana
ljungb
ljungbe
ljungber
ljungberg
lobby
lobbying
lobengul
lobengula
locally
lock
lockdown
lockh
locking
logically
long
longh
longho
longhor
longhorn
longhorns
lordship
loth
lotha
lothi
lothia
lothian
lough
loung
lounge
loving
low
lub
luch
lucha
luck
lucknow
lucky
luftwaff
luftwaffe
lumb
lumumb
lumumba
lung
lush
luth
lymph
lympho
lymphoc
lymphom
lymphoma
lyrically
m
mack
magh
maharishi
major
majunga
makeshift
making
mammoth
mang
manga
mango
mangr
mangro
mangrov
mangrove
mangroves
manpow
manpowe
manpower
manslaught
manslaughte
manslaughter
manually
mapp
mapping
marbury
marginally
marlborough
marrow
mayflow
mayflowe
mayflower
mazz
mcclintock
mccormack
mccormick
mccrack
mccracke
mccracken
mcdonough
mcdow
mck
mcki
mckin
mckinl
mckinle
mckinley
mckinn
mckins
mckinse
mckinsey
mclaugh
mclaughl
mclaughli
mclaughlin
mcnally
meadow
meadows
meanwhil
meanwhile
mechanically
meckiff
mecklenburg
medically
memphis
meng
mengs
mengsk
mentally
merckx
messeng
messenge
messenger
metaphysical
metaphysics
methamph
methamphe
methamphet
methampheta
methamphetam
methamphetami
methamphetamin
methamphetamine
mezzanin
mezzanine
mick
microw
microwa
microwav
microwave
middlesbrough
midshipm
midshipma
midshipman
midshipme
midshipmen
miff
miffl
miffli
mifflin
might
mimick
mimicke
mimicked
mimicking
misgivings
mish
misha
mishap
mississippi
mitsubish
mitsubishi
mobiliz
mock
mocking
mockingb
mockingbi
mockingbir
mockingbird
moff
moffa
moffat
moj
moja
mojav
mojave
monagh
monagha
monaghan
mong
mongo
mongol
mongoli
mongolia
mongolian
mongols
mongoo
mongoos
mongoose
monophyl
moonlight
morally
morphologically
morrow
mortally
moscow
moth
mothe
mother
motherh
motherho
motherhoo
motherhood
moths
mouth
moving
mow
mowb
mowbr
mowbra
mowbray
mph
much
mugh
mugha
mughal
mumb
mumba
mumbai
mupp
muppe
muppet
muppets
murdock
murphy
mush
mushr
mushro
mushroo
mushroom
mushrooms
musically
musicianship
muth
mutually
muzz
muzzl
muzzle
mycorrhiz
mycorrhiza
mycorrhizal
n
narrow
narrowing
narrowly
narwhal
nationally
naturally
naugh
naught
naughty
neighbor
neighborhood
neighborhoods
neighboring
neighbors
neighbour
neighbourhood
neighbouring
neighbours
newburgh
newbury
nh
nhc
nhl
nhu
nick
nickn
nickna
nicknam
nickname
nicknamed
nigh
night
nightclub
nipp
nippl
nipple
nippo
nippon
nish
nishi
no
nob
nobe
nobel
nobi
nobil
nobili
nobilit
nobility
nobl
noble
noblem
noblema
nobleman
nobleme
noblemen
nobo
nobod
nobody
nobu
nobuo
noj
noji
nojim
nojima
nojp
nojpe
nojpet
nom
noma
nomad
nomadi
nomadic
nomads
nome
nomen
nomenc
nomencl
nomencla
nomenclat
nomenclatu
nomenclatur
nomi
nomin
nomina
nominal
nominall
nominally
nominat
nominate
nominated
nominati
nominating
nominatio
nomination
nominations
nomine
nominee
nomu
nomur
nomura
nor
norf
norfo
norfol
norfolk
norm
norma
normal
normaliz
normalize
normalized
normall
normally
norman
normand
normandy
norms
north
northumb
northumbe
northumber
northumberl
northumberla
northumberlan
northumberland
northumbr
northumbri
northumbria
northw
norw
norwa
norway
not
notably
noth
nothing
notho
nothom
nothomy
nothomyr
nothomyrm
nothomyrme
nothomyrmec
nothomyrmeci
nothomyrmecia
nottingham
nottinghamsh
nottinghamshi
nottinghamshir
nottinghamshire
notwith
notwiths
notwithst
notwithsta
notwithstan
notwithstand
notwithstanding
nourish
nourishm
nourishme
nourishmen
nourishment
nov
nova
novak
nove
novel
noveliz
noveliza
novelizat
novelizati
novelizatio
novelization
novemb
novembe
november
novg
novgo
novgor
novgoro
novgorod
novi
novic
novice
novo
novos
now
nowh
nowhe
nowher
nowhere
nozz
nozzl
nozzle
numb
numbe
number
numerically
nuth
nutha
nuthat
nuthatch
nymph
nymphs
o
ob
obj
obje
objec
object
objecti
objectio
objection
objections
objectiv
objective
objectives
objectivi
objects
obl
obla
oblas
oblast
obli
oblig
obliga
obligat
obligate
obligated
obligati
obligatio
obligation
obligations
obligato
obligator
obligatory
oblige
obliged
obliqu
oblit
oblite
obliter
oblitera
obliterat
obliv
oblivi
oblivio
oblivion
obliviou
oblivious
oblong
obs
observing
obt
obta
obtai
obtain
obtaining
obv
obve
obver
obvers
obverse
obvi
obvio
obviou
obvious
obviousl
obviously
oc
occ
occa
occas
occasi
occasio
occasion
occasiona
occasional
occasionall
occasionally
occasions
occi
occid
occide
occiden
occident
occidenta
occidental
occl
occlu
occu
occul
occult
occup
occupa
occupan
occupanc
occupancy
occupant
occupants
occupat
occupati
occupatio
occupation
occupi
occupie
occupied
occupier
occupies
occupy
occupying
occur
occurr
occurre
occurred
occurren
occurrenc
occurrence
occurring
occurs
oct
octa
octag
octago
octagon
octagona
octagonal
octav
octavi
octavia
octavian
octo
octob
octobe
october
octop
octopu
octopus
of
off
offi
offic
office
officer
officers
offici
officia
official
officially
officials
officiat
officiate
officiated
officiating
offsh
offsho
offshoo
offshoot
offshor
offshore
oh
ohang
ohi
ohio
oj
oji
ojib
ojibw
ojibwa
ojibwe
ok
okl
okla
oklah
oklaho
oklahom
oklahoma
ol
old
oldenburg
oldh
oldha
oldham
olf
olfa
olfac
olfact
olfacto
olfactor
olfactory
olg
olga
oli
olig
oliga
oligar
oligarch
oligo
oligoc
oligoce
oligocen
oligocene
oligon
oligonu
oligonuc
oligonucl
oligonucle
oligonucleo
oligonucleot
oligonucleoti
oligonucleotid
oligonucleotide
olim
olimp
olimpi
oliph
olipha
oliphan
oliphant
oliv
olive
oliver
olivi
olivia
olivie
olivier
oly
olym
olymp
olympi
olympia
olympic
olympics
olympu
olympus
on
ong
ongo
ongoing
only
onslaught
op
operationally
oph
opp
oppe
oppen
oppenh
oppenhe
oppenhei
oppenheim
oppenheime
oppenheimer
oppo
oppon
oppone
opponen
opponent
opponents
oppor
opport
opportu
opportun
opportuni
opportunis
opportunist
opportunisti
opportunistic
opportunit
opportuniti
opportunitie
opportunities
opportunity
oppos
oppose
opposed
opposi
opposing
opposit
opposite
oppositi
oppositio
opposition
oppr
oppre
oppres
oppress
oppressi
oppressio
oppression
oppressiv
oppressive
or
orally
orang
orange
orangu
orangut
oranguta
orangutan
orangutans
orch
org
orga
organ
organi
organic
organis
organisa
organisat
organisati
organisatio
organisation
organise
organised
organiser
organisers
organising
organism
organisms
organist
organiz
organiza
organizat
organizati
organizatio
organization
organize
organized
organizing
orgas
orgasm
originally
orph
orpha
orphan
orthography
osh
osha
ostensibly
ostrogoth
oth
othe
othel
othell
othello
other
otherw
otherwi
otherwis
otherwise
otherwo
otherwor
otherworl
otherworld
ou
ough
ought
our
ous
oust
out
outb
outbo
outboa
outboar
outboard
outbr
outbre
outbrea
outbreak
outbu
outbui
outbuil
outbuild
outbuilding
outbur
outburs
outburst
outbursts
outflow
outgrowth
outnumb
outnumbe
outnumber
ov
ova
oval
ovar
ovari
ovary
ovat
ovati
ovatio
ovation
ove
oven
over
overcrow
overcrowd
overcrowde
overcrowded
overcrowding
overdubb
overdubbe
overdubbed
overdubbing
overfishing
overflow
overflowing
overgrown
overh
overha
overhang
overhau
overhaul
overhe
overhea
overhead
overhear
overheard
overhears
overheat
overheating
overjoy
overjoye
overjoyed
overlapping
overlordship
overpow
overpowe
overpower
oversh
oversha
overshad
overshadow
oversho
overthrow
overthrown
overwh
overwhe
overwhel
overwhelm
overwhelming
overwhelmingl
overwhelmingly
ovi
ovid
ovip
ovo
ovu
ovul
ovula
ovulat
ovw
ow
owing
owl
owls
own
ox
oxb
oxbo
oxbow
oxf
oxfo
oxfor
oxford
oxfordsh
oxfordshi
oxfordshir
oxfordshire
oxi
oxid
oxida
oxidas
oxidase
oxidat
oxidati
oxidatio
oxidation
oxidativ
oxidative
oxide
oxidiz
oxidize
oxidized
oxidizing
oxy
oxyg
oxyge
oxygen
oz
ozz
p
pack
packing
paddock
palazzo
pamphl
pamphle
pamphlet
pamphlets
paparazzi
paralympic
paralympics
paraphy
parish
partially
passeng
passenge
passenger
passengers
patrick
payoff
pazz
peacock
peng
pengu
pengui
penguin
penguins
pennock
periodically
personally
peterborough
ph
pha
phag
phago
phagoc
phagocy
phagocyt
phal
phala
phalan
phalanx
phall
phalli
phallic
phallu
phallus
phan
phant
phanta
phantas
phantasm
phantasma
phantasmag
phantasmago
phantasmagor
phantasmagori
phanto
phantom
phar
phara
pharao
pharaoh
pharm
pharma
pharmac
pharmaco
pharmacol
pharmacolo
pharmacolog
pharmacologi
pharmacy
pharyng
phas
phase
phi
phil
philh
philha
philhar
philharm
philharmo
philharmon
philharmoni
philharmonic
philipp
philippi
philippin
philippine
philippines
philosophy
phin
phip
phipp
phipps
phips
pho
phob
phobi
phobia
phon
phot
photo
photog
photogr
photogra
photograph
photographs
photography
photos
photosh
photosho
photosph
photosphe
photospher
photosy
photosyn
photosynth
photosynthe
photosynthes
photosynthesi
photosynthesis
photov
photovo
photovol
photovolt
photovolta
photovoltai
photovoltaic
phy
phyl
phyla
phyll
phylli
phyllis
phyllo
phylo
phylog
phyloge
phylogen
phylogene
phylogenet
phylogeneti
phylogenetic
phylogeny
phylu
phylum
phys
physi
physic
physica
physical
physically
physici
physicia
physician
physicians
physicis
physicist
physicists
physics
physio
physiol
physiolo
physiolog
physiologi
physiologic
physiologica
physiological
physiology
physiqu
physique
phyt
phyto
piazza
pick
picking
pictish
pinkish
pipp
pittsburgh
pizz
pizza
plaintiff
plaintiffs
playback
playoff
playoffs
plight
plough
plumb
plumbing
plush
plymouth
pneumothorax
pock
pocke
pocket
polish
polishing
pollack
pollock
pong
poniatowski
popp
poppi
poppin
popping
poppy
porphy
porphyr
possibly
pouch
poughk
poughke
poughkee
poughkeep
poughkeeps
poughkeepsi
poughkeepsie
pow
powd
powde
powder
powderf
powderfing
powderfinge
powderfinger
powe
powel
powell
power
powerf
powerfu
powerful
powerfully
powerh
powerho
powerhou
powerhous
powerhouse
presumably
prickly
principally
probably
professionally
proj
proje
projec
project
prompting
promptly
prong
proportionally
proving
provisionally
prow
psychologically
pub
publ
publi
public
publiciz
publicize
publicized
publicly
publish
publishe
published
publisher
publishers
publishes
publishing
puck
puff
puffb
puffba
puffbal
puffball
puffi
puffin
pugh
punish
punishing
punishm
punishme
punishmen
punishment
pupp
puppe
puppet
puppi
puppie
puppies
puppy
purplish
push
pushing
puzz
puzzl
puzzle
puzzles
pyong
q
qf
qing
qu
qua
quad
quadr
quadra
quadran
quadrang
quadrangl
quadrangle
quadrant
quadri
quadril
quadru
quadrup
quadrupl
quadruple
quag
quagg
quagga
quagm
quagmi
quagmir
quagmire
quah
quaho
quahog
quai
quail
quain
quaint
quainto
quainton
quak
quake
quaker
quakers
qual
quali
qualif
qualifi
qualific
qualifica
qualificat
qualificati
qualificatio
qualification
qualifie
qualified
qualifier
qualifiers
qualify
qualifying
qualit
qualita
qualitat
qualitati
qualitativ
qualitative
qualiti
qualitie
qualities
quality
quan
quang
quant
quanti
quantif
quantit
quantita
quantitat
quantitati
quantitativ
quantitative
quantiti
quantitie
quantities
quantity
quantu
quantum
quar
quara
quaran
quarant
quaranti
quarantin
quarantine
quark
quarks
quarr
quarre
quarrel
quarri
quarrie
quarried
quarries
quarring
quarringt
quarringto
quarrington
quarry
quarrying
quarrym
quarryme
quarrymen
quart
quarte
quarter
quarterback
quarterf
quarterfi
quarterfin
quarterfina
quarterfinal
quarterfinals
quarterly
quartet
quartz
quas
quash
quasi
quat
quay
quays
quick
quickl
quickly
quipp
quippe
quipped
quiz
r
rack
radcliff
radcliffe
radically
raff
raffl
raffle
raffles
ragh
raghu
rainbow
rally
rallying
rang
range
ranging
rapp
rapping
rashi
rashid
rashida
razz
reaffirm
rearrang
rearrange
rearranged
rearrangem
rearrangeme
rearrangemen
rearrangement
rebuff
rebut
rebutt
rebutta
rebuttal
rediff
redistribut
redistribution
redoubt
redshift
redshirt
refurbish
refurbishm
refurbishme
refurbishmen
refurbishment
regionally
rehoboth
relationship
relieving
relinquish
remarkably
removing
renown
renumb
renumbe
renumber
renumbere
renumbered
renumbering
republic
republican
republika
republish
republishe
republished
reshuffl
restrength
restrengthe
restrengthen
resupply
retribution
retrieving
reviving
revolving
rh
rhi
rhim
rhime
rhimes
rhin
rhino
rhinoc
rhinoce
rhinocer
rhinocero
rhinoceros
rhiz
rhizo
rhizom
rho
rhod
rhode
rhodes
rhodesi
rhodesia
rhodesian
rhodi
rhodiu
rhodium
rhodo
rhon
rhond
rhondd
rhondda
rhy
rhym
rhyme
rhymes
rhyming
rhyn
rhyo
rhyol
rhyoli
rhyolit
rhys
rhyth
rhythm
rick
ricky
riddick
riff
riffs
righ
right
rights
ripp
rippe
ripped
ripper
ripping
rippl
rish
rishi
rizz
roadblock
robbing
robby
rock
rockfow
rockfowl
roj
roja
roth
rothb
rothba
rothbar
rothbard
roub
rouba
roubai
roubaix
rough
roughl
roughly
row
rowing
roxbury
rub
rubb
rubbe
rubber
rubbing
rubbish
rubbl
rubble
rubi
rubid
rubidi
rubidiu
rubidium
rubin
rubl
ruble
rubles
ruby
ruff
ruffing
rumb
rumbl
rumble
rupp
rush
rushing
ruth
ryzhk
ryzhko
ryzhkov
s
sack
sacking
saff
saffi
saffir
saffr
saffro
saffron
sakaguchi
salisbury
salzburg
sampl
sample
samples
sampling
sang
saving
scaffo
scaffol
scaffold
scaffolding
scarborough
sch
schaff
schiff
schiz
schizo
schizoph
schizophr
schizophre
schizophren
schizophreni
schizophrenia
schizophrenic
scho
schof
schofi
schofie
schofiel
schofield
schol
schola
scholar
scholarly
scholars
scholarship
scholas
scholast
scholasti
scholastic
schoo
school
schoon
schoone
schooner
schu
schub
schube
schuber
schubert
schul
schult
schultz
schulz
schum
schuma
schumach
schumache
schumacher
schuman
schumann
schur
schus
schust
schuste
schuster
schut
schutz
schuy
schuyl
schuyle
schuyler
schuylk
schuylki
schuylkil
schuylkill
schw
schwa
schwab
schwar
schwart
schwartz
schwarz
scientifically
scottish
scrapp
scrappe
scrapped
scrapping
scully
searchlight
searchlights
seasonally
selfish
selznick
serving
sexually
sh
shabazz
shack
shackl
shackle
shacklet
shackleto
shackleton
shadow
shaff
shaffe
shaffer
shaking
shamrock
shang
shanghai
shapeshift
shaugh
shaughn
shaughne
shaughnes
shaughness
shaughnessy
shellfish
sheng
shipbu
shipbui
shipbuil
shipbuild
shipbuilde
shipbuilder
shipbuilding
shipp
shippe
shipped
shipping
shish
shishm
shishma
shishman
shock
shocking
shockw
shockwa
shockwav
shockwave
shopp
shoppe
shopping
show
showdown
showing
shrewsbury
shropshi
shropshir
shropshire
shuff
shuffl
shutdown
sick
sickly
silly
simply
singh
sixth
siz
siza
sizab
sizabl
sizable
size
skiff
skipp
skipping
skirmish
skirmishing
slack
slapping
slapstick
slashing
slaught
slaughte
slaughter
slaughterh
slaughterho
slaughterhou
slaughterhous
slaughterhouse
slick
slight
slightl
slightly
slipp
slippe
slipped
slipper
slippery
slipping
sloppy
sloth
slough
slow
slowdown
slowing
slowl
slowly
sluggish
smack
smackdown
smashing
smith
smooth
smoothb
smoothbo
smoothbor
smoothbore
smoothly
smoth
smothe
smother
snapping
snipp
snippe
snippet
snippets
snow
snowb
snowba
snowbal
snowball
snowbo
snowboa
snowboar
snowboard
snowf
snowfa
snowfal
snowfall
snowfl
snowfla
snowflak
snowflake
sock
socks
solub
solubi
solubil
solubili
solubilit
solubility
solubl
soluble
solving
somewhat
somewhere
song
songw
songwr
songwri
songwrit
songwrite
songwriter
songwriting
sonically
sopwith
sorabji
sorrow
sough
sought
soundtrack
south
southw
sow
sp
spagh
spaghe
spaghet
spaghett
spaghetti
spang
spangl
spangle
spangled
spanish
sparrow
sparrowhawk
specifically
spiritually
spith
spithe
spithea
spithead
spock
spong
sponge
spongeb
spongebo
spongebob
sponges
sporadically
sportsmanship
sprang
sq
squ
squa
squab
squabb
squabbl
squad
squadr
squadro
squadron
squal
squall
squam
squan
squand
squande
squander
squar
square
squash
squat
squatt
squaw
sque
squi
squid
squidw
squidwa
squidwar
squidward
squir
squirr
squirre
squirrel
squirrels
stabbing
stabiliz
stack
staff
starbuck
starving
stepmoth
stepmothe
stepmother
steriliz
stewardship
stick
sticking
sticky
stiff
stock
stockb
stockbr
stockhaus
stockhause
stockhausen
stockhold
stockholde
stockholder
stockholm
stocking
stockings
stockp
stockpi
stockpil
stockpo
stockpor
stockport
stopp
stoppa
stoppag
stoppage
stoppe
stopped
stopping
stow
strang
strapp
strappe
strapped
strapping
strength
strick
stricke
stricken
strickl
strickla
stricklan
strickland
stripp
strippe
stripped
stripper
strippers
stripping
striving
strong
stronghold
strongly
struck
structurally
strupp
struppe
strupper
struth
stubb
stubbo
stubbor
stubborn
stumbl
stumble
stumbled
stumbles
stylish
styliz
stylize
stylized
sub
subf
subfa
subfam
subfami
subfamil
subfamily
subfo
subfos
subfoss
subfossi
subfossil
subg
subh
subha
subj
subje
subjec
subject
subju
subjug
subjuga
subjugat
subm
subma
submar
submari
submarin
submarine
subme
submer
submerg
submerge
submerged
submers
submi
submis
submiss
submissi
submissio
submission
submissiv
submissive
submit
submitt
submitte
submitted
submitting
subp
subpl
subplo
subplot
subpo
subs
subsp
subspa
subspac
subspace
subspe
subspec
subspeci
subspecie
subspecies
subu
subun
subuni
subunit
subunits
subur
suburb
suburba
suburban
suburbs
subw
subwa
subway
subwo
subwoo
subwoof
subwoofe
subwoofer
successfully
succumb
succumbing
such
suck
sucking
sudbury
suff
sully
sunflow
sunflowe
sunflower
sung
sunlight
sunshin
sunshine
supp
suppl
suppli
supplie
supplied
supplier
suppliers
supplies
supply
supplying
suppo
suppor
support
supporting
suppos
suppose
supposed
supposedl
supposedly
suppr
suppre
suppres
suppress
suppressing
surviving
sutcliff
sutcliffe
suth
suthe
suther
sutherl
sutherla
sutherlan
sutherland
swallowing
swapp
swappe
swapped
swapping
swung
symbolically
symboliz
symbolize
symbolized
symbolizes
symbolizing
symph
sympho
symphon
symphoni
symphonic
symphony
sympt
sympto
symptom
symptoma
symptomat
symptomati
symptomatic
symptoms
syng
t
tack
tackl
tackle
tackles
tackling
taff
takahashi
takashi
taking
tally
tang
tapp
tapping
taugh
taught
technically
tegetthoff
teng
tengu
terengganu
th
thanksgiving
theatrically
thick
thorough
thoroughb
thoroughbr
thoroughbre
thoroughbred
thoroughf
thoroughfa
thoroughfar
thoroughfare
thoroughl
thoroughly
though
thought
thriving
through
throw
throwback
throwing
thrown
thrush
thumb
tick
ticke
ticket
ticketing
tickets
tiff
tiffa
tiffan
tiffany
tight
tightly
tilbury
tilly
timothy
tinkoff
tipp
tippe
tipped
tippet
tippett
tipping
tiruchirappalli
to
tomorrow
tong
tonga
tongu
tongue
tooth
toothp
topography
topp
topping
toshack
toshi
totally
touch
touchdown
touching
tough
tow
towa
towar
toward
towards
towe
towed
towel
towels
tower
towing
town
townsh
townshe
townshen
townshend
townshi
township
track
tracking
traditionally
traffic
traffick
trafficke
trafficker
trafficking
trafford
trampl
trapp
trappe
trapped
trapper
trappers
trapping
trescothick
tribut
trick
tricky
tripp
trish
triumph
troj
troja
trojan
trojans
trophy
troubl
trouble
troubling
trough
truck
trucking
trucks
trumb
trumbl
trumble
trumbu
trumbul
trumbull
truth
truthf
truthfu
truthful
tsushim
tsushima
tub
tubb
tuck
tumb
tumbl
tung
tungs
tungst
tungste
tungsten
turboj
turboje
turbojet
turkish
turnbuckl
turnbuckle
tw
twa
twai
twain
twe
twel
twelf
twelfth
twelv
twelve
twen
twent
twenti
twentie
twenties
twentieth
twenty
twi
twic
twice
twick
twicke
twicken
twickenh
twickenha
twickenham
twig
twigs
twilight
twin
twis
twist
twisting
twit
twitch
twitt
twitte
twitter
two
twy
typically
tzow
u
u'
u'l
u'll
ub
ueshiba
uh
uhu
uj
uji
uk
umb
umbo
umbr
ump
umpi
umpir
umpire
un
unaff
unapp
unauthor
unauthori
unauthoris
unauthorise
unauthorised
unauthoriz
unauthorize
unauthorized
unb
unbeknownst
unc
unchalleng
unchallenge
unchallenged
unchang
unchange
unchanged
uncl
uncla
uncle
unclea
unclear
unco
uncom
uncomf
uncomfo
uncomfor
uncomfort
uncomforta
uncomfortab
uncomfortabl
uncomfortable
uncomm
uncommo
uncommon
uncomp
uncompl
uncompr
uncompro
uncomprom
uncompromi
uncompromis
uncompromising
uncon
uncond
uncondi
uncondit
unconditi
unconditio
uncondition
unconditiona
unconditional
unconditionally
unconf
unconfi
unconfir
unconfirm
unconfirme
unconfirmed
unconn
unconne
unconnec
unconnect
unconnecte
unconnected
uncons
unconsc
unconsci
unconscio
unconsciou
unconscious
unconst
unconsti
unconstit
unconstitu
unconstitut
unconstituti
unconstitutio
unconstitution
unconstitutiona
unconstitutional
uncont
uncontr
uncontro
uncontrol
uncontroll
unconv
uncoo
uncov
uncove
uncover
uncovering
und
unde
undea
undead
undec
undeci
undecid
undecide
undecided
undef
undefe
undefea
undefeat
undefeate
undefeated
undefen
undefend
undefende
undefended
unden
undeni
undenia
undeniab
undeniabl
undeniable
undeniably
under
underg
undergo
undergoing
undergr
undergra
undergrad
undergradu
undergradua
undergraduat
undergraduate
undergro
undergrou
undergroun
underground
underly
underlying
understrength
underw
underwh
underwhe
underwhel
underwhelm
undes
undesi
undesir
undesira
undesirab
undesirabl
undesirable
undet
undete
undetec
undetect
undeter
undeterm
undetermi
undetermin
undeterr
undeterre
undeterred
undev
undeve
undevel
undevelo
undevelop
undevelope
undeveloped
undi
undis
undisc
undiscl
undisclo
undisclos
undisclose
undisclosed
undisco
undiscov
undiscove
undiscover
undiscovere
undiscovered
undisp
undispu
undisput
undispute
undisputed
undist
undistu
undistur
undisturb
undisturbe
undisturbed
undiv
undivi
undivid
undivide
undivided
undo
undon
undone
undou
undoub
undoubt
undoubte
undoubted
undoubtedl
undoubtedly
undu
undue
undul
undula
undulat
undulating
unf
unfa
unfai
unfair
unfairly
unfaithful
unfam
unfami
unfamil
unfamili
unfamilia
unfamiliar
unfav
unfavo
unfavor
unfavora
unfavorab
unfavorabl
unfavou
unfavour
unfavoura
unfavourab
unfavourabl
unfi
unfin
unfinish
unfinishe
unfinished
unfit
unfl
unfla
unfo
unfol
unfold
unfolding
unfor
unforg
unforge
unforget
unforgett
unforgetta
unforgettab
unforgettabl
unforgettable
unforgi
unforgiv
unfort
unfortu
unfortun
unfortuna
unfortunat
unfortunate
unfortunatel
unfortunately
unfou
unfoun
unfound
unfounde
unfounded
unfu
unfun
unh
unha
unhapp
unhappi
unhappin
unhappine
unhappines
unhappiness
unhappy
unhar
unharm
unharme
unharmed
unhu
uni
unic
unico
unicor
unicorn
unid
unide
uniden
unident
unidenti
unidentif
unidentifi
unidentifie
unidentified
unif
unifi
unific
unifica
unificat
unificati
unificatio
unification
unifie
unified
unifo
unifor
uniform
uniformly
unify
unifying
unil
unila
unilat
unilate
unilater
unilatera
unilateral
unilaterall
unilaterally
unim
unimp
unimpo
unimpor
unimport
unimporta
unimportan
unimportant
unimpr
unin
uninc
uninco
unincor
unincorp
unincorpo
unincorpor
unincorpora
unincorporat
unincorporate
unincorporated
uninh
uninha
uninhab
uninhabi
uninhabit
uninj
uninju
uninjur
uninjure
uninjured
unins
uninsp
uninspi
uninspir
unint
uninte
unintel
unintell
unintelli
unintellig
uninten
unintend
unintende
unintended
unintent
unintenti
unintentio
unintention
unintentiona
unintentional
unintentionall
unintentionally
uninter
unintere
uninteres
uninterest
unintereste
uninterested
uninteresting
uninterr
uninterru
uninterrup
uninterrupt
uninterrupte
uninterrupted
uninv
unio
union
uniqu
unique
uniquely
unis
uniso
unison
unit
univ
unive
univer
univers
universa
universal
universally
universe
universi
universit
universiti
universitie
universities
university
unix
unj
unju
unjus
unjust
unk
unknowing
unknowingl
unknowingly
unknown
unlock
unlucky
unnumb
unnumbe
unnumber
unnumbere
unnumbered
unoff
unoffi
unoffic
unoffici
unofficia
unofficial
unofficially
unopp
unoppo
unoppos
unoppose
unopposed
unp
unpa
unpai
unpaid
unpar
unpara
unparal
unparall
unparalle
unparallel
unparallele
unparalleled
unpav
unpave
unpaved
unpl
unplu
unplug
unplugg
unplugge
unplugged
unpo
unpop
unpopu
unpopul
unpopula
unpopular
unpr
unpre
unprec
unprece
unpreced
unprecede
unpreceden
unprecedent
unprecedente
unprecedented
unpred
unpredi
unpredic
unpredict
unpredicta
unpredictab
unpredictabl
unpredictable
unprep
unprepa
unprepar
unprepare
unprepared
unpro
unprod
unprodu
unproduc
unprof
unprofi
unprofit
unprofita
unprofitab
unprofo
unprofor
unprot
unprote
unprotec
unprotect
unprotecte
unprotected
unprov
unpublish
unpublishe
unpublished
unqu
unstopp
unstoppa
unstoppab
unstoppabl
unstoppable
unsuccessfully
unsupp
unsuppo
unsuppor
unsupport
unt
unti
until
untit
untitl
untitle
untitled
untouch
unusually
unw
unwi
unwil
unwill
unwilling
unwin
unwis
unwise
unwit
unwitt
unwitting
unwittingly
up
upanish
upanisha
upanishad
upanishads
uph
upho
uphol
uphold
upholding
upp
uppe
upper
upps
uppsa
uppsal
uppsala
uptown
us
ush
using
usually
utiliz
utiliza
utilizat
utilizati
utilizatio
utilization
utilize
utilized
utilizes
utilizing
uygh
uyghu
uyghur
v
vang
vangu
vangua
vanguar
vanguard
vanish
vanishing
vanquish
vaugh
vaugha
vaughan
vaughn
veng
venge
vengea
vengean
vengeanc
vengeance
vengef
vengefu
vengeful
verbally
vi
vic
vick
vicksburg
vict
victi
victim
victims
victo
victor
victori
victoria
victorie
victories
victorio
victoriou
victorious
victory
vij
vija
vijay
vijaya
vijayan
vijayana
vijayanag
vijayanaga
vijayanagar
vijayanagara
viking
vikings
virtually
vish
visha
vishn
vishnu
visibly
visually
viz
vizi
vizz
vizzi
vizzin
vizzini
vocabulary
vocally
voj
vojv
vojvo
vojvod
volkoff
vouch
vow
vowing
w
wa
wab
waba
wabash
wac
wach
wack
wacky
waco
wad
wadd
wadding
waddingt
waddingto
waddington
waddl
waddle
wading
waf
waff
wag
wagg
wagga
wah
wahl
wai
wail
wailing
wain
wainw
wainwr
wainwright
wais
waist
wait
waiting
waiv
waive
waived
waiver
waivers
wak
waking
wal
walk
walking
walkw
walkwa
walkway
walkways
wall
walsh
walsingham
walt
walth
waltz
wamb
wamba
wambach
wan
wand
wang
waning
wann
wanna
wannab
wannabe
want
wanting
wap
wapp
wapw
wapwa
wapwal
wapwall
wapwallo
wapwallop
wapwallope
wapwallopen
war
warbu
warbur
warburt
warburto
warburton
warh
warho
warhol
warlock
warship
warships
warwick
warwickshir
warwickshire
was
wash
washb
washbr
washbro
washbroo
washbrook
washbu
washbur
washburn
washing
washington
wat
watch
watching
watchtow
watchtowe
watchtower
wate
water
waterfow
waterfowl
watersh
watershe
watershed
watertown
waterw
waterwa
waterway
waterways
waterwo
waterwor
waterwork
waterworks
watf
watfo
watfor
watford
watk
watki
watkin
watkins
wats
watso
watson
watt
watts
wau
waugh
wav
wave
wavelength
wavelengths
waving
wavy
waw
wax
waxy
way
waz
wazi
wazir
waziri
waziris
wazirist
wazirista
waziristan
weighing
weng
wenge
wenger
westinghous
westinghouse
weymouth
wh
whi
which
whig
whigs
whil
while
whils
whilst
whim
whims
whimsi
whimsic
whimsica
whimsical
whin
whip
whipp
whippe
whipped
whipping
whippl
whipple
whir
whirl
whis
whisk
whiske
whisker
whiskers
whiskey
whisky
whisp
whispe
whisper
whist
whistl
whistle
whistleb
whistling
whit
whith
whitish
whitlock
who
wholly
whopp
whoppe
whopper
wick
wicke
wicked
wicket
wickets
widow
wildflow
wildflowe
wildflower
willoughby
willy
window
windows
wish
wishing
with
wiz
wiza
wizar
wizard
wizards
wo
wob
wobb
wobbl
wod
woh
wohl
wohlw
wohlwe
wohlwen
wohlwend
woj
wok
woke
woking
wol
wolf
wolff
wolfg
wolfgang
woll
wolls
wollst
wollsto
wollston
wollstone
wollstonec
wollstonecr
wollstonecra
wollstonecraf
wollstonecraft
wolv
wolve
wolver
wolverh
wolverha
wolverhamp
wolverhampt
wolverhampto
wolverhampton
wolveri
wolverin
wolverine
wolverines
wolves
wom
womb
won
wong
woo
wood
woodblock
woodbu
woodbur
woodbury
woodf
woodfo
woodfor
woodford
woodfu
woodful
woodfull
woodh
woodho
woodhou
woodhous
woodhouse
woodrow
woodstock
woodw
woodwa
woodwar
woodward
woodwi
woodwin
woodwind
woodwo
woodwor
woodwork
wool
woolf
woolfo
wooll
woolly
woolw
woolwi
woolwich
wop
wor
worc
worce
worces
worcest
worceste
worcester
worcestershir
worcestershire
word
words
wordsw
wordswo
wordswor
wordsworth
work
workh
workho
workhou
workhous
workhouse
working
workshop
workshops
worl
world
worldw
worldwi
worldwid
worldwide
worm
wormh
wormho
wormhol
wormhole
worms
wors
worship
worshipp
worshippe
worshipped
worshipper
worshippers
worst
worth
worthing
worthingt
worthingto
worthington
worthwhil
worthwhile
worthy
wot
wott
wotto
wotton
wou
woul
would
woun
wound
wounding
wov
wove
woven
wow
wrang
wrangl
wrapp
wrappe
wrapped
wrapping
wrong
wrongf
wrongfu
wrongful
wrongly
wrough
wrought
x
xb
xbo
xbox
xj
xx
xxi
xxii
xxv
xxvi
xxvii
xxx
y
yamaguchi
yamashi
yang
yarrow
yashi
yellowish
yo
yog
yoga
yogi
yogo
yogy
yogya
yogyak
yogyaka
yogyakar
yogyakart
yogyakarta
yok
yoko
yokoh
yokoha
yokoham
yokohama
yokos
yokosu
yokosuk
yokosuka
yokoz
yokozu
yokozun
yokozuna
yong
yor
york
yorkshi
yorkshir
yorkshire
yorktown
yoshi
yoshik
yoshim
you
young
youth
youthf
youthfu
youthful
z
zack
zapp
zappa
zh
zhang
zheng
zho
zhou
zhu
zhuang
zhuangz
zhuangzi
ziff
zipp
zng
zong
zub
zuck
zucke
zucker
zx
