##'
##a
##abb
##abbath
##abeth
##abiliz
##abl
##able
##abling
##ablish
##ablishing
##ablo
##ably
##absburg
##abulary
##aching
##ack
##ackbu
##ackdown
##acking
##actition
##addock
##adequate
##adership
##adically
##adition
##aditionally
##adnought
##adnoughts
##adow
##adows
##adquart
##adually
##aff
##affi
##affic
##affick
##afficking
##affo
##affor
##afford
##agh
##agship
##aguchi
##aightforw
##ailable
##ainbow
##aithful
##ajor
##akdown
##aking
##akshi
##akthrough
##alion
##alisbury
##alition
##aliz
##aliza
##alizat
##alizati
##alizatio
##alization
##alize
##alized
##alizes
##alizing
##allagh
##alleng
##allenging
##allow
##ally
##alth
##althy
##alympic
##alyz
##amb
##amba
##ambique
##ambl
##ambo
##ammoth
##amphl
##ampionship
##ampl
##ampshir
##ampton
##anbul
##ancashir
##ancially
##ancock
##anderwerff
##andfath
##andmoth
##andown
##ang
##anghai
##angu
##angul
##angula
##angular
##anish
##aniz
##anize
##anized
##anking
##anksgiving
##anpow
##anscription
##ansformation
##anship
##ansition
##ansmission
##anterbury
##anwhil
##aphically
##aphy
##app
##appe
##appea
##appear
##apped
##apper
##apping
##aq
##arack
##aralympic
##arborough
##arching
##arck
##arish
##ariz
##arkable
##arlborough
##arques
##arracks
##arrow
##arrowly
##arth
##arthqu
##arthur
##artially
##artition
##artnership
##asgow
##ash
##ashback
##ashi
##ashing
##ashington
##asically
##asion
##asonable
##asonably
##asseng
##assion
##astion
##astonbury
##atching
##atform
##ath
##athing
##atification
##ation
##ationally
##ationship
##atrick
##attack
##attalion
##attleship
##attleships
##aturally
##augh
##aught
##aunching
##aution
##available
##avelength
##avilion
##aving
##avish
##axonomic
##axonomy
##axophon
##aylight
##ayoff
##azz
##b
##bable
##bably
##back
##bally
##bb
##bbath
##bbing
##bby
##beck
##beth
##biliz
##biography
##bion
##birth
##bish
##bition
##bj
##bl
##blish
##blishing
##bly
##bolish
##borough
##bow
##breaking
##brick
##brough
##bsburg
##bu
##buck
##bui
##buil
##build
##building
##built
##buk
##bul
##bula
##bular
##bulary
##bulo
##bum
##bun
##bur
##burg
##burgh
##burn
##bury
##bus
##bust
##buste
##buster
##but
##c
##cabulary
##calization
##cally
##carthur
##cashi
##cation
##caution
##cbeth
##cceptable
##ccessfully
##ccessible
##ccession
##ccidentally
##ccomm
##ccomp
##ccomplish
##ccumb
##ceiving
##cemb
##ceptable
##ceptible
##ception
##ceship
##cessfully
##cessible
##cession
##ch
##chang
##chbish
##chbisho
##chbishop
##chcock
##chdown
##chieving
##ching
##chnically
##chnique
##chniques
##chrom
##cially
##cibl
##cidentally
##cifically
##cification
##cifications
##cipally
##cision
##ciz
##cizing
##ck
##ckdown
##ckh
##ckha
##ckham
##ckingh
##cknow
##ckoff
##cliff
##club
##clusion
##cock
##cognition
##cogniz
##cography
##com
##comb
##come
##coming
##comm
##como
##comp
##compl
##complish
##compr
##conom
##conomically
##construction
##cottish
##cow
##cqua
##cqui
##cquir
##cquiring
##crambl
##crapp
##credible
##credibly
##cription
##crow
##ctable
##ctangular
##ction
##ctition
##ctivision
##ctually
##cully
##cumb
##cussion
##cution
##d
##daught
##daughte
##daughter
##dback
##dbury
##ddish
##ddition
##dditionally
##ddock
##dempt
##dempti
##demptio
##demption
##denburg
##dentally
##dentification
##dequate
##derniz
##dership
##derwerff
##dfath
##dibl
##dible
##dibly
##dically
##dication
##dictable
##diff
##dification
##dinburgh
##dish
##dition
##ditionally
##dividually
##djac
##djoining
##dju
##dmission
##dmoth
##dnapped
##dnough
##dnought
##dock
##doption
##dow
##down
##dqua
##dquar
##dquart
##drom
##droom
##dship
##dshipm
##dships
##dstock
##dth
##dtrack
##dually
##ducation
##duction
##dwick
##e
##eaching
##eadership
##eadnought
##eadnoughts
##eadow
##eadows
##eadquart
##eakdown
##eaking
##eakthrough
##ealizes
##eally
##ealth
##ealthy
##eanwhil
##eappear
##earching
##easonable
##easonably
##eath
##eaving
##ebb
##ebbi
##ebuild
##ebuilding
##ebuilt
##ebut
##ecaution
##eceiving
##ecemb
##ecession
##echnically
##echnique
##echniques
##ecially
##ecifically
##ecifications
##ecision
##eck
##eckham
##ecognition
##ecogniz
##ecome
##ecoming
##ecomm
##ecompr
##econstruction
##ectable
##ectangular
##ecution
##edback
##eddish
##edemption
##edible
##edibly
##edition
##edroom
##eedback
##eff
##efinition
##eformation
##efurbish
##egally
##egion
##egoriz
##ehow
##eigh
##eighbor
##eighborhood
##eighboring
##eighbors
##eighbourhood
##eighbouring
##eighbours
##eighing
##eijing
##eiving
##ejoin
##elationship
##elcome
##elcomed
##elength
##elevision
##elieving
##eligion
##elinquish
##elize
##ellow
##ellowish
##ellowship
##elly
##elong
##elonging
##elow
##emarkable
##emb
##embership
##embl
##embly
##ememb
##emiership
##emolish
##emolition
##emoving
##emphis
##empl
##emporarily
##emporary
##empt
##empting
##enburg
##endition
##endship
##eneath
##enerally
##eng
##ength
##enhow
##enish
##enjamin
##enneth
##enown
##ensibl
##ensible
##ensorship
##entally
##entially
##entification
##ention
##entionally
##entually
##entucky
##enumbered
##enumbering
##eorganized
##epburn
##epower
##epp
##epression
##eproduction
##eptable
##eptemb
##epth
##eptible
##eption
##eptionally
##epublic
##epublican
##equate
##equel
##equenc
##equency
##equent
##equently
##equest
##equesting
##equire
##equired
##equirem
##equiring
##erally
##erattack
##erbury
##erchange
##ercially
##ercussion
##erff
##erform
##erformanc
##erforming
##eriodically
##ermission
##ernally
##ernationally
##erniz
##erribl
##ersecution
##ership
##ersion
##ersonally
##erth
##ertiliz
##ertion
##ervention
##erving
##ervision
##erwerff
##erything
##erywh
##escription
##esembl
##esembling
##eserving
##eshift
##eship
##eships
##eshwat
##esponsibl
##esseng
##essfully
##essible
##ession
##esthetic
##estion
##estruction
##esumably
##esuppl
##etching
##etention
##eth
##ething
##etition
##ettysburg
##evenge
##evention
##everth
##eving
##evision
##evitable
##evolution
##evotion
##ewcomer
##ewership
##ewfoundland
##ewhat
##ewhere
##ewish
##ewsbury
##exibl
##exually
##f
##fath
##felong
##fession
##ff
##fgh
##fically
##fication
##fight
##finition
##fish
##fitable
##fjor
##fjord
##flow
##fo
##fol
##fold
##foli
##foo
##foot
##for
##form
##formation
##forming
##forth
##fou
##foun
##four
##fth
##ftwaff
##fully
##furbish
##g
##gally
##ganiz
##gestion
##geth
##ggestion
##ggression
##gh
##gibl
##gically
##ginally
##gion
##gitally
##giving
##giz
##gnition
##gniz
##gnizabl
##gnizable
##gong
##goriz
##gow
##graphy
##gression
##gship
##guably
##guch
##guchi
##h
##hang
##hibition
##hiz
##hough
##how
##hrough
##humb
##i
##ially
##iangular
##ibb
##ibition
##ibl
##ible
##ibling
##ibly
##ibun
##ibut
##ically
##ication
##iciz
##icizing
##ick
##icking
##ickoff
##ictable
##identally
##idnapped
##idow
##idshipm
##idships
##idth
##idually
##iendship
##iership
##ieving
##ifelong
##iff
##iffith
##ifically
##ification
##ifoli
##ifolia
##ifth
##igh
##ighb
##ighbo
##ighbor
##ighborh
##ighborho
##ighborhoo
##ighborhood
##ighboring
##ighbors
##ighbou
##ighbour
##ighbourh
##ighbourho
##ighbourhoo
##ighbourhood
##ighbouring
##ighbours
##ighing
##ight
##ightfor
##ightforw
##igibl
##iginally
##igion
##igitally
##ijack
##ijing
##ilable
##ilion
##iliz
##ilizing
##illion
##illow
##illy
##ilosophy
##imb
##iminish
##imothy
##impl
##imply
##inally
##inancially
##inbow
##inburgh
##incibl
##incipally
##inck
##indow
##ing
##ingh
##ingha
##ingham
##inguish
##inguishing
##inique
##inish
##inishing
##inition
##inking
##innish
##inquish
##inually
##iodically
##iography
##ion
##ionally
##ionship
##ipally
##ipbuilding
##ipp
##ippi
##ipping
##iption
##iqua
##ique
##iques
##iquid
##iquity
##iquo
##irmingham
##irmish
##iroshima
##irth
##isapp
##isbury
##iscography
##iscussion
##isemb
##isenhow
##ish
##ishing
##isible
##ision
##ismarck
##isorganized
##isposition
##isqualifi
##isruption
##ission
##issippi
##ississippi
##istinguish
##istorically
##istortion
##istribut
##itable
##itally
##itchcock
##itching
##iterally
##ith
##ithf
##ithfu
##ithful
##itially
##iticiz
##iticizing
##ition
##itionally
##itique
##itish
##ittsburgh
##itution
##iumph
##iversion
##ividually
##iviliz
##iving
##ivision
##ixth
##iz
##izabl
##ization
##izing
##izz
##j
##ja
##jab
##jac
##jack
##jah
##jak
##jam
##jan
##jing
##jj
##jo
##joi
##join
##joining
##jor
##jou
##jour
##journ
##joy
##ju
##k
##kable
##kably
##kdown
##kh
##kha
##kham
##kho
##kick
##king
##kipp
##kirmish
##kish
##koff
##kow
##kows
##kowsk
##kowski
##ksgiving
##ksh
##ksha
##kshi
##ksho
##kshop
##kthrough
##ktown
##l
##lable
##lack
##lackbu
##lagh
##lagship
##lanking
##lariz
##lasgow
##lash
##lashback
##lashing
##lastonbury
##latform
##lationship
##laught
##layoff
##lbion
##lborough
##lbow
##lbum
##lcome
##lcomed
##leigh
##leng
##length
##leship
##leships
##levision
##lexibl
##lfish
##lication
##lick
##lieving
##liff
##light
##ligibl
##ligible
##ligion
##lingham
##linquish
##lion
##lipp
##lisbury
##lish
##lishing
##lition
##liz
##lize
##lized
##lizing
##lizz
##llable
##llagh
##lleng
##llenging
##llingham
##llion
##llow
##llowing
##llowish
##llowsh
##llowshi
##llowship
##llusion
##llution
##lly
##llyw
##llywo
##llywoo
##llywood
##lobally
##location
##lock
##logically
##logiz
##long
##longing
##looking
##loom
##losophy
##loth
##lothing
##lough
##lourish
##low
##lowing
##lsewhere
##lsion
##lth
##ltho
##lthough
##lthy
##ltogeth
##lub
##lumb
##lush
##lusion
##lution
##lving
##ly
##lymouth
##lymp
##lympi
##lympic
##lyth
##lyz
##m
##mably
##mack
##mackdown
##making
##manship
##marck
##mariz
##markable
##mash
##math
##mb
##mbership
##mbique
##mbly
##mbo
##mboliz
##mbush
##mehow
##memb
##mentally
##mething
##mewhat
##mewhere
##mically
##mick
##midships
##miership
##mingh
##mingha
##mingham
##minish
##mish
##mission
##mith
##mmariz
##mmoth
##mmunication
##mmunition
##mography
##moking
##molish
##molition
##mong
##mooth
##morrow
##moth
##mothe
##mother
##mothy
##motion
##motionally
##mouth
##moving
##mp
##mpath
##mph
##mphi
##mphis
##mphl
##mpionship
##mpl
##mplish
##mply
##mpo
##mpor
##mpora
##mporar
##mporari
##mporarily
##mporary
##mpshi
##mpshir
##mpt
##mpting
##mptly
##mpto
##mpton
##mstrong
##munication
##munition
##muth
##myth
##n
##nabling
##nagh
##nally
##nancially
##napped
##nationally
##nbow
##nbul
##nburg
##nburgh
##nbury
##ncashi
##ncashir
##nching
##ncially
##ncibl
##ncipally
##nck
##ncock
##ndenburg
##nderwerff
##ndfath
##ndition
##ndmoth
##ndow
##ndown
##ndship
##ndtrack
##neath
##nerally
##nership
##neth
##ng
##ngh
##ngha
##nghai
##ngth
##nhow
##nically
##nication
##nick
##ningham
##nique
##niques
##nish
##nishing
##nition
##niz
##nizabl
##nizing
##njam
##njami
##njamin
##njoy
##nking
##nkish
##nksgiving
##nlight
##nneth
##nningham
##nnish
##nnock
##nnually
##nock
##nomically
##noth
##nough
##now
##nowing
##nown
##npow
##nquish
##nsbury
##nscription
##nsformation
##nshin
##nship
##nsibl
##nsibly
##nsion
##nsition
##nsmission
##nsorship
##nswick
##ntally
##nterbury
##nth
##ntially
##ntiff
##ntification
##ntion
##ntionally
##ntually
##ntucky
##nually
##nuck
##numb
##numbe
##number
##numbere
##numbered
##numbering
##nwealth
##nwhil
##nything
##nywh
##o
##oaching
##obable
##obably
##obally
##obb
##obby
##obiliz
##obiography
##obl
##obust
##ocabulary
##ocalization
##ocally
##ocation
##ocession
##ocially
##ock
##ockh
##ockho
##ockhol
##ockholm
##ocomo
##oderniz
##odically
##odstock
##oduction
##ofession
##off
##ofitable
##ofoun
##ofound
##ogeth
##ogh
##ogically
##ogiz
##ognition
##ogniz
##ography
##ogression
##ohibition
##oj
##oking
##olish
##olition
##oliz
##ollow
##ollowing
##ollution
##olly
##ollywood
##ologically
##ologiz
##olong
##olub
##olution
##olving
##om
##omb
##omehow
##ometh
##omething
##omewhat
##omewhere
##omically
##ommunication
##omotion
##omp
##ompl
##omplish
##ompt
##ompting
##omptly
##ompton
##on
##onable
##onably
##onagh
##onally
##onbury
##ong
##ongh
##ongho
##onghol
##onghold
##onically
##onish
##oniz
##onize
##onized
##onom
##onomically
##onomo
##onomou
##onomy
##onship
##onsibl
##onsorship
##onstruction
##onwealth
##onz
##oodstock
##ooking
##oom
##ooth
##op
##ophom
##ophon
##ophy
##oportion
##oposition
##opp
##opping
##option
##opulariz
##opulsion
##organiz
##organize
##organized
##orically
##oriz
##orize
##orized
##orizo
##orkshi
##orkshop
##orothy
##orough
##orption
##orribl
##orrible
##orrow
##orsepower
##orship
##orshipp
##orth
##orthumb
##ortion
##oscow
##osecution
##oshi
##oshim
##oshima
##osion
##osition
##osophy
##osque
##osquito
##ossession
##ossibl
##ossibly
##osthum
##otentially
##oth
##othing
##otion
##otionally
##ottish
##oub
##oubl
##ouch
##ough
##oundtrack
##oung
##ourish
##outh
##outhw
##oving
##ovision
##ow
##owing
##own
##ownish
##owth
##ozambique
##p
##pack
##pally
##path
##pathi
##pathy
##pbuil
##pbuild
##pbuilding
##pbur
##pburn
##pecially
##pervision
##ph
##phically
##phom
##phon
##phy
##pically
##pionship
##pologiz
##pong
##ponsibl
##portion
##position
##poth
##pow
##powe
##power
##pp
##pping
##pression
##production
##pshi
##ptable
##ptemb
##pth
##ptibl
##ptible
##ption
##ptionally
##pub
##publ
##publi
##public
##publica
##publican
##publish
##publishe
##published
##pulariz
##q
##qu
##qua
##qual
##quali
##qualif
##qualifi
##quat
##quate
##que
##quel
##quen
##quenc
##quency
##quent
##quently
##ques
##quest
##questing
##quez
##qui
##quid
##quil
##quin
##quir
##quire
##quired
##quirem
##quiring
##quis
##quish
##quisi
##quisit
##quit
##quito
##quity
##quo
##quoi
##quois
##r
##rack
##racking
##racks
##ractition
##radition
##raditionally
##radually
##raffi
##raffic
##rafficking
##rafford
##raightforw
##rally
##ralympic
##rambl
##randfath
##randmoth
##rang
##ranscription
##ransformation
##ransition
##ransmission
##raphically
##raphy
##rapp
##raq
##rattack
##raught
##rbish
##rborough
##rbul
##rbury
##rchang
##rchange
##rchbishop
##rching
##rcially
##rck
##rcussion
##rdiff
##rdship
##reaching
##readnought
##readnoughts
##reakdown
##reaking
##reakthrough
##reath
##recaution
##recision
##reck
##redible
##redibly
##remiership
##rength
##requel
##requency
##requent
##requently
##reshwat
##ression
##resumably
##retching
##revention
##rewsbury
##rff
##rform
##rforma
##rforman
##rformanc
##rforming
##rganiz
##rgh
##rguably
##riangular
##ribb
##ribl
##ribun
##ribut
##rically
##rick
##riendship
##riff
##riffith
##rincipally
##rinking
##riodically
##ripp
##ripping
##ription
##rish
##riticizing
##rition
##ritish
##riumph
##riving
##riz
##rizo
##rkable
##rkham
##rkish
##rkshi
##rkshop
##rlborough
##rmingham
##rmish
##rmission
##rmstrong
##rnally
##rnationally
##rnish
##rnishe
##rnished
##rniz
##roaching
##robable
##robably
##robl
##rocession
##rock
##roduction
##rofession
##rofitable
##rofound
##rogression
##rohibition
##roj
##rolong
##rom
##romotion
##rompt
##rompting
##romptly
##rong
##ronghold
##ronically
##ronom
##ronomy
##ronz
##room
##rophy
##roportion
##roposition
##ropp
##ropping
##ropulsion
##rosecution
##roshima
##rosion
##roth
##rothy
##roubl
##rough
##roving
##rovision
##row
##rowing
##rowly
##rown
##rownish
##rowth
##rphy
##rption
##rques
##rquis
##rracks
##rrang
##rribl
##rriving
##rrow
##rrowing
##rrowly
##rruption
##rsecution
##rsepower
##rship
##rshipp
##rsion
##rsonally
##rth
##rthqu
##rthu
##rthumb
##rthur
##rtially
##rtiliz
##rtion
##rtition
##rtnership
##rtually
##ruck
##ruction
##rump
##runswick
##rupp
##ruption
##rush
##rushch
##rushing
##ruth
##rvention
##rving
##rvision
##rviving
##rwerff
##rything
##rywh
##s
##sapp
##sborough
##sburg
##sburgh
##sbury
##sceptible
##scography
##scow
##scription
##scussion
##secution
##semb
##sembl
##sembling
##sembly
##seng
##senhow
##sentially
##sepower
##sertion
##serving
##session
##sewhere
##sformation
##sfully
##sgiving
##sgow
##sh
##shack
##shback
##shi
##shif
##shift
##shin
##shing
##shingt
##shingto
##shington
##ship
##shipp
##ships
##shir
##shire
##shock
##show
##shw
##shwa
##shwat
##sibl
##sible
##sibly
##sically
##sion
##sionally
##sippi
##sissippi
##sition
##smarck
##smission
##smith
##solution
##sonable
##sonably
##sonally
##sophy
##sorganized
##sorption
##sorship
##specially
##sponsibl
##sposition
##squalifi
##sque
##squito
##sruption
##ssembl
##ssembly
##sseng
##ssentially
##ssertion
##ssession
##ssfully
##ssibl
##ssible
##ssibly
##ssion
##ssippi
##ssissippi
##ssumption
##stablish
##stablishing
##staff
##sth
##stha
##sthe
##sthet
##stheti
##sthetic
##sthu
##sthum
##stible
##stick
##stinguish
##stion
##stitution
##stock
##stonbury
##storically
##stortion
##stow
##strang
##stribut
##strong
##stronom
##stronomy
##struction
##sually
##successfully
##sumably
##sumpt
##sumpti
##sumptio
##sumption
##suppl
##swick
##t
##tabiliz
##table
##tablish
##tablishing
##tack
##tacking
##taff
##taking
##talion
##tally
##tanbul
##tangular
##tchcock
##tching
##tealth
##tegoriz
##temb
##tempt
##tempting
##tentially
##tention
##tentionally
##tepp
##terally
##terbury
##terchange
##ternally
##ternationally
##tervention
##tform
##th
##thing
##though
##thqu
##through
##throw
##thumb
##tially
##tibl
##tible
##tically
##ticiz
##ticizing
##tick
##tiff
##tification
##tiliz
##tingham
##tinguish
##tinguishing
##tion
##tionally
##tionship
##tiqua
##tique
##tiquity
##tish
##tition
##titution
##tivision
##tleship
##tleships
##tnership
##tobiography
##tock
##tockholm
##togeth
##tonbury
##tonomou
##tonomy
##topp
##topping
##torically
##torship
##tortion
##tow
##town
##track
##traightforw
##trang
##trength
##tretching
##tribut
##trically
##trick
##tripp
##trition
##troduction
##trong
##tronghold
##tronom
##tronomy
##truck
##truction
##tsburgh
##ttack
##ttacking
##ttalion
##ttempt
##ttempting
##ttention
##tth
##ttish
##ttleship
##ttleships
##ttribut
##ttsburgh
##ttysburg
##tually
##tubb
##tuck
##tucky
##tump
##turally
##tution
##twaff
##tysburg
##u
##uably
##ually
##ub
##ubb
##ubj
##ublish
##ublishing
##ubrick
##ucation
##uccessfully
##uccession
##uccumb
##uch
##uchdown
##uck
##uckingh
##ucky
##uction
##udition
##uff
##uffing
##uftwaff
##uggestion
##ugh
##uish
##uishing
##uitable
##uition
##ulariz
##ully
##ulsion
##umably
##umb
##umba
##umbl
##umble
##ummariz
##ump
##umph
##umpt
##unching
##undtrack
##ung
##unication
##unish
##unition
##unlight
##unningham
##unpow
##unshin
##unswick
##upervision
##upp
##uppl
##uption
##urally
##urbish
##urbul
##urgh
##urish
##urkish
##urovision
##urphy
##urth
##urviving
##usceptible
##ush
##ushch
##ushi
##ushing
##usically
##usion
##usque
##ussion
##usually
##uth
##uthw
##ution
##utobiography
##utonomou
##utonomy
##utrition
##uxemb
##uzz
##v
##vailable
##vasion
##velength
##veng
##venge
##vention
##version
##verth
##vidually
##vilion
##viliz
##vincibl
##ving
##vish
##visible
##vision
##vitable
##viving
##volution
##volving
##votion
##w
##waff
##wallow
##wcome
##wcomer
##wealth
##werff
##wership
##wfo
##wfou
##wfoun
##wfound
##wfoundl
##wfoundla
##wfoundlan
##wfoundland
##wh
##wha
##what
##whe
##wher
##where
##whi
##whil
##wick
##wight
##wish
##witching
##with
##worth
##worthy
##wsbury
##x
##xemb
##xibl
##xonom
##xonomi
##xonomic
##xonomy
##xophon
##xth
##xually
##y
##yck
##yish
##ylight
##yllable
##ymb
##ymboliz
##ymouth
##ympath
##ymph
##ympt
##yng
##ynth
##ynthe
##yoff
##ypically
##ypoth
##yrically
##ysburg
##yth
##ything
##ywh
##yzom
##z
##zambique
##zh
##zho
##zhou
##zom
##zz
[UNK]
a
ab
abb
abbo
abbot
abbott
abl
able
abo
aboa
aboar
aboard
abol
aboli
abolish
abolishe
abolished
abolit
aboliti
abolitio
abolition
abor
abori
aborig
aborigi
aborigin
aborigina
aboriginal
abort
aborti
abortio
abortion
abou
about
abov
above
absorption
abu
abun
abund
abunda
abundan
abundanc
abundance
abundant
abus
abuse
acceptable
accessible
accession
accidentally
accomm
accommo
accommod
accommoda
accommodat
accommodate
accommodation
accomp
accompa
accompan
accompani
accompanie
accompanied
accompany
accompanying
accomplish
accomplishe
accomplished
accomplishm
accomplishme
accomplishmen
accomplishment
accomplishments
achieving
acknow
acknowl
acknowle
acknowled
acknowledg
acknowledge
acknowledged
acqua
acquai
acquain
acquaint
acquainta
acquaintan
acquaintanc
acquaintance
acqui
acquir
acquire
acquired
acquiring
acquis
acquisi
acquisit
acquisiti
acquisitio
acquisition
acquit
acquitt
acquitte
acquitted
action
activision
actually
addition
additiona
additional
additionally
adequate
adjac
adjace
adjacen
adjacent
adjoining
adju
adjus
adjust
adjustm
adjustme
adjustmen
adjustment
admission
adoption
aesthetic
af
afc
aff
afgh
afgha
afghan
afghani
afghanis
afghanist
afghanista
afghanistan
afi
afl
afo
afor
afore
aforem
aforeme
aforemen
aforement
aforementi
aforementio
aforemention
aforementione
aforementioned
afr
afra
afrai
afraid
afri
afric
africa
african
aft
afte
after
aftermath
afterw
afterwa
afterwar
afterward
afterwards
aggression
albion
album
allow
allowing
allusion
ally
along
although
altogeth
altogethe
altogether
amb
amba
ambas
ambass
ambassa
ambassad
ambassado
ambassador
ambi
ambig
ambigu
ambiguo
ambiguou
ambiguous
ambit
ambiti
ambitio
ambition
ambitions
ambitiou
ambitious
ambr
ambro
ambros
ambrose
ambu
ambul
ambula
ambulan
ambulanc
ambulance
ambush
amidships
ammunition
among
amph
amphi
amphib
amphibi
amphibia
amphibian
amphibio
amphibiou
amphibious
ampl
ampli
amplif
amplifi
amplifie
an
analyz
analyze
analyzed
and
ang
ange
angel
anger
angi
angl
angle
angli
anglia
anglic
anglica
anglican
anglo
ango
angr
angry
angu
angul
angula
angular
angus
annually
anoth
anothe
another
anth
anthe
anthem
antho
anthol
antholo
antholog
anthology
anthon
anthony
anthr
anthro
anthrop
anthropo
anthropol
anthropolo
anthropolog
anthropologi
antiqua
antiquar
antiquity
any
anyon
anyone
anything
anywh
anywhe
anywher
anywhere
apologiz
apologize
app
application
applications
apply
applying
approaching
aqua
aquat
aquati
aquatic
archbishop
arguably
arizo
arizon
arizona
arkham
armstrong
arrang
arrange
arranged
arrangem
arrangeme
arrangemen
arrangement
arrangements
arriving
arrow
arrows
arth
arthr
arthu
arthur
ash
ashf
asho
ashor
ashore
assembl
assemble
assembled
assembly
assertion
assumption
astronom
astronome
astronomer
astronomers
astronomi
astronomic
astronomica
astronomical
astronomy
ath
athe
athei
atheis
athen
atheni
athenia
athenian
athens
athl
athle
athlet
athlete
athletes
athleti
athletic
athletics
attack
attacking
attempt
attempting
attention
attribut
attribute
attributed
attributes
auck
auckl
auckla
aucklan
auckland
auction
audition
auth
authe
authen
authent
authenti
authentic
authentici
authenticit
authenticity
autho
author
authori
authoris
authorise
authorised
authorit
authorita
authoriti
authoritie
authorities
authority
authoriz
authorize
authorized
autobiography
autonomou
autonomous
autonomy
available
aveng
avenge
avenger
avengers
b
back
backg
backgr
backgro
backgrou
backgroun
background
backing
backlash
backw
backwa
backwar
backward
backwards
bagh
baghd
baghda
baghdad
bakshi
bamb
bang
bangl
bangla
banglad
banglade
bangladesh
banish
banking
barack
barracks
barrow
barth
bash
basically
bastion
bath
bathroom
battalion
battleship
battleships
beck
becky
become
becoming
bedroom
beijing
believing
belize
belly
belong
belonging
below
beneath
beng
benga
bengal
benjamin
berth
beth
bibl
bible
bibli
biblic
biblica
biblical
billion
billy
biography
birmingham
birth
birthd
birthda
birthday
birthp
birthpl
birthpla
birthplac
birthplace
bish
bisho
bishop
bismarck
biz
biza
bizar
bizarr
bizarre
black
blackb
blackbu
blackbur
blackburn
blizz
block
blocking
bloom
blow
blowing
blown
bobby
bollywood
bomb
bombing
boom
booth
borough
borrow
borrowe
borrowed
both
bough
bought
bow
bowl
bowling
brack
bracke
bracket
breakdown
breaking
breakthrough
breath
breck
brecki
breckin
breckinr
breckinri
breckinrid
breckinridg
breckinridge
brick
british
brock
brom
bronz
bronze
broth
brothe
brother
brothers
brough
brought
brow
brown
brownish
brows
brunswick
brush
bu
bubb
bubbl
bubble
buc
bucc
bucca
buccan
buccane
buccanee
buccaneer
buch
bucha
buchan
buchana
buchanan
buck
buckingh
buckingha
buckingham
buckl
buckle
bud
buda
budap
budape
budapes
budapest
budd
buddh
buddha
buddhi
buddhis
buddhism
buddhist
buddy
budg
budge
budget
buff
buffa
buffal
buffalo
buffy
bug
bui
buil
build
building
built
bul
bulb
bulg
bulga
bulgar
bulgari
bulgaria
bulgarian
bulge
bulk
bulkh
bulkhe
bulkhea
bulkhead
bull
bully
bump
bun
bunch
bund
bundl
bundle
bung
bungi
bungie
bunk
bunke
bunker
bunn
bur
burg
burge
burger
burges
burgh
buri
buria
burial
burie
buried
burk
burke
burn
burnh
burnha
burnham
burning
burns
burrow
burrows
bury
bus
busch
bush
busi
busie
busies
busiest
busin
busine
busines
business
busy
but
buy
buying
buzz
by
byz
byza
byzan
byzant
byzanti
byzantin
byzantine
c
ca
cabl
cable
camb
cambo
cambod
cambodi
cambodia
cambr
cambri
cambrid
cambridg
cambridge
camp
campa
campai
campaig
campaign
campb
campbe
campbel
campbell
campu
campus
canterbury
canuck
canucks
cap
capa
capab
capabi
capabil
capabili
capabilit
capabiliti
capabilitie
capabilities
capability
capabl
capable
capac
capaci
capacit
capacity
capcom
capi
capit
capita
capital
capitaliz
capito
capitol
capitu
capitul
capitula
capp
cappe
capped
capt
capta
captai
captain
capti
captiv
captive
captivi
captivit
captivity
captu
captur
capture
captured
capturing
cardiff
caribb
caribbe
caribbea
caribbean
carving
cash
catching
categoriz
cath
cathe
cathed
cathedr
cathedra
cathedral
cather
catheri
catherin
catherine
catho
cathol
catholi
catholic
caugh
caught
caution
cb
cbs
ce
cel
cele
celeb
celebr
celebra
celebrat
celebrate
celebrated
celebrati
celebrating
celebratio
celebration
celebrations
celebri
celebrit
celebriti
celebritie
celebrities
celebrity
celes
celest
celesti
celestia
celestial
celi
cell
cells
cellu
cellul
cellula
cellular
celt
celti
celtic
cem
ceme
cemen
cement
cemet
cemete
cemeter
cemetery
cen
cena
cens
censo
censor
censorship
censu
census
cent
cente
centen
centenn
centenni
centennia
centennial
center
centi
centim
centime
centimet
centimete
centimeter
centimetr
centimetre
centimetres
centr
centra
central
centre
centu
centur
centuri
centurie
centuries
century
ceph
cer
cera
ceram
cerami
ceramic
cere
cereb
cerebr
cerebra
cerebral
cerem
ceremo
ceremon
ceremoni
ceremonia
ceremonial
ceremonie
ceremonies
ceremony
cert
certa
certai
certain
certainly
certi
certif
certifi
certific
certifica
certificat
certificate
certificati
certificatio
certification
certifications
certifie
certified
cerv
ch
cha
chai
chain
chair
chairm
chairma
chairman
chak
chakr
chakra
challeng
challenge
challenged
challenging
chamb
chambe
chamber
chamberl
chamberla
chamberlai
chamberlain
chambers
champ
champa
champi
champio
champion
champions
championship
chan
chanc
chance
chancel
chancell
chancello
chancellor
chand
chandl
chandle
chandler
chandr
chandra
chang
change
changed
changes
changing
chann
channe
channel
chant
chap
chape
chapel
chapl
chapli
chaplin
chapm
chapma
chapman
chapp
chapt
chapte
chapter
char
chara
charac
charact
characte
character
characteriz
characteriza
characterizat
characterizati
characterizatio
characterization
characterize
characterized
characters
charg
charge
charged
charges
charging
chari
chario
chariot
charis
charism
charisma
charit
charita
charitab
charitabl
charitable
chariti
charitie
charities
charity
charl
charle
charles
charli
charlie
charlo
charlot
charlott
charlotte
charlt
charlto
charlton
charm
charming
chart
chas
chase
chasing
chass
chast
che
check
chef
chem
chemi
chemic
chemica
chemical
chemis
chemist
chemistr
chemistry
cheshire
chew
chi
chic
chica
chicag
chicago
chick
chie
chief
chiefly
chil
child
childh
childho
childhoo
childhood
childr
childre
children
chim
chimn
chimne
chimney
chin
china
chine
chines
chinese
chino
chip
chl
chlo
chlor
chlori
chlorid
chloride
cho
chr
chri
chris
christ
christi
christia
christian
christin
christina
christine
christm
christma
christmas
christo
christoph
christophe
christopher
chro
chrom
chroma
chromo
chromos
chromoso
chromosom
chromosome
chron
chroni
chronic
chronicl
chronicle
chrono
chronol
chronolo
chronolog
chry
chrys
chu
chuck
chun
chur
church
ci
cig
ciga
cigar
cigare
cigaret
cigarett
cigarette
cin
cinc
cinci
cincin
cincinn
cincinna
cincinnat
cincinnati
cind
cindy
cine
cinem
cinema
cinemat
cinemati
cinematic
cinemato
cinematog
cinematogr
cinematogra
cinematograph
cinematographe
cinematographer
cinematography
cir
circ
circl
circle
circu
circui
circuit
circul
circula
circular
circulat
circulate
circulated
circulati
circulatio
circulation
circum
circums
circumst
circumsta
circumstan
circumstanc
circumstance
circumstances
circus
cit
cita
citad
citade
citadel
citat
citati
citatio
citation
cite
cited
cites
citi
citie
cities
citing
citiz
citize
citizen
citizens
citizenship
citr
city
civ
civi
civic
civil
civiliz
civiliza
civilizat
civilizati
civilizatio
civilization
cl
cla
clad
clai
claim
claiming
clair
claire
clan
clap
clar
clara
clare
claren
clarenc
clarence
clari
clarif
clarifi
clarifie
clarified
clarin
clarine
clarinet
clark
clas
clash
class
classi
classic
classica
classical
classif
classifi
classific
classifica
classificat
classificati
classificatio
classification
classifie
classified
classify
classroom
clau
claud
claude
claudi
claus
clause
claw
claws
clay
cle
clea
clean
cleaning
clear
clearing
clearly
clem
cleme
clemen
clement
cleo
cler
clerg
clergy
cleri
cleric
clerk
clev
cleve
clevel
clevela
clevelan
cleveland
clever
cli
clich
clie
clien
client
clients
clif
cliff
cliffo
cliffor
clifford
clift
clifto
clifton
clim
clima
climat
climate
climax
climb
climbing
clin
clinch
clini
clinic
clinica
clinical
clint
clinto
clinton
clip
clips
clit
cliv
clive
clo
clock
clon
clone
clos
close
closed
closely
closing
closu
closur
closure
cloth
clothe
clothes
clothing
clou
cloud
clouds
clov
clove
clover
clow
clown
clu
club
clus
clust
cluste
cluster
clusters
clut
clutch
cly
clyd
clyde
cm
co
coaching
coalition
cobb
cock
cockp
cockpi
cockpit
coff
coffe
coffee
coffi
coffin
coh
cohe
cohen
coher
cohere
coheren
cohes
cohesi
col
colb
colbe
colber
colbert
cold
coll
colla
collab
collabo
collabor
collabora
collaborat
collaborate
collaborated
collaborati
collaboratio
collaboration
collaborato
collaborator
collap
collaps
collapse
collapsed
collar
colle
collea
colleag
colleagu
colleague
colleagues
collec
collect
collecti
collecting
collectio
collection
collectiv
collective
collectively
collecto
collector
colleg
college
collegi
collegia
collegiat
collegiate
colli
collid
collide
collided
collie
collier
collin
collins
collis
collisi
collisio
collision
collo
colo
colomb
colombi
colombia
colon
colone
colonel
coloni
colonia
colonial
colonie
colonies
colonis
colonist
colonists
coloniz
colony
color
coloration
colos
coloss
colou
colour
colu
colum
columb
columbi
columbia
columbu
columbus
column
columns
com
comb
comba
combat
combi
combin
combina
combinat
combinati
combinatio
combination
combine
combined
combines
combining
combs
combu
come
comeback
comed
comedi
comedia
comedian
comedic
comedy
comf
comfo
comfor
comfort
comforta
comfortab
comfortabl
comfortable
comi
comic
comics
coming
comm
commercially
commission
common
commonly
commonwealth
commu
commun
communa
communal
communi
communic
communica
communicat
communicate
communicati
communicatio
communication
communications
communis
communism
communist
communit
communiti
communitie
communities
community
commut
commute
commuter
comp
compa
compac
compact
compan
compani
companie
companies
companio
companion
companions
company
compar
compara
comparabl
comparable
comparat
comparati
comparativ
comparative
comparatively
compare
compared
compares
compari
comparing
comparis
compariso
comparison
comparisons
compart
compartm
compartme
compartmen
compartment
compartments
compas
compass
compat
compati
compatib
compatibl
compatible
competition
compl
compla
complai
complain
complaine
complained
complaint
complaints
comple
complem
compleme
complemen
complement
complet
complete
completed
completely
completi
completing
completio
completion
complex
compli
complia
complian
complic
complica
complicat
complicate
complicated
complicati
complicatio
complication
complications
complim
complime
complimen
compliment
comply
compo
compon
compone
componen
component
components
compos
compose
composed
composer
composi
composing
composit
composite
compositi
compositio
composition
compou
compoun
compound
compounds
comprom
compromi
compromis
compromise
compu
compul
compuls
compulso
compulsor
compulsory
comput
compute
computer
computing
con
conc
conce
concea
conceal
conced
concede
conceded
concei
conceiv
conceive
conceived
concen
concent
concentr
concentra
concentrat
concentrate
concentrated
concentrati
concentratio
concentration
concep
concept
conception
concer
concern
concerning
concerns
concert
conces
concess
concessi
concessio
concession
concessions
concl
conclu
conclud
conclude
concluded
concludes
concluding
conclus
conclusi
conclusio
conclusion
conco
concor
concord
concr
concre
concret
concrete
concu
concur
concurr
concurre
concurren
concurrenc
concurrency
concurrent
concurrently
concus
concuss
concussi
concussio
concussion
cond
conde
condem
condemn
conden
condens
condense
condi
condit
conditi
conditio
condition
conditions
condo
condom
condu
conduc
conduct
conducting
conf
confe
confed
confede
confeder
confedera
confederac
confederacy
confederat
confederate
confederati
confederatio
confederation
confer
confere
conferen
conferenc
conference
conferr
confes
confess
confessi
confessio
confession
confessions
confi
confid
confide
confiden
confidenc
confidence
confident
config
configu
configur
configura
configurat
configurati
configuratio
configuration
confin
confine
confined
confir
confirm
confirma
confirmat
confirmati
confirmatio
confirmation
confirme
confirmed
confirming
confis
confisc
confisca
confiscat
confiscate
confiscated
confl
confli
conflic
conflict
conflicting
conflu
conflue
confluen
confluenc
confluence
confo
confor
conform
confr
confro
confron
confront
confrontation
confu
confus
confuse
confused
confusi
confusing
confusio
confusion
cong
congestion
congo
congr
congra
congrat
congratu
congratul
congratula
congratulat
congre
congreg
congrega
congregat
congregati
congregatio
congregation
congres
congress
congression
congressiona
congressional
congressm
congressma
congressman
conj
conju
conjun
conjunc
conjunct
conjuncti
conjunctio
conjunction
conn
conne
connec
connect
connecti
connectic
connecticu
connecticut
connecting
connectio
connection
connections
conni
connie
conning
conno
connor
conqu
conque
conquer
conques
conquest
cons
consc
consci
conscie
conscien
conscienc
conscience
conscio
consciou
conscious
consciousn
consciousne
consciousnes
consciousness
conscr
conscri
conscrip
conscript
conse
consec
consecr
consecra
consecrat
consecrate
consecrated
consecu
consecut
consecuti
consecutiv
consecutive
consen
consens
consensu
consensus
consent
consequ
conseque
consequen
consequenc
consequence
consequences
consequent
consequently
conser
conserv
conserva
conservat
conservati
conservatio
conservation
conservativ
conservative
conservato
conserve
consi
consid
conside
consider
considerabl
considerable
considerably
consideration
considere
considered
considering
considers
consis
consist
consiste
consisted
consisten
consistent
consistently
consisting
consists
conso
consol
console
consoli
consolid
consolida
consolidat
consolidate
consolidated
conson
consona
consonan
consonant
consor
consort
consp
conspi
conspic
conspicu
conspicuo
conspicuou
conspicuous
conspir
conspira
conspirac
conspiracy
conspirat
conspirato
conspirator
const
consta
constab
constabl
constable
constan
constant
constanti
constantin
constantine
constantino
constantinop
constantinopl
constantinople
constantl
constantly
conste
constel
constell
constella
constellat
constellati
constellatio
constellation
consti
constit
constitu
constitue
constituen
constituenc
constituency
constituent
constitut
constitute
constituted
constituti
constitutio
constitution
constr
constra
constrai
constrain
constraint
constraints
constru
construc
construct
constructe
constructed
constructi
constructing
constructio
construction
consu
consul
consult
consulta
consultan
consultant
consultat
consultati
consultatio
consultation
consulte
consulted
consulting
consum
consume
consumed
consumer
consumers
consuming
consump
consumpt
consumpti
consumptio
consumption
cont
conta
contac
contact
contai
contain
containing
contains
contam
contami
contamin
contamina
contaminat
conte
contemp
contempl
contempla
contemplat
contempo
contempor
contempora
contemporar
contemporari
contemporarie
contemporaries
contemporary
contempt
conten
contend
contende
contender
content
contention
contes
contest
contex
context
conti
contin
contine
continen
continent
continenta
continental
conting
continge
contingen
contingent
continu
continua
continually
continuat
continuati
continuatio
continuation
continue
continued
continues
continui
continuing
continuit
continuity
continuo
continuou
continuous
continuously
contr
contra
contrac
contract
contrad
contradi
contradic
contradict
contrar
contrary
contras
contrast
contrasting
contribut
contribute
contributed
contributi
contributing
contributio
contribution
contributions
contributo
contributor
contro
control
controll
controlle
controlled
controller
controlling
controv
controve
controver
controvers
controversi
controversia
controversial
controversie
controversies
controversy
conv
conve
convec
convect
convecti
convectio
convection
convectiv
convective
conven
convene
convened
conveni
convenie
convenien
convenient
convent
conventi
conventio
convention
conver
converg
converge
convergen
convers
conversa
conversat
conversati
conversatio
conversation
converse
conversely
conversi
conversio
conversion
convert
converte
converted
converting
convex
convey
convi
convic
convict
convicte
convicted
convicti
convictio
conviction
convin
convinc
convince
convinced
convinces
convincing
convo
convoy
conw
conwa
conway
cooking
coop
coope
cooper
cooperation
cop
copi
copie
copied
copies
copp
coppe
copper
copy
cornish
corruption
cou
coul
could
coulth
coultha
coulthar
coulthard
coun
counc
counci
council
couns
counse
counsel
count
countdown
counterattack
countr
countri
countrie
countries
country
county
coup
coupl
couple
cour
coura
courag
courage
couri
courie
courier
cours
course
court
courth
courtho
courthou
courthous
courthouse
courtsh
courtshi
courtship
cous
cousi
cousin
cov
cove
coven
covena
covenan
covenant
covent
cover
covering
cox
cr
crack
crash
crick
cricke
cricket
cripp
crippl
cripple
criticiz
criticize
criticized
criticizing
critique
crom
cromw
cromwe
cromwel
cromwell
crop
crops
crow
crowd
crowl
crowle
crowley
crown
crush
cu
cub
cuba
cuban
cube
cubi
cubic
cubs
cul
cull
culm
culmi
culmin
culmina
culminat
culminate
culminated
culminating
culp
cult
culti
cultiv
cultiva
cultivat
cultivate
cultivated
cultivati
cultivatio
cultivation
cultu
cultur
cultura
cultural
culture
culv
culve
culver
cum
cumb
cumbe
cumber
cumberl
cumberla
cumberlan
cumberland
cumu
cumul
cunningham
cup
cur
curr
curre
curren
currenc
currency
current
currently
curri
curric
curricu
curricul
curriculu
curriculum
curt
curta
curtai
curtain
curti
curtis
curv
curve
curved
curves
curving
cus
cusp
cust
custo
custod
custody
custom
customiz
cut
cy
cyb
cybe
cyber
cyc
cycl
cycle
cycli
cycling
cyclis
cyclist
cyclo
cyclon
cyclone
cycloni
cyclonic
cyl
cyli
cylin
cylind
cylinde
cylinder
cylindr
cylindri
cylindric
cylindrica
cylindrical
cyn
cyni
cynic
cyp
cypr
cypru
cyprus
cyr
cyri
cyril
cyru
cyrus
cz
cze
czech
czecho
czechos
czechosl
czechoslo
czechoslov
czechoslova
czechoslovak
czechoslovaki
czechoslovakia
d
dang
dange
danger
dangero
dangerou
dangerous
danish
dash
daugh
daught
daughte
daughter
daylight
death
debut
decemb
decembe
december
decision
deck
decomm
decommi
decommis
decommission
decommissione
decommissioned
decompr
decompre
decompres
decompression
definition
demolish
demolishe
demolished
demolition
depression
depth
description
destruction
detention
devotion
dick
diff
diffe
differ
differe
differed
differen
differenc
difference
differences
different
differently
differing
differs
diffi
diffic
difficu
difficul
difficult
difficulty
diffu
diffus
diffusi
diffusio
diffusion
digitally
diminish
diminishe
diminished
disapp
disappe
disappea
disappear
disappo
disappoi
disappoin
disappoint
disappointe
disappointed
disappointing
disappointm
disappointme
disappointmen
disappointment
disappr
disappro
disapprov
discography
discussion
discussions
disemb
dish
disorganized
disposition
disqualifi
disruption
distinguish
distinguishe
distinguished
distortion
distribut
distribute
distributed
distributi
distributio
distribution
distributo
distributor
diversion
diving
division
dj
djo
dock
docky
dockya
dockyar
dockyard
dom
domi
domin
domina
dominan
dominanc
dominance
dominant
dominat
dominate
dominated
domination
domini
dominic
dominica
dominican
dominion
dong
doom
dopp
dorothy
doub
doubl
double
doubt
dough
dow
down
downg
downgr
downgra
downgrad
downgrade
downgraded
downtown
draught
dreadnought
dreadnoughts
drinking
driving
drom
dropp
droppe
dropped
dropping
drough
drought
drown
drowne
drowned
drowning
du
dub
dubb
dubbe
dubbed
dubl
dubli
dublin
duch
duche
duches
duchess
ducho
duchov
duchovn
duchovny
duchy
duck
ducks
duff
duk
duke
dumb
dump
dung
dunge
dungeo
dungeon
dungeons
dur
dura
duran
durat
durati
duratio
duration
durh
durha
durham
during
dwight
e
earth
earthqu
earthqua
earthquak
earthquake
earthw
earthwo
earthwor
econom
economi
economic
economically
economis
economist
economy
edibl
edible
edinburgh
edition
education
eff
effe
effec
effect
effecti
effectiv
effective
effectivel
effectively
effects
effi
effic
effici
efficie
efficien
efficienc
efficiency
efficient
effo
effor
effort
efforts
eigh
eight
eighth
eisenhow
eisenhowe
eisenhower
eith
eithe
either
ej
eje
ejec
eject
elbow
eligibl
eligible
eliz
eliza
elizab
elizabe
elizabeth
elong
elonga
elongat
elongate
elongated
elsewhere
emb
emba
embar
embark
embarke
embarked
embarr
embarra
embarras
embarrass
embas
embass
embassy
embe
embed
embedd
embedde
embedded
embl
emble
emblem
embo
embod
embodi
embodie
embr
embra
embrac
embrace
embraced
embro
embroi
embry
embryo
emission
emissions
emotion
emotiona
emotional
emotionally
emotions
emp
empe
emper
empero
emperor
emph
empha
emphas
emphasi
emphasis
emphasiz
emphasize
emphasized
empi
empir
empire
empl
emplo
employ
employe
employed
employee
employees
employer
employers
employing
employm
employme
employmen
employment
employs
empow
empowe
empower
empr
empre
empres
empress
empt
empty
en
enable
enabled
enabling
enc
encl
enclo
enclos
enclose
enclosed
enclosu
enclosur
enclosure
enco
encomp
encompa
encompas
encompass
encou
encoun
encount
encounte
encounter
encour
encoura
encourag
encourage
encouraged
encouragem
encourageme
encouragemen
encouragement
encouraging
ency
encyc
encycl
encyclo
encyclop
encyclope
encycloped
encyclopedi
encyclopedia
end
endang
endange
endanger
endangere
endangered
ending
endow
enf
enfo
enfor
enforc
enforce
enforced
enforcem
enforceme
enforcemen
enforcement
eng
enga
engag
engage
engaged
engagem
engageme
engagemen
engagement
engaging
engi
engin
engine
engl
engla
englan
england
english
engr
engra
engrav
engrave
engraving
enh
enha
enhan
enhanc
enhance
enhanced
enjoy
enjoyabl
enjoyable
enjoying
enlight
enlighte
enlighten
enough
ensembl
ensemble
ent
enta
ente
enter
entering
enterp
enterpr
enterpri
enterpris
enterprise
entert
enterta
entertai
entertain
entertaine
entertainer
entertaining
entertainm
entertainme
entertainmen
entertainment
enth
enthu
enthus
enthusi
enthusia
enthusias
enthusiasm
enthusiast
enthusiasti
enthusiastic
enti
entir
entire
entirely
entit
entiti
entitie
entities
entitl
entitle
entitled
entity
ento
entr
entra
entran
entranc
entrance
entre
entren
entrench
entrep
entrepr
entrepre
entrepren
entreprene
entrepreneu
entrepreneur
entri
entrie
entries
entru
entrus
entrust
entry
env
enve
envel
envelo
envelop
envelope
envi
envir
enviro
environ
environm
environme
environmen
environment
environmenta
environmental
envis
envisi
envisio
envision
envisione
envisioned
envo
envoy
enz
enzy
enzym
enzyme
enzymes
ep
epi
epic
epid
epide
epidem
epidemi
epidemic
epil
epis
episc
episco
episcop
episcopa
episcopal
episo
episod
episode
epist
epit
epith
epithe
epithet
epon
epony
eponym
eponymo
eponymou
eponymous
equ
equa
equal
equall
equally
equat
equati
equatio
equation
equations
equato
equator
eque
eques
equest
equestr
equestri
equestria
equestrian
equi
equil
equili
equilib
equilibr
equilibri
equilibriu
equilibrium
equip
equipm
equipme
equipmen
equipment
equipp
equippe
equipped
equit
equity
equiv
equiva
equival
equivale
equivalen
equivalent
erosion
eruption
eruptions
especially
essentially
establish
establishe
established
establishing
establishm
establishme
establishmen
establishment
estrang
estrange
eth
etha
ethan
ethano
ethanol
ethi
ethic
ethica
ethical
ethics
ethio
ethiop
ethiopi
ethiopia
ethn
ethni
ethnic
eurovision
ev
eva
evac
evacu
evacua
evacuat
evacuate
evacuated
evacuati
evacuatio
evacuation
evad
evade
eval
evalu
evalua
evaluat
evaluate
evaluated
evaluati
evaluatio
evaluation
evan
evang
evange
evangel
evangeli
evangelic
evangelica
evangelical
evans
evap
evapo
evapor
evapora
evaporat
eve
even
evening
event
events
eventu
eventua
eventual
eventually
ever
everg
evergl
evergla
everglad
everglade
everglades
every
everyb
everybo
everybod
everybody
everyon
everyone
everything
everywh
everywhe
everywher
everywhere
evi
evic
evict
evid
evide
eviden
evidenc
evidence
evident
evil
evo
evok
evoke
evol
evolu
evolut
evoluti
evolutio
evolution
evolv
evolve
evolved
ex
exampl
example
exc
exca
excav
excava
excavat
excavate
excavated
excavati
excavatio
excavation
excavations
exce
excee
exceed
exceeding
excel
excell
excelle
excellen
excellenc
excellence
excellent
excep
except
excepti
exceptio
exception
exceptionally
exces
excess
excessi
excessiv
excessive
exch
excha
exchan
exchang
exchange
exci
excit
excite
excited
excitem
exciteme
excitemen
excitement
exciting
excl
excla
exclu
exclud
exclude
excluded
excluding
exclus
exclusi
exclusio
exclusion
exclusiv
exclusive
exclusively
excu
excus
excuse
execution
exempl
exempli
exemplif
exemplifi
exemplifie
exempt
exh
exha
exhau
exhaus
exhaust
exhi
exhib
exhibi
exhibit
exhibiti
exhibitio
exhibition
exi
exil
exile
exiled
exis
exist
existing
exit
exp
expedition
expl
expla
explai
explain
explaining
explan
explana
explanat
explanati
explanatio
explanation
expli
explic
explici
explicit
explicitl
explicitly
explo
explod
explode
exploded
exploi
exploit
exploitation
explor
explora
explorat
explorati
exploratio
exploration
explore
explored
explorer
explorers
exploring
explos
explosi
explosio
explosion
explosiv
explosive
explosives
exposition
expression
ext
exta
extan
extant
exte
exten
extend
extende
extended
extending
extends
extens
extensi
extensio
extension
extensiv
extensive
extensively
extent
exter
exteri
exterio
exterior
exterm
extermi
extermin
extermina
exterminat
extern
externa
external
exti
extin
extinc
extinct
extincti
extinctio
extinction
extinguish
exto
extr
extra
extrac
extract
extraction
extrav
extrava
extravag
extravaga
extravagan
extre
extrem
extreme
extremely
extremi
f
faithful
farth
farthe
farther
fashi
fashio
fashion
fashionabl
fashionable
fath
fathe
father
feath
feathe
feather
feathers
feedback
fellow
fellowship
fi
fib
fibr
fiction
fif
fifa
fift
fifte
fiftee
fifteen
fifteenth
fifth
fifty
fig
figh
fight
fighting
figu
figur
figure
figures
fij
fiji
fil
fill
filling
film
filming
fin
fina
final
finally
finan
financ
finance
financi
financia
financial
financially
financing
finch
find
finding
finish
finishe
finished
finishes
finishing
finnish
fir
fire
firefight
firing
firm
firmly
firs
first
fish
fishing
fission
fiv
five
fix
flagship
flash
flashback
flashbacks
flexibl
flexible
flick
flight
flock
flourish
flourishe
flow
flowing
fo
foc
foca
focu
focus
focusing
fog
fol
fold
folding
foli
folio
folk
folkl
folklo
folklor
folklore
foll
follow
following
fon
fond
font
fonta
foo
food
fool
foot
footb
footba
footbal
football
footh
footp
for
form
formally
formation
forth
forthc
forthco
forthcom
forthcoming
fortification
fortifications
fos
foss
fossi
fossil
fossils
fost
foste
foster
fou
fough
fought
foul
foun
found
foundation
founding
fount
founta
fountai
fountain
four
fourth
fow
fowl
fowle
fowler
fox
frequency
frequent
frequently
freshwat
freshwate
freshwater
friendship
from
fuck
fully
fumb
fumbl
fumble
fung
fungi
fungu
fungus
furth
furthe
further
fusion
g
gallagh
gallaghe
gallagher
gallow
gamb
gambl
gamble
gambling
gang
gath
gathe
gather
gathering
generally
gettysburg
gibb
gibbo
gibbon
gibbs
giving
glasgow
glastonbury
globally
gobl
gong
gonz
gonza
gonzal
goth
gotha
gothi
gothic
gow
gradually
grandfath
grandfathe
grandfather
grandmoth
grandmothe
grandmother
griff
griffi
griffin
griffith
groom
grow
growing
grown
growth
grupp
gruppe
gub
gube
guber
gubern
guberna
gubernat
gubernato
gubernator
gubernatori
gubernatoria
gubernatorial
gunpow
gunpowd
gunpowde
gunpowder
h
habsburg
hack
hallow
hallowe
hallowee
halloween
hamb
hambu
hambur
hamburg
hampshir
hampshire
hampton
hancock
hang
hanging
happ
happe
happen
happening
happi
happin
happine
happines
happiness
happy
having
headquart
headquarte
headquarter
headquartere
headquartered
headquarters
health
healthy
heath
hepburn
hick
high
highlight
highlighting
highly
highw
highwa
highway
hijack
hipp
hippe
hipper
hippo
hiroshima
historically
hitchcock
hobb
hobbs
hock
hocke
hockey
hoff
hoffm
hoffma
hoffman
hollow
holly
hollywood
hom
homa
homag
homage
home
hometown
homi
homic
homici
homicid
homicide
homo
homos
homose
homosex
homosexu
homosexua
homosexual
homosexuali
homosexualit
homosexuality
hong
hopp
horizo
horizon
horizont
horizonta
horizontal
horsepower
how
howe
howev
howeve
however
hub
hubb
hubba
hubbar
hubbard
hugh
humb
humbe
humber
humbl
humble
humph
humphr
humphre
humphrey
hung
hunga
hungar
hungari
hungaria
hungarian
hungary
hypoth
hypothe
hypothes
hypothesi
hypothesis
i
ib
ibn
identification
if
ij
illusion
im
ima
imag
image
images
imagi
imagin
imagina
imaginat
imaginati
imaginatio
imagination
imagine
imagined
imaging
imb
imi
imit
imita
imitat
imitate
imitati
imitatio
imitation
imm
imp
impa
impac
impact
impai
impair
impe
imped
impeda
impedan
impedanc
impedance
impen
impend
impending
imper
imperi
imperia
imperial
impers
imperso
imperson
impersona
impl
impla
implan
implant
imple
implem
impleme
implemen
implement
implementation
impli
implic
implica
implicat
implicati
implicatio
implication
implications
implie
implied
implies
implo
imply
impo
impor
import
importa
importan
importanc
importance
important
impos
impose
imposed
imposs
impossi
impossib
impossibl
impossible
impr
impre
impres
impress
impresse
impressed
impressi
impressio
impression
impressiv
impressive
impri
imprin
imprint
impris
impriso
imprison
imprisone
imprisoned
imprisonm
imprisonme
imprisonmen
imprisonment
impro
improp
imprope
improper
improv
improve
improved
improvem
improveme
improvemen
improvement
improvements
improvi
improving
improvis
improvisa
improvisat
improvisati
improvisatio
improvisation
improvise
improvised
impu
impul
impuls
in
inadequate
inapp
inappr
inappro
inapprop
inappropr
inappropri
inappropria
inappropriat
inappropriate
inclusion
income
incoming
incomp
incompl
incomple
incomplet
incomplete
incredible
incredibly
incumb
incumbe
incumben
incumbent
indication
indiff
indiffe
indiffer
indiffere
indifferen
individually
ineff
ineffe
ineffec
ineffect
ineffecti
ineffectiv
ineffective
inevitable
inf
infa
infam
infamo
infamou
infamous
infan
infant
infantr
infantry
infants
infl
infla
inflam
inflamm
inflamma
inflammat
inflat
inflati
inflatio
inflation
infli
inflic
inflict
influ
influe
influen
influenc
influence
influenced
influent
influenti
influentia
influential
influenz
influenza
influx
info
infor
inform
informa
informal
informat
informati
informatio
information
initially
inj
inje
injec
inject
injecti
injectio
injection
inju
injur
injure
injured
injuri
injurie
injuries
injury
inquir
inquire
inquiry
inscription
inscriptions
institution
institutions
instruction
instructions
intention
intentionally
interchange
internationally
intervention
introduction
invasion
invention
invincibl
invincible
invisible
involving
iow
iowa
iph
ipho
iphon
iphone
iq
iraq
iraqi
irish
irving
is
ish
ishi
istanbul
it
j
ja
jab
jac
jack
jacks
jackso
jackson
jacksonv
jacksonvi
jacksonvil
jacksonvill
jacksonville
jaco
jacob
jacqu
jacque
jacques
jag
jagd
jagu
jagua
jaguar
jak
jam
jama
jamai
jamaic
jamaica
jame
james
jami
jamie
jamm
jan
janu
janua
januar
january
jap
japa
japan
jav
java
jaw
jaws
jay
jazz
jeff
jewish
jo
job
jock
jocke
jockey
joh
joha
johan
johann
john
joho
johor
joi
join
joining
jok
joke
joker
jokes
joking
jon
jonath
jonatha
jonathan
jone
jones
jos
jose
joseph
josh
joshu
joshua
jou
jour
journ
journa
journal
journali
journalis
journalism
journalist
journalists
journe
journey
joy
joyc
joyce
ju
jua
juan
jub
jubi
jubil
jud
juda
judg
judge
judgm
judgme
judgmen
judgment
judi
judic
judici
judicia
judicial
judiciar
judiciary
judith
judy
jug
jul
juli
julia
julian
julie
juliet
juliu
julius
july
jump
jumping
jun
junc
junct
juncti
junctio
junction
june
jung
jungl
jungle
juni
junio
junior
junk
juno
junt
junta
jup
jupi
jupit
jupite
jupiter
jur
jura
juras
jurass
jurassi
jurassic
juri
juris
jurisd
jurisdi
jurisdic
jurisdict
jurisdicti
jurisdictio
jurisdiction
jury
jus
just
juv
juve
juven
juveni
juvenil
juvenile
juveniles
juvent
k
kang
kanga
kapp
kappa
kash
kath
kelly
kenneth
kentucky
kh
kha
khal
khali
khalid
khan
khm
khme
khmer
khrushch
khrushche
khrushchev
khu
kick
kicking
kickoff
kidnapped
kimb
king
kingd
kingdo
kingdom
km
knock
knocko
knockou
knockout
know
knowing
knowl
knowle
knowled
knowledg
knowledge
knowles
known
kom
komb
komba
kombat
kong
krish
krishn
krishna
kub
kubrick
l
lack
lacking
lamb
lancashir
lancashire
landown
landowne
landowner
landowners
lang
langu
langua
languag
language
lash
laugh
launching
lavish
leadership
leath
leathe
leather
leaving
legally
legion
leigh
length
lengthy
leth
letha
lethal
lifelong
ligh
light
lighth
lightho
lighthou
lighthous
lighthouse
lighting
lightly
limb
limbs
linking
lion
liquid
liquo
liquor
literally
lith
lithi
lithiu
lithium
lithu
lithua
lithuan
lithuani
lithuania
lithuanian
living
liz
liza
lizar
lizard
lobb
lobbi
lobbie
lobby
localization
locally
location
lock
lockh
lockhe
lockhee
lockheed
locomo
locomot
locomoti
locomotiv
locomotive
locomotives
lomb
lomba
lombar
lombard
long
looking
loom
loung
lounge
loving
low
luck
lucky
luftwaff
luftwaffe
lumb
lumbe
lumber
lump
lung
lungs
luth
luthe
luther
luthera
lutheran
luxemb
lyrically
m
ma
mac
macarthur
macbeth
macf
macfa
macfar
macfarl
macfarla
macfarlan
macfarlane
mach
machi
machin
machine
mack
mad
made
madh
mado
madon
madonn
madonna
maf
mafi
mafia
mag
maga
magaz
magazi
magazin
magazine
magd
magg
maggi
maggie
magi
magic
magis
magist
magistr
magistra
magistrat
magistrate
magm
magma
magn
magna
magnat
magnate
magne
magnet
magneti
magnetic
magneto
magni
magnif
magnifi
magnific
magnifice
magnificen
magnificent
magnit
magnitu
magnitud
magnitude
magnu
magnus
mah
maha
maho
mai
maid
mail
main
mainly
maj
major
mak
make
making
mal
mam
mama
mamm
mamma
mammal
mammals
mammoth
man
manch
manche
manches
manchest
mancheste
manchester
manchu
mang
manga
manh
manha
manhat
manhatt
manhatta
manhattan
manpow
manpowe
manpower
mansion
manu
manua
manual
manue
manuel
manuf
manufa
manufac
manufact
manufactu
manufactur
manufacture
manufactured
manufacturer
manufacturers
manufacturing
manus
manusc
manuscr
manuscri
manuscrip
manuscript
manuscripts
many
manz
map
mapl
maple
maps
mar
marath
maratho
marathon
marbl
marble
march
marching
marg
marga
margar
margare
margaret
marge
margi
margin
marion
mark
marking
markings
marlborough
marque
marques
marsh
marsha
marshal
marshall
marth
martha
marx
marxi
marxis
mary
maryl
maryla
marylan
maryland
mas
masa
masc
masco
mascot
mascu
mascul
masculi
masculin
mash
mask
maso
mason
mass
mast
maste
master
mastering
masterp
masterpi
masterpie
masterpiec
masterpiece
masts
mat
match
matching
mate
mater
materi
materia
material
matern
materna
maternal
math
mathe
mathem
mathema
mathemat
mathemati
mathematic
mathematica
mathematical
mathematici
mathematicia
mathematician
mathematics
mathi
mating
matt
matte
matter
matth
matthe
matthew
matu
matur
mau
maud
maun
maur
mauri
mauric
maurice
maurit
mauriti
mauritiu
mauritius
maus
mav
mave
maverick
max
maxi
maxim
maximi
maximu
maximum
maxw
maxwe
maxwel
maxwell
may
maz
mb
mba
mbar
mc
mcb
mcc
mcca
mccai
mccain
mccar
mccart
mccarth
mccarthy
mccartn
mccartne
mccartney
mccay
mccl
mcco
mccoo
mccool
mccor
mccoy
mccu
mcd
mcdo
mcdon
mcdona
mcdonal
mcdonald
mcf
mcg
mcgu
mcgui
mck
mcke
mcki
mckin
mckinl
mckinle
mckinley
mcl
mcla
mclar
mclare
mclaren
mcle
mcm
mcma
mcmah
mcmaho
mcmahon
me
meadow
meanwhil
meanwhile
mech
mecha
mechan
mechani
mechanic
mechanica
mechanical
mechanics
mechanis
mechanism
mechanisms
medication
memb
membe
member
members
membership
membr
membra
membran
membrane
memphis
mentally
mention
messeng
messenge
messenger
meth
metha
metho
method
methods
mex
mexi
mexic
mexica
mexican
mexico
mi
mic
mich
micha
michae
michael
miche
michel
michell
michelle
michi
michig
michiga
michigan
mick
micr
micro
microph
micropho
microphon
microphone
micros
microsc
microsco
microscop
microscopi
microscopic
microso
microsof
microsoft
mid
midd
middl
middle
midf
midfi
midfie
midfiel
midfield
midfielde
midfielder
midshipm
midw
midwa
midway
midwe
midwes
midwest
miff
miffl
miffli
mifflin
mig
might
migr
migra
migran
migrant
migrat
migrate
migrated
migrati
migratio
migration
migrato
migrator
migratory
migu
migue
miguel
mih
mik
mika
mike
mikha
mil
mild
mile
miles
milf
mili
milit
milita
militan
militant
militar
militari
military
militi
militia
milk
milky
mill
milli
millim
millime
millimet
millimete
millimeter
millimeters
millimetr
millimetre
millimetres
millio
million
millw
millwa
millwal
millwall
milw
milwa
milwau
milwauk
milwauke
milwaukee
min
mind
minh
mini
minim
minima
minimal
minimiz
minimize
minimu
minimum
mining
minis
minise
miniser
miniseri
miniserie
miniseries
minist
ministe
minister
ministr
ministry
mino
minog
minogu
minogue
minor
minu
minus
minut
minute
minutes
mis
misc
misca
misco
miscon
misf
miss
missi
missil
missile
missiles
missing
missio
mission
mississippi
misso
missou
missour
missouri
mist
mista
mistak
mistake
mistaken
mistakenly
mistakes
mistr
mistre
mistres
mistress
misu
misun
misund
misunde
misunder
misunders
misunderst
mix
mixing
miz
mm
mo
mobiliz
mock
mocking
moderniz
moderniza
modernizat
modernizati
modernizatio
modernization
modernize
modification
modifications
moff
moffa
moffat
mong
mongo
mongol
mongoli
mongolia
mongols
month
monthly
months
moscow
mosque
mosquito
moth
mothe
mother
motion
mouth
mov
move
moved
movem
moveme
movemen
movement
movi
movie
moving
mozambique
mph
mu
much
mud
mudd
mug
mugh
mugha
muh
muha
muham
muhamm
muhamma
muhammad
mul
muld
mulde
mulder
mull
mult
multi
multip
multipl
multipla
multiplay
multiplaye
multiplayer
multiple
multipli
mum
mumb
mumba
mumbai
mun
mund
muni
munic
munich
munici
municip
municipa
municipal
municipali
municipalit
municipaliti
municipalitie
municipalities
municipality
munit
muniti
munitio
munition
munitions
mur
mura
mural
murd
murde
murder
murphy
murr
murra
murray
mus
musc
muscl
muscle
muscles
muscu
muscul
muscula
muscular
muse
museu
museum
mush
mushr
mushro
mushroo
mushroom
mushrooms
musi
music
musically
musk
muske
musket
musl
musli
muslim
muslims
muss
musso
must
mut
muta
mutan
mutant
mutat
mutati
mutatio
mutation
mutations
muti
mutin
mutiny
mutu
mutua
mutual
muzz
muzzl
muzzle
my
myth
mytho
mythol
mytholo
mytholog
mythologi
mythology
n
nabl
nablu
nablus
narrow
narrowly
nash
nashv
nashvi
nashvil
nashvill
nashville
nath
natha
nathan
nation
nationa
national
nationally
nations
nationw
nationwi
nationwid
nationwide
naturally
neck
neighbor
neighborhood
neighborhoods
neighboring
neighbors
neighbourhood
neighbouring
neighbours
neth
nethe
nether
netherl
netherla
netherlan
netherland
netherlands
neverth
neverthe
neverthel
neverthele
nevertheles
nevertheless
newcomer
newfoundland
nh
nhc
nhl
nick
nickn
nickna
nicknam
nickname
nicknamed
nigh
night
nightclub
no
nob
nobe
nobel
nobi
nobil
nobili
nobilit
nobility
nobl
noble
noblem
nobles
nobo
nobod
nobody
nom
noma
nomad
nome
nomen
nomenc
nomencl
nomencla
nomenclat
nomenclatu
nomenclatur
nomenclature
nomi
nomin
nomina
nominal
nominat
nominate
nominated
nominati
nominatio
nomination
nominations
nomine
nominee
nomu
nomur
nomura
noneth
nonethe
nonethel
nonethele
nonetheles
nonetheless
nor
norf
norfo
norfol
norfolk
norm
norma
normal
normall
normally
norman
normand
normandy
north
northampton
northumb
northumbe
northumber
northumberl
northumberla
northumberlan
northumberland
northumbr
northumbri
northumbria
northw
northwa
northwar
northward
northwe
northwes
northwest
northwestw
northwestwa
northwestwar
northwestward
norw
norwa
norway
norwe
norweg
norwegi
norwegia
norwegian
norwi
norwich
not
notabl
notable
notably
noth
nothing
notion
nottingham
nov
nova
nove
novel
novemb
novembe
november
novi
now
nowh
nowhe
nowher
nowhere
numb
numbe
number
nutrition
o
oath
ob
obj
obje
objec
object
objecti
objectio
objection
objections
objectiv
objective
objectives
objects
obl
obli
oblig
obliga
obligat
obligati
obligatio
obligation
obligations
oblige
obliged
obliv
oblivi
oblivio
obs
obsc
obscu
obscur
obscure
obse
obser
observ
observa
observat
observati
observatio
observation
observations
observato
observator
observatory
observe
observed
observer
observers
observes
observing
obses
obsess
obsesse
obsessed
obsessi
obsessio
obsession
obso
obsol
obsole
obsolet
obsolete
obst
obsta
obstac
obstacl
obstacle
obstacles
obstr
obstru
obstruc
obstruct
obt
obta
obtai
obtain
obtaining
obv
obvi
obvio
obviou
obvious
obviousl
obviously
oc
occ
occa
occas
occasi
occasio
occasion
occasiona
occasional
occasionall
occasionally
occasions
occu
occul
occult
occup
occupa
occupan
occupant
occupat
occupati
occupatio
occupation
occupi
occupie
occupied
occupies
occupy
occupying
occur
occurr
occurre
occurred
occurren
occurrenc
occurrence
occurring
occurs
oce
ocea
ocean
ocl
oclc
oct
octa
octag
octago
octagon
octav
octo
octob
octobe
october
octop
octopu
octopus
of
off
offi
offic
office
officer
officers
offici
officia
official
officially
officials
offsh
offsho
offshor
offshore
oh
ohi
ohio
ok
okl
okla
oklah
oklaho
oklahom
oklahoma
ol
old
oldh
oldha
oldham
olg
olga
oli
olig
oliv
olive
oliver
olivi
olivia
olivie
olivier
oly
olym
olymp
olympi
olympia
olympic
olympics
on
ong
ongo
ongoing
only
op
ope
open
opening
openly
oper
opera
operat
operate
operated
operates
operati
operating
operatio
operation
operations
operativ
operative
operato
operator
operators
opi
opin
opine
opined
opini
opinio
opinion
opp
oppe
oppen
oppenh
oppenhe
oppenhei
oppenheim
oppenheime
oppenheimer
oppo
oppon
oppone
opponen
opponent
opponents
oppor
opport
opportu
opportun
opportuni
opportunit
opportuniti
opportunitie
opportunities
opportunity
oppos
oppose
opposed
opposi
opposing
opposit
opposite
oppositi
oppositio
opposition
oppr
oppre
oppres
oppress
oppressi
opt
opte
opted
opti
optic
optica
optical
optim
optimi
optimis
optimist
optimisti
optimistic
optio
option
options
opu
or
orang
orange
orb
orbi
orbit
orch
orcha
orchar
orchard
orche
orches
orchest
orchestr
orchestra
orchestral
org
orga
organ
organi
organic
organis
organisa
organisat
organisati
organisatio
organisation
organise
organised
organism
organisms
organiz
organiza
organizat
organizati
organizatio
organization
organize
organized
organizer
organizing
organs
originally
orion
orph
orpha
orphan
orth
ortho
orthod
orthodo
orthodox
oryzom
oryzomy
oth
othe
other
otherw
otherwi
otherwis
otherwise
ou
ough
ought
our
ous
oust
out
outb
outbr
outbre
outbrea
outbreak
outcom
outcome
outflow
outnumb
outnumbe
outnumber
outnumbere
outnumbered
ov
ova
oval
ove
over
overcom
overcome
overh
overha
overhau
overhaul
overhe
overhea
overhead
overlooking
oversh
oversha
overshad
overshadow
overthrow
overwh
overwhe
overwhel
overwhelm
overwhelme
overwhelmed
overwhelming
ovi
ow
owe
owed
owen
owing
owl
owls
own
ownership
ox
oxf
oxfo
oxfor
oxford
oxi
oxid
oxida
oxidat
oxidati
oxidatio
oxidation
oxide
oxy
oxyg
oxyge
oxygen
oz
p
pack
packa
packag
package
packaging
pamphl
pamphle
pamphlet
paralympic
paralympics
parish
parth
parthi
parthia
partially
partition
partnership
pash
pasha
passeng
passenge
passenger
passengers
passion
path
patho
pathog
pathoge
pathogen
pathol
patholo
patholog
pathw
pathwa
pathway
patrick
pavilion
peaking
peck
pemb
peng
pengu
pengui
penguin
penguins
pepp
peppe
pepper
percussion
perform
performanc
performance
performing
periodically
permission
persecution
personally
perth
petition
ph
pha
phal
phan
phant
phanto
phantom
phar
pharm
pharma
pharmac
phas
phase
phi
phil
philh
philha
philhar
philharm
philharmo
philharmon
philharmoni
philharmonic
philipp
philippi
philippin
philippine
philippines
philosophy
pho
phon
phone
phono
phonog
phonogr
phonogra
phonograph
phot
photo
photog
photogr
photogra
photograph
photographs
photography
photos
phy
phyl
phyll
phylo
phylog
phyloge
phylogen
phys
physi
physic
physica
physical
physically
physici
physicia
physician
physicians
physicis
physicist
physics
physio
physiol
physiolo
physiolog
pick
picking
pion
pione
pionee
pioneer
pioneering
pitching
pittsburgh
pizz
pizza
platform
playoff
playoffs
plymouth
pock
pocke
pocket
polish
pollution
pomp
pop
popp
popu
popul
popula
populac
populace
popular
populariz
popularize
populat
populate
populated
population
portion
position
possession
possibl
possible
possibly
posthum
posthumo
posthumou
posthumous
posthumously
potentially
pow
powd
powde
powder
powe
powel
powell
power
powerf
powerfu
powerful
practition
practitione
practitioner
practitioners
precaution
precision
premiership
prequel
presumably
prevention
principally
priz
prize
probable
probably
probl
proble
problem
problems
procession
production
profession
professiona
professional
profitable
profound
progression
prohibition
proj
proje
projec
project
projection
prolong
prolonge
prolonged
prom
promi
promin
promine
prominen
prominenc
prominence
prominent
prominently
promis
promise
promised
promising
promo
promot
promote
promoted
promoting
promotion
prompt
prompte
prompted
prompting
promptly
proportion
proposition
propulsion
prosecution
proving
provision
provisions
pub
publ
publi
public
publication
publiciz
publicize
publicly
publish
publishe
published
publisher
publishers
publishing
puck
puff
pump
pumping
punish
punishm
punishme
punishmen
punishment
pupp
puppe
puppet
push
pushing
puzz
puzzl
puzzle
puzzles
pyth
q
qf
qu
qua
quad
quadr
quadra
quadru
quadrup
quadrupl
quadruple
quak
quake
quaker
qual
quali
qualif
qualifi
qualific
qualifica
qualificat
qualificati
qualificatio
qualification
qualifie
qualified
qualify
qualifying
qualit
qualiti
qualitie
qualities
quality
quan
quant
quanti
quantit
quantiti
quantitie
quantities
quantity
quantu
quantum
quar
quarr
quarry
quart
quarte
quarter
quarterback
quarterf
quarterfi
quarterfin
quarterfina
quarterfinal
quartet
quat
quate
quater
quaterm
quaterma
quatermas
quatermass
quay
question
questioning
qui
quick
quickl
quickly
quin
quinn
quint
quit
r
rabb
rabbi
rabbit
rack
rainbow
rally
ramb
rang
range
ranging
ranking
rapp
rappe
rapper
rash
rath
rathe
rather
reaching
realizes
really
reappear
reasonable
reasonably
rebuild
rebuilding
rebuilt
receiving
recession
reck
recognition
recogniz
recognize
recognized
recognizes
recomm
recomme
recommen
recommend
recommendation
recommendations
reconstruction
rectangular
reddish
redemption
reformation
refurbish
region
rejoin
relationship
religion
relinquish
remarkable
rememb
remembe
remember
removing
rendition
renown
renowne
renowned
renumbered
renumbering
reorganized
reproduction
republic
republican
request
requesting
require
required
requirem
requireme
requiremen
requirement
requirements
requires
requiring
resembl
resembla
resemblan
resemblanc
resemblance
resemble
resembled
resembles
resembling
responsibl
responsible
resuppl
revenge
revision
revolution
rh
rhe
rhet
rheto
rhetor
rhetori
rhetoric
rhi
rhin
rhine
rhino
rho
rhod
rhode
rhodes
rhodesi
rhodesia
rhodesian
rhy
rhym
rhyme
rhys
rhyth
rhythm
ribb
ribbo
ribbon
rick
ricky
riff
righ
right
rights
ripp
rippe
robb
robbe
robber
robbery
robbi
robust
rock
rocky
rom
roma
roman
room
roth
rough
roughl
roughly
row
rowing
rowl
rowla
rowlan
rowland
rowling
rub
rubb
rubi
rubin
ruby
ruff
rumb
rumbl
rumble
rush
rushing
ruth
s
sabbath
sack
saffi
saffir
salisbury
sally
sampl
sample
samples
sang
sash
saving
saxophon
sch
schiz
schizo
schizoph
schizophr
schizophre
schizophren
schizophreni
scho
schol
schola
scholar
scholarly
scholars
scholarship
schoo
school
schu
schul
schum
schuma
schumach
schumache
schumacher
schw
schwa
schwar
schwart
schwartz
schwarz
scottish
scrambl
scrapp
scrappe
scrapped
scully
searching
secession
septemb
septembe
september
sequel
sequenc
sequence
sequences
serving
session
sessions
sexually
sh
shack
shackl
shackle
shacklet
shackleto
shackleton
shadow
shallow
shanghai
sheff
sheffi
sheffie
sheffiel
sheffield
shepp
shipbuilding
shipp
shippe
shipped
shipping
sho
shock
shocking
shoo
shoot
shooting
shop
shopping
shops
shor
shore
short
shortly
shot
shou
shoul
should
shout
show
showing
shrewsbury
sibling
siblings
sick
silly
simpl
simple
simpli
simplic
simplici
simplicit
simplicity
simplif
simplifi
simplifie
simplified
simply
singh
sinking
sixth
siz
size
skipp
skippe
skirmish
slash
slaught
slaughte
slaughter
slick
slight
slightl
slightly
slipp
slippe
slipped
slow
slowl
slowly
smackdown
smash
smith
smoking
smooth
smyth
snow
snowf
socially
sock
solub
solution
solving
som
soma
somal
somali
some
somehow
someon
someone
something
somewhat
somewhere
somm
somme
song
songw
songwr
songwri
songwrit
songwrite
songwriter
songwriting
sophom
sophomo
sophomor
sophomore
sorrow
sough
sought
soundtrack
south
southampton
southw
southwa
southwar
southward
southwe
southwes
southwest
sp
spanish
sparrow
speaking
specially
specifically
specifications
splash
spock
spong
sponge
spongeb
spongebo
spongebob
sponsorship
sq
squ
squa
squad
squadr
squadro
squadron
squal
squall
squar
square
sque
squi
squid
squir
squirr
squirre
squirrel
stabiliz
stabilize
stable
stack
staff
stealth
stepp
steppe
stepped
stick
sticky
stiff
stock
stockholm
stockp
stopp
stoppe
stopped
stopping
stow
straightforw
straightforwa
straightforwar
straightforward
strang
strange
strength
stretching
strick
stricke
stricken
stripp
strippe
stripped
strong
stronghold
strongly
struck
stubb
stuck
stump
sub
subc
subco
subcon
subd
subdi
subdiv
subdivi
subdivis
subdivisi
subdivisio
subdivision
subdu
subdue
subf
subfa
subfam
subfami
subfamil
subg
subj
subje
subjec
subject
subm
subma
submar
submari
submarin
submarine
submarines
subme
submer
submerg
submerge
submerged
submi
submis
submiss
submissi
submissio
submission
submit
submitt
submitte
submitted
subo
subor
subord
subordi
subordin
subordina
subordinat
subordinate
subp
subpl
subplo
subplot
subs
subsc
subscr
subscri
subscrib
subscribe
subscrip
subscript
subscripti
subscriptio
subscription
subse
subsequ
subseque
subsequen
subsequent
subsequently
subsi
subsid
subsidi
subsidia
subsidiar
subsidiary
subsp
subspe
subspec
subspeci
subspecie
subspecies
subst
substa
substan
substanc
substance
substances
substant
substanti
substantia
substantial
substantially
substi
substit
substitu
substitut
substitute
substituted
substr
substra
substrat
substrate
subt
subti
subtit
subtitl
subtitle
subtl
subtle
subtr
subtro
subtrop
subtropi
subtropic
subtropica
subtropical
subu
subur
suburb
suburba
suburban
suburbs
subv
subve
subver
subw
subwa
subway
successfully
succession
succumb
such
suck
suff
suffe
suffer
suffere
suffered
suffering
suffers
suffi
suffic
suffici
sufficie
sufficien
sufficient
sufficiently
suffix
suffo
suffol
suffolk
suffr
suffra
suffrag
suffrage
suggestion
suggestions
suitable
summariz
summarize
summarized
sung
sunlight
sunshin
sunshine
supervision
supp
suppl
supple
supplem
suppleme
supplemen
supplement
suppli
supplie
supplied
supplier
supplies
supply
suppo
suppor
support
supporting
suppos
suppose
supposed
supposedl
supposedly
suppr
suppre
suppres
suppress
suppression
surviving
susceptible
suth
suthe
suther
sutherl
sutherla
sutherlan
sutherland
swallow
switching
syllable
symb
symbo
symbol
symboli
symbolic
symbolis
symbolism
symboliz
symbolize
symbols
sympath
sympathy
symph
sympho
symphon
symphoni
symphonic
symphony
sympt
sympto
symptom
symptoms
synth
synthe
synthes
synthesi
synthesis
synthesiz
synthesize
synthesized
synthesizer
synthesizers
synthet
syntheti
synthetic
t
tabl
table
tack
tackl
tackle
tackles
taking
tally
tang
taugh
taught
taxonomic
taxonomy
teaching
technically
technique
techniques
television
templ
templa
temple
temporarily
temporary
tempt
terribl
terrible
th
tha
thai
thail
thaila
thailan
thailand
thal
tham
thame
thames
than
thanh
thanho
thanhou
thanhous
thanhouse
thanhouser
thank
thanks
thanksgiving
that
the
thi
thick
thie
thief
thin
thing
things
think
thinking
thir
third
thirt
thirte
thirtee
thirteen
thirteenth
thirty
this
tho
thom
thoma
thomas
thomp
thomps
thompso
thompson
thoms
thomso
thomson
thor
thorn
thorough
thoroughl
thoroughly
thorp
thorpe
thos
those
thou
though
thought
thous
thousa
thousan
thousand
thousands
thr
thra
thrash
thre
threa
thread
threat
three
thresh
threw
thri
thril
thrill
thrille
thriller
thriv
thrive
thro
throa
throat
thron
throne
through
througho
throughou
throughout
throw
throwing
thrown
thru
thrus
thrust
thu
thumb
thun
thund
thunde
thunder
thunderb
thunderbi
thunderbir
thunderbird
thunders
thunderst
thundersto
thunderstor
thunderstorm
thunderstorms
thur
thurs
thursd
thursda
thursday
thus
tick
ticke
ticket
tickets
tight
tightly
timb
timba
timbal
timbala
timbalan
timbaland
timbe
timber
timberl
timberla
timberlak
timberlake
timothy
tipp
tippe
to
togeth
togethe
together
tomb
tombs
tomorrow
tong
tongu
tongue
tooth
topp
toppe
topped
topping
totally
touch
touchdown
touchdowns
touching
tough
tow
towa
towar
toward
towards
towe
towed
tower
town
townsh
townshi
township
track
tracking
tradition
traditiona
traditional
traditionally
traffic
trafficking
trafford
transcription
transformation
transition
transmission
trapp
trappe
trapped
triangular
tribun
tribuna
tribunal
tribune
tribut
tributa
tributar
tributari
tributarie
tributaries
tributary
tribute
trick
triumph
troj
troja
trojan
trophy
troubl
trouble
troubled
trough
truck
trucks
trump
trumpe
trumpet
truth
tub
tube
tubes
tuck
tucke
tucker
tung
turbul
turbule
turbulen
turkish
tw
twe
twee
tweed
tweet
twel
twelf
twelfth
twelv
twelve
twen
twent
twenti
twentie
twentieth
twenty
twi
twic
twice
twilight
twin
twis
twist
twit
twitt
twitte
twitter
two
typically
u
ub
uh
uk
umb
umbr
umbre
umbrel
umbrell
umbrella
ump
umpi
umpir
umpire
un
unabl
unable
unavailable
unb
unc
unce
uncer
uncert
uncerta
uncertai
uncertain
uncertaint
uncertainty
unch
uncha
unchang
unchange
unchanged
uncl
uncle
unclea
unclear
unco
uncom
uncomf
uncomfo
uncomfor
uncomfort
uncomforta
uncomfortab
uncomfortabl
uncomfortable
uncomm
uncommo
uncommon
uncon
uncons
unconsc
unconsci
unconscio
unconsciou
unconscious
unconst
unconsti
unconstit
unconstitu
unconstitut
unconstituti
unconstitutio
unconstitution
unconstitutiona
unconstitutional
unconv
uncov
uncove
uncover
uncr
uncre
und
unde
undef
undefe
undefea
undefeat
undefeate
undefeated
under
underg
undergo
undergoing
undergon
undergone
undergr
undergra
undergrad
undergradu
undergradua
undergraduat
undergraduate
undergro
undergrou
undergroun
underground
underly
underlying
underneath
undertaking
underw
underwa
underwat
underwate
underwater
underway
underwe
underwen
underwent
underwo
underwor
underworl
underworld
undi
undis
undisc
undiv
undivi
undivid
undivide
undivided
undo
unempl
unemplo
unemploy
unemploym
unemployme
unemploymen
unemployment
unf
unfa
unfai
unfair
unfav
unfavo
unfavor
unfavora
unfavorab
unfavorabl
unfi
unfin
unfinish
unfinishe
unfinished
unfo
unfol
unfold
unfor
unfort
unfortu
unfortun
unfortuna
unfortunat
unfortunate
unfortunatel
unfortunately
unh
unha
unhapp
unhappy
uni
unic
unid
unide
uniden
unident
unidenti
unidentif
unidentifi
unidentifie
unidentified
unif
unifi
unifie
unified
unifo
unifor
uniform
unimp
unin
unint
uninte
unio
union
uniqu
unique
unit
unite
united
units
unity
univ
unive
univer
univers
universa
universal
universally
universe
universi
universit
universiti
universitie
universities
university
unk
unknown
unl
unle
unlea
unles
unless
unli
unlik
unlike
unlikely
unlim
unlimi
unlimit
unlimite
unlimited
unlo
unloa
unload
unlock
unoff
unoffi
unoffic
unoffici
unofficia
unofficial
unp
unpa
unpl
unpo
unpop
unpopu
unpopul
unpopula
unpopular
unpr
unpre
unprec
unprece
unpreced
unprecede
unpreceden
unprecedent
unprecedente
unprecedented
unpro
unsuccessfully
unt
unti
until
unusually
unw
unwi
unwil
unwill
unwilling
up
upanish
upanisha
upanishad
upcom
upcoming
uph
uphe
uphel
upheld
upho
uphol
upon
upp
uppe
upper
us
use
used
usef
usefu
useful
ush
ushe
usher
using
usually
utiliz
utilize
utilized
v
va
vac
vaca
vacan
vacanc
vacant
vacat
vacate
vacation
vacc
vacci
vaccin
vacu
vacuu
vacuum
vag
vagu
vague
val
vall
valle
valley
valu
valuable
value
valv
valve
vamp
vampi
vampir
vampire
van
vanc
vanco
vancou
vancouv
vancouve
vancouver
vanderwerff
vang
vangu
vangua
vanguar
vanguard
vanish
vap
vapo
vapor
var
vari
varia
variable
varian
variant
variants
variation
variations
varie
varied
varies
variet
varieti
varietie
varieties
variety
vario
variou
various
variously
vary
varying
vas
vast
vau
vaugh
vaugha
vaughan
vaul
vault
veng
venge
vengea
vengean
vengeanc
vengeance
version
vh
vhs
vi
viabl
viable
vic
vica
vicar
vice
vici
vicin
vicini
vicinit
vicinity
vicio
viciou
vicious
vick
vict
victi
victim
victims
victo
victor
victori
victoria
victorian
victorie
victories
victorio
victoriou
victorious
victory
viewership
vij
vija
vijay
viking
vikings
virtually
vish
vishn
vishnu
visibl
visible
vision
visually
viz
vo
voc
voca
vocal
vocals
vog
vogu
vogue
voi
voic
voice
void
vol
volc
volca
volcan
volcani
volcanic
volcano
volk
volt
volta
voltag
voltage
volu
volum
volume
volun
volunt
vom
vomi
vomit
von
voo
voor
vor
vort
vot
vote
voted
voting
vow
vowe
vowel
voy
voya
voyag
voyage
w
wa
wad
wadd
waff
wag
wage
wages
wagg
wagn
wagne
wagner
wago
wagon
wagons
wah
wai
wain
wais
wait
waiting
waiv
waive
wak
wake
wal
wald
wale
wales
walk
walking
wall
walsh
walt
walte
walter
walto
walton
wan
wand
wande
wander
wang
wann
wanna
want
wanting
war
warbl
warble
warbler
warh
warship
warships
warwick
was
wash
washington
wat
watch
watching
wate
water
waterf
waterfa
waterfal
waterfall
watersh
watershe
watershed
waterw
waterwa
waterway
wats
watso
watson
watt
watts
waugh
wav
wave
wavelength
waves
wax
way
wealth
wealthy
weath
weathe
weather
webb
weigh
weighing
welcome
welcomed
wembl
wemble
wembley
weng
wenge
wenger
wh
wha
whal
whale
whales
whar
wharf
what
whe
whea
wheat
whed
whedo
whedon
whee
wheel
wheelch
wheelcha
wheelchai
wheelchair
when
wher
where
wheth
whethe
whether
whi
which
whig
whil
while
whils
whilst
whip
whis
whisk
whist
whistl
whistle
whit
white
whiteh
whitish
whitl
whitm
whitn
whitne
whitney
who
wholly
why
wick
wicke
wicked
wicket
wickets
widow
width
willow
wimb
wimbl
wimble
wimbled
wimbledo
wimbledon
window
windows
wish
wishing
with
wiz
wiza
wizar
wizard
wo
wol
wolf
woll
wolls
wollst
wollsto
wollston
wollstone
wollstonec
wollstonecr
wollstonecra
wollstonecraf
wollstonecraft
wolv
wolve
wolver
wolveri
wolverin
wolverine
wolverines
wolves
wom
woma
woman
wome
women
won
wong
woo
wood
woodf
woodw
wool
wooll
wor
worc
worce
worces
worcest
worceste
worcester
word
words
wore
work
working
workshop
workshops
worl
world
worldw
worldwi
worldwid
worldwide
worm
worn
worr
worri
worrie
worried
worry
wors
worse
worsen
worship
worshipp
worshippe
worst
worth
worthy
wou
woul
would
woun
wound
wounde
wounded
wounds
wrapp
wrappe
wrapped
wreck
wrong
wrough
wrought
x
xb
xbo
xbox
xx
y
ya
yach
yacht
yah
yak
yal
yale
yam
yama
yan
yang
yank
yanke
yankee
yankees
yanko
yankov
yankovi
yankovic
yar
yard
yards
ye
yea
yeah
year
years
yellow
yellowish
yeom
yet
yo
yog
yoga
yok
yoko
yong
yor
york
yorkshi
yorkshir
yorkshire
yoshi
you
young
youth
yp
yu
yuc
yuca
yucat
yug
yugo
yugos
yugosl
yugosla
yugoslav
yugoslavi
yugoslavia
yuk
z
zack
zapp
zepp
zeppe
zeppel
zeppeli
zeppelin
zh
zhang
zhu
zimb
zimba
zimbab
zimbabw
zimbabwe
zion
zo
zomb
zombi
zombie
zon
zone
zoo
zool
zoolo
zoolog
zoologi
