##'
##a
##abam
##aban
##abb
##abha
##abi
##abia
##abian
##abic
##abili
##abilit
##ability
##abiliz
##abin
##abl
##able
##ablish
##ablishing
##ablo
##ablu
##ably
##aboli
##abolic
##abor
##aboration
##abotag
##abour
##about
##absburg
##abulary
##aby
##accura
##acecraft
##ach
##aching
##achm
##acific
##acious
##ack
##ackdown
##acking
##ackl
##acon
##acrific
##action
##actions
##actitione
##actitioner
##activ
##activa
##activat
##activate
##activated
##activi
##activit
##activity
##actor
##actory
##acula
##ademic
##ademy
##adequate
##adership
##adian
##adically
##adition
##aditionally
##adium
##adnought
##adow
##adows
##adquart
##adquarte
##adquarter
##adquarters
##adually
##advant
##af
##aff
##affi
##afficking
##affo
##aft
##afte
##after
##ag
##aga
##agan
##agar
##age
##agg
##agge
##agger
##agh
##agi
##agl
##ago
##agogu
##agon
##agona
##agonal
##agoni
##agoon
##agship
##agu
##agua
##aguay
##aguchi
##ague
##agus
##ah
##aham
##ahi
##ahim
##ahm
##aho
##ahon
##ahu
##aight
##aightforw
##aijan
##aikovsky
##ailable
##ailor
##ain
##ainable
##ainbow
##ainfor
##aining
##aithful
##aja
##ajan
##ajor
##ak
##akdown
##akf
##akfa
##akfas
##akfast
##akh
##akha
##aking
##akout
##akov
##akshi
##akthrough
##akup
##akura
##al
##alance
##albot
##alcon
##aldwin
##alf
##alford
##alian
##aliation
##alion
##alisbury
##aliz
##alization
##alize
##alized
##alizes
##alizing
##all
##allagh
##allation
##allic
##allica
##allion
##allipoli
##allm
##alloon
##allow
##allpox
##ally
##almon
##alog
##alogous
##alogu
##alom
##alous
##alth
##altimor
##alva
##alvag
##alvation
##alympic
##alyz
##am
##amag
##amanth
##amatic
##amatically
##amation
##amb
##amba
##ambl
##ambo
##amburg
##amespot
##amic
##amin
##amina
##ammoth
##amond
##amount
##amous
##amp
##amphl
##ampionship
##ampl
##ampshir
##ampton
##amura
##an
##anapolis
##anbul
##anc
##anca
##ancashir
##ance
##anch
##ancho
##ancock
##ancouv
##ancy
##and
##andfath
##andin
##andinavian
##anding
##andish
##andmoth
##ando
##andon
##andout
##andown
##andston
##aneously
##anford
##ang
##angh
##anging
##angu
##angul
##angula
##angular
##anian
##anic
##anical
##animous
##animously
##anish
##anium
##anization
##anized
##anja
##anjo
##ank
##anka
##ankfurt
##anking
##ankly
##ankrupt
##ankruptcy
##anpower
##anque
##ansactions
##anscription
##ansform
##ansformation
##anship
##ansition
##ansmission
##ansport
##ansportation
##anth
##anthrop
##antiago
##antic
##anton
##anub
##anwhil
##anwhile
##anz
##anza
##aphically
##aphor
##aphy
##apol
##apoli
##apolis
##apon
##apons
##apoo
##apore
##app
##appe
##apped
##apping
##aptation
##apture
##aq
##arack
##aragua
##araguay
##aralympic
##aramount
##arawak
##arboard
##arborough
##arbour
##arby
##arch
##arching
##archy
##arck
##arcraft
##arian
##ariff
##arious
##arish
##arkable
##arlborough
##arnation
##arnhorst
##aron
##aroque
##arracks
##arrative
##arrator
##arrow
##arrowly
##arson
##arsons
##arthquak
##artially
##artition
##artnership
##arture
##arum
##arwin
##aseball
##asgow
##ash
##ashback
##ashi
##ashing
##ashington
##asically
##asingly
##asion
##asketball
##ason
##asonable
##asonably
##asseng
##assified
##assion
##astbound
##astonbury
##astrous
##asur
##asuring
##atform
##ath
##athing
##athroom
##athy
##atial
##atic
##atically
##atification
##ation
##ational
##ationally
##ationship
##atisfaction
##atisfactory
##ative
##atively
##ativity
##atomy
##atoon
##ator
##ators
##atory
##atrical
##atrick
##atroop
##attack
##attalion
##attleship
##attleships
##atur
##atura
##atural
##aturally
##ature
##auc
##augh
##aught
##augur
##auguration
##ault
##aur
##auran
##auri
##aurop
##auru
##aurus
##author
##autical
##autiful
##aux
##ava
##avag
##aval
##avan
##ave
##aved
##aven
##avenport
##aves
##avi
##avia
##avian
##avic
##avigation
##avilion
##avily
##aving
##avio
##avior
##aviour
##avor
##avour
##avourable
##avoy
##avy
##awa
##awak
##awal
##awar
##awford
##awson
##axation
##axon
##axonomic
##axonomy
##axophon
##axt
##ayboy
##ayoff
##ayout
##aywright
##azilian
##azon
##azz
##b
##ba
##bable
##bably
##bach
##back
##bag
##bah
##baijan
##bak
##bal
##bald
##ball
##bally
##bam
##ban
##band
##bani
##banian
##bank
##baum
##bb
##bbi
##bbing
##bby
##beck
##bellious
##bh
##bha
##bi
##bia
##bian
##bic
##bil
##bili
##bilit
##bility
##biliz
##bin
##biograph
##biography
##bion
##bir
##bird
##birds
##bish
##bition
##bitor
##bitration
##bj
##bl
##bla
##ble
##blem
##bli
##blin
##blish
##blishing
##blo
##bly
##bo
##boa
##boar
##board
##boat
##bod
##body
##bok
##bol
##boli
##bolic
##bolish
##bon
##boo
##book
##bor
##bora
##boration
##borg
##born
##boro
##borough
##botag
##bou
##boun
##bound
##bour
##bourg
##bourn
##bourne
##bout
##bow
##box
##boy
##bration
##breaking
##brook
##brough
##bsburg
##bson
##bu
##buck
##bui
##buil
##build
##building
##built
##buk
##bul
##bula
##bular
##bulary
##bum
##bun
##bur
##burg
##burgh
##burn
##bury
##bus
##but
##by
##c
##cabulary
##cademic
##cademy
##calization
##cally
##cam
##came
##cand
##candinavian
##caragua
##carnation
##cashi
##cation
##cative
##cator
##cceptable
##cceptanc
##ccessful
##ccessfully
##ccessible
##ccession
##ccessive
##ccidentally
##ccomm
##ccomp
##ccomplish
##ccor
##ccoun
##ccumb
##ccumu
##ccumul
##ccumula
##ccup
##ccur
##ccura
##cecraft
##ceived
##celandic
##cellation
##cemb
##centive
##ceptable
##ceptanc
##ceptible
##ception
##ceship
##cessful
##cessfully
##cessible
##cession
##cessive
##cestors
##cgui
##ch
##chaikovsky
##cham
##chan
##chand
##chandi
##chang
##chant
##chbish
##chbisho
##chbishop
##chcock
##chdown
##chemic
##chemica
##chemical
##chfor
##chfork
##chiba
##chieved
##chievement
##chieving
##chin
##ching
##chinson
##chipelago
##chitectur
##chitecture
##chive
##chman
##chnically
##chnique
##chniques
##cholog
##chology
##cholson
##chon
##chor
##chrom
##chron
##chur
##church
##chwa
##chwad
##cial
##cialized
##cially
##ciation
##cible
##cidentally
##cientific
##cientology
##cific
##cifically
##cification
##cifications
##cified
##cim
##cination
##ciology
##cious
##ciously
##cipally
##cipation
##cision
##ciz
##cizing
##ck
##ckdown
##ckh
##ckha
##ckham
##ckingh
##cknow
##cliff
##clin
##clination
##cline
##clined
##clining
##clu
##club
##clusion
##clusive
##cock
##cognition
##cogniz
##coho
##cohol
##com
##comb
##come
##comed
##coming
##comm
##commission
##comp
##compl
##complish
##compr
##compre
##compression
##con
##cond
##conom
##conomically
##conomy
##construction
##cop
##copt
##cor
##cora
##corat
##coration
##corative
##corn
##corpor
##corporation
##cottish
##cou
##coun
##count
##cour
##cours
##course
##court
##cous
##couv
##cov
##cove
##cover
##covering
##covery
##cow
##cqua
##cqui
##cquir
##cquiring
##cquisition
##craf
##craft
##crambl
##cranton
##crapp
##cratic
##creasingly
##credibly
##crib
##cribe
##crific
##cription
##cripture
##croft
##crophon
##cropolis
##crow
##ctable
##ctangular
##ctation
##ctations
##ctator
##ctators
##ction
##ctious
##ctitione
##ctiv
##ctivation
##ctive
##ctively
##ctivi
##ctivit
##ctivity
##ctor
##ctora
##ctoral
##ctory
##ctric
##ctrical
##ctrici
##ctricit
##ctricity
##ctromagn
##ctromagne
##ctromagnetic
##ctron
##ctroni
##ctronic
##ctrum
##ctual
##ctually
##ctur
##cture
##cub
##cul
##cula
##cular
##culat
##culate
##culated
##culation
##cully
##culous
##culp
##culptor
##culptur
##cultural
##culture
##cumb
##cumu
##cup
##cur
##curi
##curing
##curit
##curity
##curr
##cury
##cussion
##cution
##cutive
##cutor
##d
##daho
##dance
##daptation
##daught
##daughte
##daughter
##dback
##dbury
##ddiction
##ddish
##ddition
##dditionally
##defini
##demic
##demption
##demy
##denburg
##dentally
##dentical
##dentifi
##dentification
##dentify
##dentifying
##dequat
##dequate
##dernization
##dership
##derson
##derwerff
##design
##designa
##develope
##developed
##developmen
##development
##dezvous
##dfath
##dian
##dianapolis
##dible
##dibly
##dica
##dically
##dicat
##dicate
##dicated
##dication
##dicin
##dictable
##diction
##dictions
##diff
##dification
##digenous
##dinal
##dinanc
##dinand
##dinavian
##dinburgh
##dious
##discove
##discover
##dish
##ditation
##dition
##ditionally
##ditorium
##diture
##dium
##div
##division
##djac
##djoining
##dju
##dmini
##dministration
##dministrative
##dministrator
##dmiration
##dmission
##dmoth
##dnapp
##dnought
##dock
##dolf
##dolph
##dom
##don
##doni
##donia
##donian
##dony
##dopt
##dorf
##dou
##dow
##down
##dox
##dqua
##dquar
##dquart
##drawal
##drigu
##drix
##drom
##drome
##droom
##drop
##dship
##dships
##dtrack
##dually
##duc
##ducation
##duct
##duction
##ductive
##dulg
##dustrial
##dvan
##dvanc
##dvant
##dvent
##dventu
##dvi
##dvice
##dvo
##dvoc
##dwick
##dwig
##dwin
##dygu
##dynamic
##e
##eaching
##eadership
##eadnought
##eadow
##eadows
##eadquarter
##eadquarters
##eafter
##eague
##eakdown
##eakfast
##eaking
##eakout
##eakthrough
##eakup
##ealizes
##ealous
##eanwhile
##eapolis
##eapon
##eapons
##earby
##earch
##earching
##earson
##easingly
##eason
##easonably
##eath
##eautiful
##eball
##ebbi
##eble
##ebound
##ebuild
##ebuilding
##ebuilt
##ebut
##ecame
##eceived
##ecemb
##eception
##ecession
##echnically
##echnique
##echniques
##ecialized
##ecific
##ecifically
##ecifications
##ecified
##ecim
##ecision
##eck
##ecline
##eclined
##eclining
##ecognition
##ecogniz
##ecome
##ecoming
##ecomm
##ecommission
##ecompression
##econd
##econstruction
##ecorat
##ecoration
##ecorative
##ecount
##ecover
##ecovering
##ecovery
##ecraft
##ectable
##ectangular
##ectation
##ectations
##ectators
##ection
##ectious
##ectively
##ector
##ectors
##ectric
##ectrical
##ectricity
##ectromagnetic
##ectron
##ectronic
##ectrum
##ectual
##ectur
##ecture
##eculated
##eculation
##ecur
##ecuring
##ecurity
##ecution
##ecutive
##ecutor
##edback
##edevelopment
##edibly
##edicated
##edication
##ediction
##edictions
##ediscover
##edom
##edomi
##edomin
##edomina
##edominan
##edominant
##edominantly
##edonia
##edonian
##edroom
##eedom
##eemingly
##eenth
##efani
##efault
##efensive
##eff
##efici
##efin
##efini
##efining
##efinition
##efinitive
##efly
##efor
##efore
##efuge
##efurbish
##efus
##efusing
##egan
##egation
##egative
##egatively
##egian
##egianc
##egion
##egitimat
##egori
##egory
##egotiations
##egovina
##egration
##egregation
##egula
##egular
##egularly
##egulation
##egulations
##egun
##ehalf
##ehave
##ehavior
##ehaviour
##ehensive
##ehind
##ehow
##eigh
##eighbor
##eighborhood
##eighboring
##eighbour
##eighbourhood
##eighbouring
##eighing
##eijing
##einforc
##either
##eived
##eiver
##eiving
##eizur
##ejection
##ejm
##ejoin
##ekly
##elago
##elandic
##elationship
##elatively
##elativity
##elawar
##elberg
##elbourne
##elcome
##elcomed
##election
##elength
##elephone
##elescope
##elevision
##elf
##elfa
##elgian
##elgium
##elhi
##eliberat
##elicopt
##elievable
##elieved
##elieves
##elieving
##eligion
##eligious
##elinquish
##eliver
##elivering
##elivery
##elize
##ellation
##ellectual
##elligen
##elligenc
##elligent
##elling
##ellious
##ellow
##ellowish
##ellowship
##elly
##elong
##elonging
##elop
##eloping
##elopm
##elou
##elow
##elson
##elves
##emarkable
##emb
##embership
##embl
##embling
##embly
##ememb
##emic
##emiership
##emifinals
##eminary
##emingly
##emish
##emix
##emocratic
##emographic
##emolish
##emolition
##emonstration
##emorat
##emorative
##emov
##emoving
##emp
##emphi
##empl
##empora
##emporar
##emporary
##empt
##empting
##emption
##emy
##enance
##enator
##enburg
##endance
##endezvous
##enditure
##endship
##eneath
##eneficial
##enerally
##eng
##ength
##engu
##enhagen
##enham
##enhow
##enian
##enior
##enix
##enjamin
##ennial
##ennif
##ennium
##enom
##enomination
##enounced
##enous
##enovation
##enovations
##ensible
##ensified
##ension
##ensitive
##ensitivity
##ensive
##ensively
##enson
##ensorship
##entally
##entation
##entator
##entators
##enth
##entha
##enthal
##ential
##entially
##entical
##entifi
##entific
##entification
##entify
##entifying
##entim
##ention
##entionally
##entious
##entive
##entology
##entually
##entucky
##enumbering
##eontologist
##eople
##eopold
##eorological
##eously
##eparture
##epburn
##ephani
##ephant
##ephone
##epict
##epicting
##epiction
##eposed
##eposit
##eposition
##epot
##epp
##epression
##eprived
##eproduction
##eproductive
##eptable
##eptanc
##eptemb
##epth
##eptible
##eption
##eptionally
##eptor
##epublic
##epublican
##equat
##equel
##equenc
##equency
##equent
##equently
##equest
##equesting
##equire
##equired
##equirem
##eraction
##eractions
##erally
##erarchy
##erattack
##erbaijan
##erbia
##erbian
##erbury
##erby
##erception
##erchange
##ereford
##erfection
##erff
##erfly
##erform
##erforming
##erguson
##erica
##erican
##erimentation
##eriodically
##eritance
##erivative
##ermin
##ermination
##ermining
##ernally
##ernational
##ernationally
##ernative
##ernatively
##ernization
##ernova
##erous
##errilla
##erritori
##erritory
##errupt
##ersection
##ership
##ersion
##erson
##ersonally
##ertification
##ertifications
##ertiliz
##ertion
##ervant
##ervation
##ervative
##erve
##erved
##erven
##ervention
##ervi
##ervic
##erving
##ervis
##ervision
##ervoir
##ervous
##erwerff
##erything
##erywher
##erzegovina
##eschwader
##escope
##escrib
##escribing
##escription
##eservation
##eserve
##eserving
##eship
##eships
##eshwat
##esign
##esigna
##esignation
##esource
##esources
##espectively
##espond
##esponding
##espons
##esponsible
##espot
##essenger
##essful
##essfully
##essible
##ession
##essive
##essively
##estified
##estigation
##estigators
##estigious
##estimony
##estination
##estinian
##estion
##estival
##estive
##estors
##estow
##estructive
##esumably
##etachment
##etamine
##etball
##eteenth
##etermin
##etermination
##etermining
##ething
##etition
##etitive
##etitor
##etitors
##etnam
##etropolitan
##ettysburg
##etwork
##eudonym
##eumonia
##eunion
##eutron
##evable
##evator
##eved
##evelop
##evelope
##eveloping
##evelopm
##evelopme
##evelopmen
##evement
##even
##evenge
##evens
##evenson
##eventeenth
##eventh
##evention
##everal
##everth
##eves
##eviation
##evice
##evices
##evich
##evil
##evin
##eving
##evious
##eviously
##evision
##evitable
##eviv
##evival
##evolution
##evon
##evotion
##ewark
##ewborn
##ewership
##ewfoundland
##ewh
##ewhat
##ewicz
##ewish
##ewpoint
##ewsbury
##ewton
##exand
##exibl
##exp
##ext
##extbook
##exual
##exually
##eyboard
##eyboards
##eyhound
##eymour
##eyonc
##eyond
##ezhn
##ezvous
##f
##faction
##factory
##fall
##fan
##fani
##fath
##fault
##fection
##fensive
##ferous
##fession
##ff
##ffick
##fficking
##fgha
##fi
##fiable
##fic
##fically
##fication
##fici
##fight
##figu
##figur
##fin
##find
##finde
##finder
##fining
##finition
##finitive
##fish
##fitable
##fix
##fjord
##flow
##fly
##fo
##fol
##fold
##foli
##fon
##foo
##foot
##for
##forc
##force
##ford
##form
##formation
##forming
##fort
##fou
##foun
##four
##fron
##front
##ftwaff
##fu
##fug
##fuge
##ful
##fully
##fum
##fun
##function
##fur
##furbish
##fus
##fusing
##g
##gain
##gam
##game
##gan
##gang
##ganized
##gation
##gative
##gatively
##gator
##gby
##genous
##geschwader
##gestion
##gestive
##gg
##ggestion
##gging
##ggression
##ggressive
##ggy
##gh
##gha
##gian
##gianc
##gible
##gic
##gical
##gically
##gin
##ginally
##gini
##gion
##gious
##gitally
##gitimat
##gium
##give
##giving
##glyph
##gnation
##gnature
##gnific
##gnition
##gnitive
##gniz
##gnizabl
##gnizable
##gogu
##gom
##gon
##gong
##goon
##gor
##gori
##gorith
##gorithm
##gorous
##gory
##gotiation
##gotiations
##gous
##govin
##govina
##gow
##graphy
##gration
##gregation
##gression
##gressive
##gressively
##gricultural
##griculture
##ground
##group
##gship
##gu
##gua
##guably
##guar
##guard
##guchi
##gui
##guing
##guis
##gul
##gula
##gular
##gularly
##gulation
##gulations
##gum
##gun
##guous
##h
##ha
##hab
##hag
##hal
##half
##hall
##ham
##han
##hang
##har
##hard
##hardt
##hau
##haus
##hav
##have
##havior
##haviour
##haw
##hawk
##hawks
##hensive
##heritance
##hg
##hi
##hib
##hibition
##hibitor
##hil
##hill
##him
##hin
##hind
##ho
##hog
##hol
##hold
##hon
##hoo
##hood
##hor
##hou
##hough
##houn
##hous
##house
##how
##hu
##hum
##hur
##hurs
##hurst
##i
##iagar
##iago
##ial
##ialization
##ialized
##ially
##ialogu
##ian
##ianapolis
##iangular
##iarch
##iation
##iative
##iator
##ib
##iba
##ibal
##iban
##ibb
##ibbon
##ibi
##ibil
##ibili
##ibilit
##ibility
##ibio
##ibition
##ibitor
##ibl
##ible
##ibly
##ibod
##ibodi
##ibson
##ibu
##ibun
##ibut
##ic
##ica
##ical
##ically
##icaragua
##ication
##icholson
##icin
##icion
##icious
##icipation
##iciz
##icizing
##ick
##icking
##icon
##icond
##icopt
##ictable
##iction
##ictions
##iculous
##icultural
##iculture
##icz
##identally
##idian
##idnapp
##idship
##idships
##idually
##iefly
##ielberg
##iendship
##ientation
##ientific
##ientology
##iership
##ievable
##ieved
##ievement
##ieves
##ieving
##if
##iferous
##iff
##iffith
##iffl
##ifi
##ifiable
##ific
##ifically
##ification
##ifie
##ified
##ifies
##ifol
##ifoli
##ifolia
##iform
##iful
##ify
##ifying
##ig
##iga
##igan
##igation
##igator
##igenous
##igg
##igh
##ighb
##ighbo
##ighbor
##ighborh
##ighborho
##ighborhoo
##ighborhood
##ighboring
##ighbou
##ighbour
##ighbourh
##ighbourho
##ighbourhoo
##ighbourhood
##ighbouring
##ighing
##ight
##ightfor
##ightforw
##ighting
##ighton
##igib
##igible
##igin
##iginally
##igion
##igious
##igm
##igma
##ign
##ignation
##ignature
##ignific
##ignm
##igo
##igu
##iguous
##igur
##ihil
##ihood
##ijack
##ijan
##ijing
##ikh
##ikov
##ikovs
##ikovsk
##ikovsky
##ilability
##ilable
##ilation
##ilian
##ilicon
##ilion
##iliz
##ilizing
##ill
##illa
##illar
##illbo
##illian
##illion
##illo
##illy
##ilom
##ilor
##ilver
##im
##imation
##imators
##imb
##imba
##imentation
##imi
##imil
##imila
##imina
##imination
##iminished
##imitive
##imm
##immons
##imon
##imony
##imor
##imothy
##imous
##imously
##imp
##impl
##imply
##imu
##imulation
##imultaneously
##in
##inable
##inal
##inally
##inanc
##inand
##ination
##inator
##inavian
##inbow
##inburgh
##inc
##incible
##incipally
##inct
##inction
##indow
##ineteenth
##infor
##inforc
##ing
##ingapore
##ingfi
##ingh
##ingha
##ingham
##ingly
##ington
##inguish
##inguishing
##ingula
##inian
##inion
##inish
##inishe
##inishing
##inistration
##inistrative
##inistrator
##inition
##inium
##inja
##ink
##inking
##innish
##inous
##inquish
##inson
##inth
##inum
##inuous
##inuously
##iodically
##iograph
##iography
##iological
##iologist
##iology
##iom
##ion
##ionally
##ionic
##ionship
##ior
##ious
##iously
##ioux
##ioxid
##ipally
##ipation
##ipbuilding
##ipelago
##ipino
##iplom
##ipoli
##ipp
##ippi
##ipping
##iption
##ipture
##ipul
##ipulation
##ipzig
##iquar
##ique
##iques
##iqui
##iquit
##iquity
##iquo
##iration
##irborn
##irch
##ircraf
##irection
##iritual
##irlfri
##irmingham
##irmish
##iroshima
##irport
##irvana
##isapp
##isastrous
##isbury
##iscount
##iscour
##iscov
##iscove
##iscussion
##isdiction
##isenhow
##isfaction
##isfactory
##ish
##ishabl
##ishable
##ishi
##ishing
##isible
##isingly
##ision
##ismarck
##ison
##isorganized
##ispos
##isposition
##ission
##issippi
##istanc
##istinction
##istinguish
##istorically
##istration
##istrative
##istrator
##istribut
##isure
##itable
##itage
##itain
##itally
##itance
##itarian
##itation
##itchcock
##itchfork
##itching
##itcom
##itectur
##itecture
##ith
##ithe
##ithea
##ither
##ithf
##ithfu
##ithful
##ithic
##ithm
##itho
##ithol
##itial
##itially
##itiative
##iticiz
##iticizing
##itimat
##ition
##itionally
##itious
##itish
##itive
##itively
##itivity
##itoba
##itor
##itori
##itoriu
##itorium
##itors
##itory
##itration
##itrog
##ittsburgh
##itual
##ituation
##iture
##itution
##itutions
##ium
##iumph
##iv
##iva
##ival
##ivan
##ivation
##ivative
##ive
##ived
##ively
##iver
##ivers
##iversion
##ivi
##iviliz
##iving
##ivision
##ivit
##ivity
##ivo
##ivor
##ivore
##ivorous
##ix
##ixon
##ixth
##iz
##iza
##izabl
##ization
##ize
##ized
##izing
##izon
##izu
##izur
##izz
##j
##ja
##jab
##jac
##jack
##jah
##jak
##jam
##jan
##jay
##jection
##ji
##jim
##jima
##jin
##jina
##jing
##jj
##jk
##jm
##jo
##joi
##join
##joining
##jon
##jor
##jord
##jou
##jour
##journ
##ju
##jun
##k
##kable
##kably
##kand
##kawa
##kdown
##ketball
##kfur
##kh
##kha
##kham
##khar
##kick
##kill
##kin
##king
##kinson
##kipp
##kirmish
##kish
##kly
##koff
##kom
##kon
##kop
##kout
##kov
##kovi
##kovic
##kow
##kows
##kowsk
##kowski
##krup
##ksgiving
##ksh
##ksha
##kshi
##kshir
##kthrough
##ktown
##kull
##kup
##kur
##kura
##l
##labam
##labama
##lability
##lable
##lack
##lag
##lage
##lagh
##lago
##lagship
##lain
##lam
##lamic
##lamo
##lanc
##lance
##lanch
##lancho
##land
##landic
##lank
##lantic
##lasgow
##lash
##lashback
##lashing
##lassified
##lastonbury
##latform
##lation
##lationship
##latively
##lativity
##latoon
##lator
##lators
##laught
##lave
##laves
##lavic
##lawar
##layboy
##layoff
##laywright
##lb
##lban
##lbani
##lbanian
##lbany
##lbe
##lber
##lberg
##lbion
##lbo
##lborough
##lbot
##lbourn
##lbourne
##lbow
##lbum
##lcohol
##lcome
##lcomed
##ldwin
##lection
##legation
##legianc
##legitimat
##leigh
##leng
##length
##lephone
##lescope
##leship
##leships
##lestinian
##levision
##lexand
##lexibl
##lf
##lfish
##lfon
##lfr
##lfri
##lfur
##lgian
##lgium
##lgorithm
##lhi
##lian
##lianc
##liation
##lib
##libe
##liber
##libera
##liberat
##lic
##lica
##licat
##licate
##lication
##lick
##licon
##licopt
##lievable
##lieved
##lieves
##lieving
##lif
##life
##liff
##lift
##lig
##ligator
##light
##ligible
##ligion
##ligious
##lignm
##lihood
##limina
##lin
##lination
##lingham
##lington
##link
##lino
##linoi
##linquish
##lion
##lious
##lipoli
##lipp
##lisbury
##lish
##lishing
##lison
##litarian
##lithic
##lition
##lium
##livan
##live
##liver
##livering
##livery
##livi
##lix
##liz
##lize
##lized
##lizing
##lizz
##ll
##llable
##llage
##llagh
##llah
##llain
##llation
##llbo
##llectual
##llegation
##llegianc
##llegitimat
##lleng
##llian
##llianc
##llica
##llig
##lligator
##llige
##lligen
##lligenc
##lling
##llingham
##llinoi
##llion
##llious
##llipoli
##llison
##llium
##llivan
##llon
##lloon
##llow
##llowing
##llowish
##llowship
##llpox
##llu
##llud
##llum
##llumin
##llus
##llusion
##llustration
##llution
##lly
##lobally
##location
##lock
##lof
##log
##logan
##logg
##logi
##logic
##logica
##logical
##logically
##logis
##logous
##logu
##logy
##lom
##lomon
##lon
##long
##longing
##look
##loom
##loon
##loop
##lop
##lope
##loping
##lopm
##lor
##lorious
##losaurus
##lou
##loud
##lough
##lour
##lourish
##lous
##lov
##low
##lowing
##lowship
##lph
##lpha
##lphab
##lphin
##lpin
##lpox
##lptor
##lptur
##lsewh
##lsion
##lson
##ltaneously
##lternative
##lternatively
##lthough
##ltimat
##ltimor
##ltural
##lture
##lu
##lub
##lubl
##lug
##lugg
##lugu
##luk
##lumb
##lumin
##luminium
##luminum
##lush
##lusion
##lusive
##lusively
##lustration
##lution
##lux
##lvag
##lvani
##lve
##lved
##lver
##lves
##lvest
##lveston
##lvin
##lving
##lway
##ly
##lymouth
##lymp
##lympi
##lympic
##lyph
##lyz
##m
##mably
##mack
##mackdown
##mag
##mahon
##main
##mak
##make
##maker
##making
##mal
##malgam
##mall
##mallpox
##man
##manian
##manship
##manth
##marck
##markable
##mash
##math
##matic
##matically
##mation
##mator
##mators
##mazon
##mb
##mba
##mbership
##mbiguous
##mbition
##mbitious
##mbly
##mbo
##mboliz
##mbour
##mbourg
##mbu
##mbur
##mburg
##mbush
##mby
##memb
##menian
##mension
##mentally
##mentation
##mention
##merica
##merican
##merous
##mespot
##mething
##mewh
##mewhat
##mic
##mically
##mick
##midships
##miership
##mifi
##mifin
##mifina
##mifinal
##mifinals
##mill
##min
##mina
##minar
##minary
##mination
##mingh
##mingha
##mingham
##mingly
##mini
##minion
##minishe
##minished
##ministration
##ministrative
##ministrator
##mino
##miration
##mish
##mission
##mith
##mitive
##mix
##mmission
##mmon
##mmons
##mmoth
##mmunition
##mocratic
##mograph
##mographi
##mographic
##mography
##mok
##moking
##molish
##molition
##mology
##mom
##mon
##mond
##mong
##monstration
##mony
##mooth
##mor
##mora
##morable
##morat
##morative
##morous
##morph
##morphi
##morrow
##mory
##moth
##mothy
##motion
##motionally
##mouf
##moun
##mount
##mour
##mous
##mously
##mouth
##mov
##moving
##mp
##mph
##mphi
##mphib
##mphl
##mpionship
##mpl
##mpli
##mplif
##mplish
##mply
##mpo
##mpor
##mpora
##mporar
##mporary
##mpshi
##mpshir
##mpt
##mpting
##mption
##mptly
##mpton
##mpu
##mselves
##mstrong
##muggl
##mul
##mulation
##multaneously
##munition
##mur
##mura
##muth
##my
##myth
##n
##nabl
##nagogu
##nally
##nam
##namic
##nanc
##nance
##nando
##napolis
##napp
##nation
##nationally
##native
##natively
##nator
##nature
##navian
##nbow
##nbul
##nburg
##nburgh
##nbury
##ncashi
##ncashir
##nching
##ncible
##ncipally
##nck
##ncock
##ncouv
##nction
##ndance
##ndenburg
##nderson
##ndezvous
##ndfath
##ndicate
##ndinavian
##ndish
##nditure
##ndmoth
##ndon
##ndow
##ndown
##ndrix
##ndrom
##ndship
##ndtrack
##neath
##neck
##nefici
##neficia
##neficial
##neously
##nerally
##nership
##neumonia
##nfor
##nforc
##ng
##ngh
##ngho
##ngo
##ngth
##nhag
##nhage
##nhagen
##nham
##nhard
##nho
##nhor
##nhors
##nhorst
##nhow
##nial
##nian
##nibal
##nica
##nically
##nication
##nick
##nif
##nific
##night
##nimous
##ningham
##nion
##nior
##nique
##niques
##nish
##nishing
##nishm
##nistration
##nistrative
##nistrator
##nithol
##nition
##nitive
##nium
##nival
##nivers
##nix
##niz
##nizabl
##nization
##nize
##nized
##nizing
##njam
##njami
##njamin
##njo
##nkfur
##nkfurt
##nking
##nkish
##nkly
##nkrup
##nkrupt
##nkruptc
##nkruptcy
##nnial
##nnif
##nningham
##nnish
##nnium
##nnock
##nnon
##nock
##nom
##noma
##nomi
##nomically
##nomin
##nomination
##non
##nony
##noon
##nop
##normal
##nosaur
##nought
##nounc
##nounce
##nounced
##nous
##nov
##nova
##novation
##novations
##novative
##novi
##now
##nowing
##nown
##nox
##npow
##npowe
##npower
##nqu
##nquish
##nsactions
##nscription
##nsform
##nsformation
##nshin
##nship
##nsible
##nsified
##nsion
##nsition
##nsitive
##nsitivity
##nsive
##nsively
##nsmission
##nson
##nsorship
##nsport
##nsportation
##nswick
##ntally
##ntation
##ntator
##ntators
##nterbury
##nth
##nthrop
##ntial
##ntially
##ntical
##ntifi
##ntific
##ntification
##ntify
##ntifying
##ntim
##ntion
##ntionally
##ntious
##ntive
##ntology
##ntor
##ntually
##ntucky
##nual
##nually
##nuck
##numb
##numbe
##number
##numbering
##nuous
##nuously
##nwhil
##nything
##nywh
##o
##oaching
##ob
##oba
##obably
##obally
##obb
##obby
##obic
##obil
##obiliz
##obiograph
##obiographi
##obiographic
##obiography
##oble
##oblem
##obo
##obu
##ocabulary
##ocalization
##ocally
##ocation
##occup
##occupi
##occupie
##occupied
##ocession
##ochon
##ochond
##ochondr
##ochondri
##ocial
##ociation
##ociology
##ock
##ockh
##ockho
##ockhol
##ockholm
##ocking
##ocom
##ocratic
##odically
##odium
##odon
##odont
##odox
##odrigu
##oduc
##oduction
##oductive
##odygu
##odynamic
##of
##ofession
##off
##ofi
##ofitable
##ofoun
##ofound
##oft
##og
##ogation
##ogg
##ogh
##ogically
##oglyph
##ognition
##ogniz
##ogous
##ogr
##ogra
##ogram
##ograph
##ographi
##ographic
##ography
##ogression
##ogressive
##ogressively
##ogu
##ogy
##oh
##ohibition
##ohn
##oho
##oj
##oja
##oji
##ok
##oking
##oko
##oku
##olation
##olf
##olic
##olin
##olini
##olish
##olithic
##olition
##olivi
##oliz
##ollow
##ollowing
##olly
##ollyw
##ollywo
##olog
##ologi
##ologic
##ologica
##ological
##ologically
##ologis
##ologist
##ologu
##ologue
##ology
##olom
##olomon
##olong
##olph
##olson
##olu
##olubl
##oluble
##olut
##olution
##olve
##olved
##olving
##om
##omb
##omehow
##omething
##omewh
##omewhat
##omi
##omically
##oming
##ominion
##omm
##ommission
##omo
##omon
##omor
##omorph
##omorphi
##omotion
##omp
##ompl
##omplish
##ompt
##ompting
##omptly
##ompton
##omy
##omys
##on
##onable
##onably
##onagh
##onally
##onbury
##ong
##ongho
##onghol
##onghold
##ongo
##onic
##onically
##oniz
##onize
##onized
##onmouth
##onom
##onomi
##onomic
##onomically
##onomou
##onomy
##onou
##onounc
##onous
##onship
##onsible
##onsorship
##ontation
##onth
##ontologist
##onymous
##onz
##ook
##ooking
##ookly
##ooklyn
##oom
##ooming
##oon
##oop
##ooth
##op
##opath
##oph
##opha
##ophi
##ophil
##opho
##ophom
##ophon
##ophone
##ophor
##ophy
##opl
##opla
##ople
##opo
##opod
##opol
##opold
##opoli
##oportion
##oposition
##opp
##opping
##oppy
##opt
##opte
##opter
##opy
##oqu
##oque
##or
##orable
##oration
##orative
##orb
##orf
##organ
##organized
##orically
##orious
##orith
##orized
##orizon
##orking
##orkshir
##ormal
##ormous
##orolog
##orologi
##orologic
##orologica
##orological
##oroth
##orough
##orous
##orously
##orph
##orpor
##orporation
##orption
##orrow
##orship
##orth
##orthumb
##ortion
##orum
##ory
##oryboard
##osaur
##osauri
##osaurid
##osaurus
##oscop
##osecution
##osh
##oshi
##oshim
##oshima
##osion
##osition
##osom
##osophy
##ossibl
##ossibly
##osthumously
##oston
##otagoni
##otanical
##oth
##otiation
##otion
##otionally
##otop
##ottish
##ottom
##otypic
##ou
##oub
##oubl
##ouble
##ouch
##oud
##ouf
##ough
##ought
##ouk
##oul
##oun
##ounc
##ounce
##ound
##ounding
##oundtrack
##oung
##ounge
##oup
##our
##ourable
##ourc
##ourish
##ous
##ously
##out
##outh
##outhw
##oux
##ov
##ovan
##ovation
##ovative
##ovi
##ovich
##ovid
##oviding
##ovin
##ovinc
##oving
##ovision
##ovo
##ovok
##ow
##owa
##owing
##own
##owship
##owth
##ox
##oxi
##oxid
##oxide
##oxim
##oxy
##p
##pally
##panic
##parture
##path
##pathi
##pation
##pbuil
##pbuild
##pbuilding
##pburn
##pection
##pectively
##pector
##pelago
##pension
##pernova
##ph
##phal
##phan
##phani
##phant
##phic
##phically
##phin
##phom
##phon
##phone
##phor
##phoru
##phorus
##phy
##pic
##pically
##picion
##picious
##pict
##picting
##piction
##pin
##pino
##pionship
##piration
##plication
##plom
##po
##poc
##pod
##poi
##poin
##point
##pok
##pol
##poli
##pon
##pong
##pons
##ponsible
##poo
##pool
##pop
##por
##poration
##pore
##port
##portation
##pos
##pose
##posed
##posi
##posit
##position
##posito
##positor
##post
##pot
##poth
##pow
##powe
##power
##pox
##pp
##pping
##pression
##prisingly
##prived
##production
##productive
##ptable
##ptanc
##ptation
##ptemb
##pth
##ptible
##ptical
##ption
##ptionally
##ptive
##ptor
##ptur
##pture
##pub
##publ
##publi
##public
##publica
##publican
##publish
##publishe
##published
##pul
##pulation
##pur
##pzig
##q
##qu
##qua
##qual
##quali
##qualif
##qualifi
##qualifie
##qualified
##quar
##quat
##que
##quel
##quen
##quenc
##quency
##quent
##quently
##ques
##quest
##questing
##quez
##qui
##quil
##quin
##quir
##quire
##quired
##quirem
##quiring
##quisition
##quo
##r
##rabia
##rabian
##rabic
##rack
##racking
##racks
##raction
##ractions
##ractitioner
##ractor
##radition
##radually
##raf
##raff
##rafficking
##raft
##ragg
##ragon
##ragoon
##ragua
##raguay
##raham
##rahim
##rahm
##raight
##raightforw
##rain
##ralian
##rally
##ralympic
##ramatic
##ramatically
##rambl
##ramount
##rance
##ranch
##rand
##randfath
##randmoth
##rang
##ranian
##ranium
##rank
##rankfurt
##ransactions
##ransformation
##ransport
##ransportation
##ranton
##raphically
##raphy
##rapp
##raq
##rarchy
##ratic
##ration
##rative
##rator
##rators
##ratroop
##rattack
##raught
##rave
##raves
##ravi
##rawak
##rawal
##razilian
##rbach
##rbaijan
##rban
##rbi
##rbia
##rbian
##rbish
##rbitration
##rble
##rboard
##rbor
##rborn
##rborough
##rbour
##rbury
##rby
##rceived
##rception
##rch
##rchandi
##rchang
##rchange
##rchant
##rchbishop
##rchi
##rching
##rchipelago
##rchitectur
##rchitecture
##rchive
##rchw
##rchwo
##rchwoo
##rcially
##rck
##rcraf
##rcraft
##rcury
##rcussion
##rdiff
##rdinand
##rdon
##rdship
##readnought
##reafter
##reakdown
##reakfast
##reaking
##reakout
##reakthrough
##reakup
##reasingly
##reath
##reck
##rection
##rector
##redibly
##redictions
##redominantly
##refor
##reford
##refore
##regation
##rehensive
##rength
##requency
##reservation
##reshwat
##respond
##responding
##ression
##ressive
##ressively
##restigious
##resumably
##revious
##reviously
##rewsbury
##reyhound
##rezhn
##rfection
##rff
##rfly
##rform
##rforming
##rganized
##rgh
##rgini
##rgu
##rguably
##rguing
##rgum
##rgus
##rguson
##rial
##rialized
##rian
##riangular
##riarch
##rib
##ribb
##ribe
##rible
##ribun
##ribut
##ric
##rica
##rical
##rically
##rican
##ricat
##rick
##rico
##riction
##rictions
##ricu
##ricultural
##riculture
##riefly
##riendship
##rieved
##riff
##riffith
##rific
##riga
##rigan
##rigg
##right
##righton
##rigu
##rilla
##rillian
##rimentation
##rimination
##ringfi
##rink
##rinking
##rinth
##riodically
##rior
##rious
##riously
##ripp
##ription
##ripture
##risdiction
##rish
##risingly
##rison
##ritain
##ritance
##rithm
##riticizing
##rition
##ritish
##ritori
##ritory
##ritual
##riumph
##riv
##riva
##rival
##rivation
##rivative
##rive
##rived
##river
##rivers
##rives
##riving
##rivo
##rix
##rize
##rizon
##rkable
##rkham
##rkish
##rkshir
##rlborough
##rlfri
##rlington
##rmenian
##rmin
##rmination
##rmingham
##rmining
##rmish
##rmission
##rmor
##rmour
##rmous
##rmstrong
##rmy
##rnally
##rnando
##rnation
##rnationa
##rnational
##rnationally
##rnative
##rnatively
##rnhorst
##rnish
##rnishe
##rnished
##rnization
##rnov
##rnova
##roaching
##robably
##roblem
##rocession
##rock
##roduc
##roduction
##roductive
##rofession
##rofi
##rofitable
##rofound
##roft
##rog
##roga
##rogation
##roglyph
##rogression
##rogressive
##rogressively
##rohibition
##roj
##rok
##rolong
##rom
##romag
##romagn
##romb
##romotion
##rompt
##rompting
##romptly
##ron
##rong
##ronghold
##ronically
##ronom
##ronomic
##ronomy
##ronounc
##rontation
##ronz
##rook
##rooklyn
##room
##roop
##rop
##roph
##rophi
##rophic
##rophon
##rophy
##ropo
##ropod
##ropol
##ropoli
##ropolis
##roportion
##roposition
##ropp
##ropping
##roqu
##roque
##roscop
##rosecution
##roshima
##rotagoni
##roth
##rouble
##roud
##rough
##rought
##round
##rounding
##roup
##rous
##rously
##rov
##rovid
##roviding
##rovinc
##roving
##rovision
##rovn
##rovok
##row
##rowing
##rowly
##rown
##rowning
##rowth
##roxide
##roxim
##roxy
##rphy
##rpool
##rpor
##rporation
##rport
##rpos
##rracks
##rrang
##rrative
##rrator
##rrection
##rresponding
##rrible
##rrigan
##rrilla
##rrison
##rritori
##rritory
##rrival
##rrive
##rrived
##rrives
##rriving
##rroga
##rrogan
##rround
##rrounding
##rrow
##rrowing
##rrowly
##rrupt
##rruption
##rsection
##rsecution
##rship
##rsion
##rson
##rsonally
##rsons
##rthquak
##rthumb
##rthur
##rtially
##rticula
##rtification
##rtifications
##rtifici
##rtiliz
##rtille
##rtion
##rtition
##rtmouth
##rtnership
##rtsmouth
##rture
##ruc
##ruck
##ruct
##ruction
##ructive
##ructor
##ructur
##rug
##ruggl
##ruggling
##ruguay
##rum
##rumentation
##rumm
##rummer
##rummond
##rump
##runswick
##rup
##rupp
##rupt
##ruption
##ruptive
##rush
##rushch
##rushing
##ruth
##rvana
##rvant
##rvation
##rvative
##rve
##rved
##rven
##rvention
##rvi
##rvic
##rving
##rvision
##rviv
##rviving
##rvoir
##rvous
##rwerff
##rwin
##rything
##rywhe
##rywher
##rzegovina
##s
##sactions
##sapp
##sastrous
##sault
##saur
##saurus
##sborn
##sboro
##sborough
##sburg
##sburgh
##sbury
##sceptible
##schwad
##schwade
##schwader
##scop
##scope
##scount
##scour
##scov
##scow
##scrib
##scribe
##scribing
##scription
##scussion
##sdiction
##search
##season
##seball
##section
##secution
##self
##selves
##sembl
##sembling
##sembly
##seng
##senhow
##sentially
##sertion
##servation
##serve
##served
##serving
##servoir
##session
##seudonym
##sewh
##sexual
##sfaction
##sfactory
##sform
##sformation
##sful
##sfully
##sgiving
##sgow
##sguis
##sh
##sha
##shack
##sham
##shan
##shaw
##shback
##shi
##shif
##shift
##shim
##shin
##shing
##shingt
##shingto
##shington
##ship
##ships
##shir
##shire
##sho
##shock
##shor
##shore
##shot
##show
##shu
##shw
##shwa
##shwat
##sibility
##sibl
##sible
##sibly
##sically
##sified
##sign
##signation
##signe
##signed
##simila
##singly
##sion
##sionally
##sippi
##sissippi
##sistanc
##sistance
##sition
##sitive
##sitively
##sitivity
##sitor
##sive
##sively
##sketball
##smarck
##smission
##smith
##smouth
##sociation
##solin
##solut
##solution
##solve
##solved
##som
##son
##sonable
##sonably
##sonally
##sophy
##sorb
##sorganized
##sorption
##sorship
##sourc
##source
##sources
##sovo
##spection
##spectively
##spector
##spension
##spicion
##spicious
##spiration
##spok
##spoke
##spoken
##spon
##spond
##sponding
##spons
##sponsible
##spor
##sport
##sportation
##spos
##sposition
##spot
##squal
##ssault
##ssembl
##ssembly
##sseng
##ssenge
##ssenger
##ssentially
##ssertion
##ssession
##ssful
##ssfully
##ssibl
##ssible
##ssibly
##ssified
##ssign
##ssigned
##ssignm
##ssion
##ssippi
##ssissippi
##ssistance
##ssive
##ssively
##ssociation
##ssolution
##ssumption
##ssur
##ssura
##ssuran
##ssuranc
##ssurance
##ssure
##stablish
##stablishing
##staff
##stain
##stainable
##stall
##stallation
##stallm
##stanc
##stand
##standing
##station
##staurant
##stbound
##sthumous
##sthumously
##stible
##stick
##stified
##stigation
##stigator
##stigators
##stigious
##stimony
##stination
##stinct
##stinction
##stinguish
##stinian
##stion
##stitution
##stitutions
##stiv
##stiva
##stival
##stive
##stock
##stok
##stom
##stome
##ston
##stonbury
##stor
##storation
##stori
##storically
##storm
##stors
##stortion
##stow
##stpon
##straction
##stralian
##strange
##stration
##strative
##strator
##strators
##strial
##strian
##stribut
##striction
##strictions
##stroke
##stron
##strong
##stronom
##stronomic
##stronomy
##strous
##struct
##struction
##structive
##structor
##structure
##strum
##strumentation
##stseason
##sture
##suffici
##sult
##sulting
##sumably
##sumption
##supp
##sur
##sure
##suring
##surrection
##swald
##swick
##sychological
##sychology
##t
##tability
##tabiliz
##table
##tablish
##tablishing
##taboli
##tachm
##tachme
##tachmen
##tachment
##tack
##tacking
##tadium
##taff
##tag
##tage
##tagoni
##tain
##tainable
##taining
##taking
##taliation
##talion
##tall
##tallation
##tallic
##tallica
##talling
##tallion
##tallm
##tally
##tamin
##tamine
##tamp
##tanbul
##tanc
##tance
##tand
##tanding
##tandout
##taneously
##tanford
##tangular
##tanical
##tanium
##tanton
##tanza
##taphor
##tarboard
##tarcraft
##tarian
##tation
##tator
##tators
##tauran
##taurant
##tawa
##tball
##tbound
##tchcock
##tchfork
##tching
##tchinson
##tcom
##tection
##tectur
##tecture
##teenth
##tefani
##tegration
##tellectual
##telligenc
##telligent
##temb
##tempt
##tempting
##tenance
##tendance
##tenham
##tensified
##tensive
##tentially
##tention
##tentionally
##teorological
##tephani
##tepp
##teraction
##teractions
##terally
##terbury
##terception
##terchange
##terfly
##termin
##termination
##termining
##ternally
##ternational
##ternationally
##ternative
##ternatively
##terrupt
##tersection
##terson
##terven
##tervention
##tervi
##teven
##tevens
##tevenson
##text
##tform
##tgom
##th
##thcoming
##thenian
##thing
##thodox
##thor
##thorn
##though
##thous
##thqua
##thquak
##throom
##throp
##through
##throw
##thu
##thumb
##thumous
##thumously
##thur
##tiago
##tial
##tially
##tiation
##tiative
##tible
##tibodi
##tic
##tical
##tically
##ticipation
##ticiz
##ticizing
##tick
##ticul
##ticula
##tiff
##tifi
##tific
##tification
##tifici
##tifie
##tified
##tiful
##tify
##tifying
##tiga
##tigat
##tigate
##tigation
##tigator
##tigious
##tigu
##tiliz
##till
##tille
##tim
##tima
##timat
##timi
##timony
##timor
##timu
##tination
##tinct
##tinction
##tingham
##tinguish
##tinian
##tion
##tionaliz
##tionalize
##tionally
##tionship
##tious
##tiquar
##tique
##tiquity
##tisfaction
##tisfactory
##tish
##tition
##titione
##titious
##titive
##titor
##titors
##titution
##titutions
##tiv
##tivation
##tive
##tively
##tivi
##tivis
##tivit
##tivity
##tlantic
##tleship
##tleships
##tmouth
##tnam
##tnership
##toba
##tobiographic
##tobiography
##tochondri
##tock
##tockholm
##tok
##tologist
##tology
##tom
##toma
##tomach
##tomi
##tomic
##tomy
##ton
##tonbury
##tonic
##tonomou
##tonomy
##toon
##top
##topo
##topp
##topping
##tor
##toration
##torically
##torm
##torship
##tortion
##tory
##toryboard
##tosh
##tow
##town
##toxi
##toxic
##tpon
##track
##traction
##traight
##traightforw
##tralian
##trand
##trang
##trange
##tration
##trative
##trator
##trators
##trength
##trial
##trian
##triarch
##tribut
##tric
##trical
##trically
##tricat
##trick
##triction
##trictions
##trieved
##trigu
##tripp
##trition
##troduc
##troduction
##trog
##trok
##troke
##tromagn
##tron
##trong
##tronghold
##tronom
##tronomic
##tronomy
##troop
##trop
##troph
##trophic
##tropi
##tropic
##tropoli
##tropolit
##tropolita
##tropolitan
##trous
##truck
##truct
##truction
##tructive
##tructor
##tructur
##tructure
##truggl
##truggling
##trum
##trumentation
##tsburgh
##tseason
##tsmouth
##ttachm
##ttack
##ttacking
##ttalion
##ttawa
##ttempt
##ttempting
##ttendance
##ttenham
##ttention
##tterson
##ttish
##ttleship
##ttleships
##ttom
##ttor
##ttraction
##ttribut
##ttsburgh
##ttysburg
##tual
##tually
##tuation
##tubb
##tuck
##tucky
##tuff
##tump
##tuous
##tur
##tura
##tural
##turally
##ture
##tution
##tutions
##twaff
##twork
##tymology
##typic
##tysburg
##u
##ual
##ually
##uation
##ub
##ubb
##ubj
##ubl
##ublish
##ublishing
##ubrick
##ubu
##uc
##ucation
##ucc
##uccessful
##uccessfully
##uccession
##uccessive
##uccumb
##uch
##uchdown
##uchi
##uching
##uchy
##uck
##ucking
##uckingh
##uckl
##ucky
##ucl
##uction
##uctive
##uctor
##uctur
##udition
##uditorium
##udony
##udonym
##uff
##uffic
##uffici
##uffing
##uffl
##uffle
##uftwaff
##ufus
##ug
##uga
##ugg
##ugge
##uggestion
##uggl
##uggling
##ugh
##ught
##ugm
##ugu
##ugua
##uguay
##ugur
##uguration
##uic
##uici
##uish
##uishing
##uitable
##uition
##ukh
##ul
##ula
##ular
##ulat
##ulation
##ulf
##ulfi
##ulfur
##ulg
##ull
##ullivan
##ully
##ulous
##ulptor
##ulptur
##ulsion
##ult
##ultan
##ultaneously
##ultimat
##ulting
##ultural
##ulture
##ulu
##ulus
##um
##umably
##uman
##umb
##umba
##umbl
##umble
##umentation
##umerous
##umin
##uminium
##uminum
##umm
##umme
##ummer
##ummon
##ummond
##umon
##umoni
##umonia
##umorous
##umour
##umous
##umously
##ump
##umph
##umption
##umu
##undtrack
##ung
##unication
##union
##unish
##unishm
##unition
##unpow
##unshin
##unswick
##uous
##uously
##up
##upernova
##upp
##uption
##uptive
##ur
##urally
##uran
##urbish
##urf
##urfa
##urfac
##urg
##urkish
##urnov
##uron
##urop
##uror
##urovision
##urphy
##urport
##urpos
##urprisingly
##urrection
##urround
##urrounding
##ursion
##uru
##urve
##urvey
##urveyor
##urviv
##urviving
##usceptible
##ush
##ushch
##ushi
##ushing
##usion
##usive
##usively
##uspension
##uspicion
##uspicious
##ussion
##ustain
##ustainable
##ustralian
##ustration
##ustrial
##ustrian
##uth
##utho
##uthor
##uthw
##utical
##utiful
##ution
##utions
##utive
##utobiographic
##utobiography
##utom
##utonomou
##utonomy
##utop
##utor
##utrition
##utron
##uvi
##uvia
##ux
##uzz
##v
##va
##vable
##vag
##vailability
##vailable
##val
##valan
##valanch
##valon
##van
##vana
##vanc
##vani
##vant
##vasion
##vasive
##vation
##vative
##vator
##ve
##ved
##velop
##veloping
##velopm
##vem
##veme
##vemen
##vement
##ven
##veng
##venge
##veni
##venport
##venson
##vent
##venteenth
##venth
##vention
##ventive
##ventor
##ventory
##ventu
##venu
##ver
##vera
##verag
##veral
##version
##verth
##ves
##vestigation
##vestigators
##veston
##vestors
##vi
##vian
##viation
##vic
##vice
##vices
##vich
##vigation
##vik
##vil
##vilion
##viliz
##vill
##ville
##vily
##vin
##vincible
##ving
##vior
##viour
##vious
##viously
##vish
##visible
##vision
##vitable
##vitation
##viv
##viva
##vival
##viving
##vo
##voi
##voir
##vok
##voke
##vol
##volution
##volving
##von
##voni
##vonia
##vor
##vorous
##votion
##vour
##vourable
##vous
##voy
##vy
##w
##wa
##waff
##wai
##wait
##waiting
##wak
##wal
##wald
##walk
##wall
##wallow
##wamp
##war
##ward
##wark
##wart
##wat
##wate
##water
##way
##wborn
##wboy
##welling
##werff
##wership
##wfo
##wford
##wfou
##wfoun
##wfound
##wfoundl
##wfoundla
##wfoundlan
##wfoundland
##wful
##wh
##wha
##what
##whi
##whil
##wick
##wicz
##wif
##wig
##wim
##wimm
##wimming
##win
##wind
##windl
##wish
##witching
##with
##wnship
##wom
##woma
##woman
##wor
##word
##work
##working
##worl
##world
##worth
##worthy
##wpo
##wpoi
##wpoin
##wpoint
##wright
##wsbury
##wson
##wton
##wulf
##x
##xan
##xand
##xation
##xibl
##xic
##xin
##xion
##xious
##xon
##xonom
##xonomi
##xonomic
##xonomy
##xophon
##xp
##xt
##xtbook
##xth
##xton
##xu
##xua
##xual
##xually
##y
##ybo
##yboa
##yboar
##yboard
##yboards
##yboy
##ycholog
##ychologi
##ychologic
##ychologica
##ychological
##ychology
##yck
##ygu
##yhou
##yhoun
##yhound
##yish
##yllable
##ylvani
##ylvest
##ymb
##ymbo
##ymboliz
##ymology
##ymour
##ymous
##ymouth
##ymp
##ymph
##ympt
##ynagogu
##ynamic
##yndicate
##yndrom
##ynony
##ynonym
##ynop
##ynth
##ynthe
##yoff
##yoming
##yon
##yonc
##yond
##yout
##yph
##ypic
##ypically
##ypo
##ypoth
##yrically
##ysburg
##ything
##ywh
##ywhe
##ywright
##yzomy
##z
##zak
##zegovina
##zerbaijan
##zh
##zhn
##zho
##zhou
##zig
##zilian
##zin
##zk
##zko
##zky
##zman
##zomy
##zon
##zor
##zum
##zvous
##zz
##zzi
[UNK]
a
aaron
ab
abandon
abandone
abandoned
abandoning
abb
abba
abbas
abbasi
abbasid
abbo
abbot
abbott
abdom
abduc
abduct
abi
abil
abili
abilit
abiliti
abilitie
abilities
ability
abl
able
abnormal
abo
aboa
aboar
aboard
abolish
abolition
abor
abori
aborig
aborigin
aborigina
aboriginal
abortion
abou
about
abov
above
abraham
abrup
abrupt
abruptly
absolut
absolute
absolutely
absorb
absorption
absur
absurd
abu
abun
abund
abundan
abundanc
abundance
abundant
abus
academic
academy
acceptable
acceptanc
acceptance
accessible
accession
accidentally
accomm
accommo
accommod
accommoda
accommodat
accommodate
accommodation
accomp
accompa
accompan
accompani
accompanie
accompanied
accompany
accompanying
accomplish
accomplishm
accomplishme
accomplishmen
accomplishment
accomplishments
accor
accord
accordan
accordanc
accordance
according
accordingly
accoun
account
accounting
accumula
accumulat
accumulate
accumulated
accur
accura
accurac
accuracy
accurat
accurate
accurately
achieved
achievement
achievements
achieving
acknow
acknowl
acknowle
acknowled
acknowledg
acknowledge
acknowledged
acous
acoust
acousti
acoustic
acqua
acquai
acquain
acquaint
acquainta
acquaintan
acquaintanc
acquaintance
acqui
acquir
acquire
acquired
acquiring
acquisition
acquit
acquitt
acquitte
acquitted
action
activ
activation
activi
activit
activiti
activitie
activities
activity
actor
actors
actual
actually
adaptation
addiction
addition
additional
additionally
adequat
adequate
adjac
adjace
adjacen
adjacent
adjoining
adju
adjus
adjust
adjustm
adjustme
adjustmen
adjustment
admini
adminis
administ
administe
administer
administration
administrative
administrator
admiration
admission
adolf
adopt
adopting
advan
advanc
advance
advanced
advancing
advant
advanta
advantag
advantage
advent
adventu
adventur
adventure
adventures
advi
advice
advis
advisor
advisori
advisorie
advisories
advisory
advoc
advoca
advocac
advocacy
advocat
advocate
advocated
af
aff
affa
affai
affair
affairs
affection
affi
affil
affili
affilia
affiliat
affiliate
affiliated
affiliation
affir
affirm
affor
afford
afgha
afghan
afghani
afghanis
afghanist
afghanista
afghanistan
afi
afl
afo
afor
afore
aforemention
aforementione
aforementioned
afr
afra
afrai
afraid
afri
afric
africa
african
aft
afte
after
aftermath
afternoon
afterw
afterwa
afterwar
afterward
afterwards
again
agains
against
agg
aggr
aggre
aggreg
aggrega
aggregat
aggregate
aggression
aggressive
agricultural
agriculture
aground
agui
aguil
aguile
aguiler
aguilera
airborn
airborne
aircraf
aircraft
airport
alabama
alamo
alamos
alb
albani
albania
albanian
albany
albe
alber
albert
alberta
alberto
albion
album
alcohol
alcoholi
alcoholic
alexand
alexandr
alexandra
alexandri
alexandria
alf
alfon
alfons
alfr
alfre
alfred
algorithm
alignm
alignme
alignmen
alignment
alison
alive
all
allegation
allegations
allegianc
allegiance
allianc
alliance
alligator
allison
allow
allud
allusion
ally
alon
alone
along
alpha
alphab
alphabe
alphabet
alpin
alpine
alternative
alternatively
although
aluminium
aluminum
alway
always
amalgam
amazon
amb
amba
ambas
ambass
ambassa
ambassad
ambassado
ambassador
ambi
ambie
ambien
ambient
ambiguous
ambition
ambitions
ambitious
ambr
ambro
ambros
ambrose
ambu
ambul
ambula
ambulan
ambulanc
ambulance
ambush
america
american
amidships
amino
ammon
ammoni
ammunition
among
amoun
amount
amp
amph
amphib
amphibi
amphibian
amphibio
amphibiou
amphibious
ampl
amplif
amplifi
amplifie
ampu
amy
an
analog
analogous
analyz
analyze
analyzed
anarch
anarchi
anarchis
anarchist
anatomy
ancestors
anchor
and
anderson
ang
ange
angel
angelou
anger
angi
angl
angle
angli
anglia
anglic
anglica
anglican
anglo
angr
angry
angu
angul
angula
angular
angus
anim
anima
animal
animals
animation
animators
anime
annivers
anniversa
anniversar
anniversary
announc
announce
announced
announcem
announceme
announcemen
announcement
annual
annually
anom
anonymous
anoth
anothe
another
antagoni
antagonis
antagonist
anth
anthe
anthem
antho
anthol
antholo
antholog
anthology
anthon
anthony
anthrop
anthropo
anthropol
anthropolo
anthropolog
anthropologi
antibodi
antibodie
antibodies
antic
antici
anticip
anticipa
anticipat
anticipate
anticipated
anticipation
antill
antille
antilles
antiquar
antiquity
anton
antoni
antonio
anxious
any
anybo
anybod
anybody
anymor
anymore
anyon
anyone
anything
anyway
anywh
anywhe
anywher
anywhere
apoc
apoca
apocaly
apocalyp
apol
apoll
apollo
apolo
apolog
apologi
apologis
apologiz
apologize
apology
apost
app
appa
appal
appala
appalach
appar
appare
apparen
apparent
apparently
appe
appea
appear
appeara
appearan
appearanc
appearance
appearing
appen
append
appl
apple
appli
applic
applica
applican
applicant
application
applications
applie
applied
appo
appoi
appoin
appoint
appointm
appointme
appointmen
appointment
appr
appre
apprec
appreci
apprecia
appreciat
appreciate
appreciated
appreciation
appren
apprent
apprentic
apprentice
appro
approa
approach
approaching
approp
appropr
appropri
appropria
appropriat
appropriate
approv
approval
approxim
approxima
approximat
approximate
approximately
aqua
aquat
aquati
aquatic
arabia
arabian
arabic
arbi
arbit
arbitr
arbitra
arbitrar
arbitration
arbor
arch
archa
archae
archaeological
archaeologist
archaeologists
archaeology
archbishop
archi
archie
archipelago
archit
archite
architec
architect
architectur
architectura
architectural
architecture
archive
archives
argu
arguably
argue
argued
arguing
argum
argume
argumen
argument
arguments
arizon
arizona
arkham
armenian
armor
armour
armstrong
army
around
arrang
arrange
arranged
arrangem
arrangeme
arrangemen
arrangement
arrangements
arrival
arrive
arrived
arrives
arriving
arrogan
arrow
arrows
arthur
articula
articulat
articulate
artifici
artificia
artificial
artille
artiller
artillery
ash
ashf
ashl
ashle
ashley
asho
ashor
ashore
ashton
aspiration
assault
assembl
assemble
assembled
assembly
assertion
assign
assigned
assignm
assignme
assignmen
assignment
assistance
association
assumption
assure
assured
astron
astrona
astronau
astronaut
astronom
astronome
astronomer
astronomers
astronomic
astronomica
astronomical
astronomy
athenian
atlantic
atom
atomi
atomic
atop
attachm
attachme
attachmen
attachment
attack
attacking
attempt
attempting
attendance
attention
attor
attorn
attorne
attorney
attraction
attractions
attribut
attribute
attributed
aubu
aubur
auburn
auckl
auckla
aucklan
auckland
audition
auditorium
augm
augme
augmen
augment
augu
augus
august
augustin
auror
aurora
australian
austrian
auth
authe
authen
authent
authenti
authentic
authentici
authenticit
authenticity
autho
author
authori
authoris
authorit
authorita
authoriti
authoritie
authorities
authority
authoriz
autobiographic
autobiographica
autobiographical
autobiography
autom
automa
automat
automati
automatic
automatically
automo
automob
automobi
automobil
automobile
autonomou
autonomous
autonomy
autop
aux
auxi
auxil
auxili
auxilia
auxiliar
auxiliary
availability
available
avalanch
avalanche
aveng
avenge
avenger
avengers
avenu
avenue
averag
average
averaging
aviation
avoi
avoid
avoiding
avon
await
awaiting
awak
awake
awaken
awar
award
aware
awaren
awarene
awarenes
awareness
away
azerbaijan
azor
azore
azores
b
babi
baby
babylon
bach
back
backdrop
backg
backgr
backgro
backgrou
backgroun
background
backlash
backup
backwa
backwar
backward
backwards
bacon
baft
bafta
bag
bagg
bagh
baghd
baghda
baghdad
bah
baham
bahama
bahamas
bahr
bahra
bahrai
bahrain
baja
bakshi
balance
balcon
baldwin
ball
balloon
baltimor
baltimore
bamb
band
bang
bangl
bangla
banglad
banglade
bangladesh
bank
banking
bankrupt
bankruptcy
banque
banquet
barack
baron
baroque
barracks
barrow
baseball
bash
basically
basketball
bath
bathroom
battalion
battleship
battleships
bava
bavar
bavari
bavaria
baxt
baxte
baxter
beautiful
became
beck
becky
become
becoming
bedroom
befor
before
began
begun
behalf
behave
behavior
behaviour
behind
beijing
belfa
belfas
belfast
belgian
belgium
believed
believes
believing
belize
belly
belong
belonging
below
beneath
beneficial
beng
benga
bengal
benjamin
benson
bestow
beyonc
beyond
bha
bhar
bhu
bibl
bibli
biblic
biblica
biblical
big
bigg
bigge
bigger
bigges
biggest
bill
billbo
billboa
billboar
billboard
billion
billy
biograph
biographi
biographic
biographica
biographical
biography
biological
biologist
biology
biom
birch
birmingham
bish
bisho
bishop
bismarck
biz
biza
bizar
bizarr
bizarre
black
blackb
blackbu
blackbur
blackburn
blain
blaine
blam
blame
blamed
blanc
blanch
blank
blizz
block
blocking
blog
blon
blond
bloom
blow
blu
blue
blun
blunt
bob
bobby
bodygu
bodygua
bodyguar
bodyguard
bog
boh
bolivi
bolivia
bollywo
bollywoo
bollywood
bom
bomb
bomba
bombar
bombard
bombardm
bombardme
bombardmen
bombardment
bombay
bombing
bon
bond
bonn
bonni
bonnie
bono
bonu
bonus
book
boom
boon
boone
booth
bor
bord
borde
border
borg
boring
born
boron
borough
borrow
boston
botanical
both
bottom
bou
bought
boul
bould
boulde
boulder
boule
bouleva
boulevar
boulevard
boun
bounce
bound
bounda
boundar
boundari
boundarie
boundaries
boundary
bount
bounty
bour
bourn
bourne
bout
bow
bowl
bowling
box
boxing
brack
bracke
bracket
brahm
brahma
brahmi
brahmin
brain
branch
brand
brave
braves
brazilian
breakdown
breakfast
breaking
breakout
breakthrough
breakup
breath
breck
brecki
breckin
breckinr
breckinri
breckinrid
breckinridg
breckinridge
brezhn
brezhne
brezhnev
brian
bribe
brick
briefly
briga
brigad
brigade
bright
brighton
brillian
brilliant
britain
british
brock
brok
broke
broken
brom
bron
bronz
bronze
brook
brooklyn
brooks
broth
brothe
brother
brothers
brough
brought
brow
brown
brownish
brows
bruc
bruce
brunswick
brush
bu
bubb
bubbl
bubble
buc
bucc
bucca
buccan
buccane
buccanee
buccaneer
buch
bucha
buchan
buchana
buchanan
buck
buckingh
buckingha
buckingham
buckl
bud
buda
budap
budape
budapes
budapest
budd
buddh
buddhi
buddhis
buddhism
buddhist
buddy
budg
budge
budget
buff
buffa
buffal
buffalo
buffy
bug
bui
buil
build
building
built
bul
bulb
bulg
bulga
bulgar
bulgari
bulgaria
bulgarian
bulk
bulkh
bulkhe
bulkhea
bulkhead
bull
bump
bun
bunch
bund
bundl
bundle
bung
bungi
bungie
bunk
bunke
bunker
bunn
buo
buoy
bur
burg
burge
burger
burgh
buri
buria
burial
burk
burke
burn
burnh
burnha
burnham
burning
burrow
burrows
burton
bus
busch
bush
busi
busin
busine
busines
business
businessm
businessma
businessman
busy
but
butterfly
button
buy
buying
buzz
by
byron
byz
byza
byzan
byzant
byzanti
byzantin
byzantine
c
ca
cab
caba
cabi
cabin
cabl
cable
cabo
cac
cad
caf
cag
cage
cai
cain
cair
cairo
cak
cake
cal
calc
calci
calciu
calcium
calcu
calcul
calcula
calculat
calculate
calculated
calculation
calculations
calg
calga
calgar
calgary
cali
calib
calibr
califor
californ
californi
california
caliph
call
calle
called
calling
calm
calv
calvi
calvin
cam
camb
cambo
cambod
cambodi
cambodia
cambr
cambri
cambrid
cambridg
cambridge
came
cameron
cami
camouf
camoufl
camoufla
camouflag
camouflage
camp
campa
campai
campaig
campaign
campb
campbe
campbel
campbell
can
canadian
canal
canb
canbe
canber
canberr
canberra
canc
cance
cancel
cancell
cancellation
cancelle
cancelled
cancer
cannibal
cannon
canon
canopy
canterbury
canton
canuck
canucks
canva
canvas
canyon
cap
capa
capab
capabi
capabil
capabili
capabilit
capabiliti
capabilitie
capabilities
capability
capabl
capable
capac
capaci
capacit
capacity
capcom
capi
capit
capita
capital
capito
capitol
capitu
capitul
capp
cappe
capped
capt
capta
captai
captain
capti
captiv
captivi
captivit
captivity
captu
captur
capture
captured
capturing
car
carb
carbon
cardiff
cardinal
cardinals
caribb
caribbe
caribbea
caribbean
carnival
caro
carol
caroli
carolin
carolina
cartoon
carve
carved
carving
cas
casa
casc
casca
cascad
cascade
case
cash
casi
casin
casino
casp
cass
cassi
cast
casting
castl
castle
casu
casua
casual
casualt
casualti
casualtie
casualties
casualty
cat
cata
catalog
catalogu
catalogue
cataly
catalys
catalyst
catap
catapu
catapul
catapult
catch
catching
catchy
categori
categorie
categories
category
cath
cathe
cathed
cathedr
cathedra
cathedral
cather
catherin
catherine
catho
cathol
catholi
catholic
cau
cauc
cauca
caucas
caucu
caucus
caud
caugh
caught
caul
caus
cause
caused
causewa
causeway
causing
caution
cav
cava
caval
cavalr
cavalry
cave
cavi
cavit
cavity
cay
cb
cbs
ce
cea
ceas
cease
ceased
cec
ceci
cecil
ced
ceda
cedar
cel
cele
celeb
celebr
celebra
celebrat
celebrate
celebrated
celebrating
celebration
celebri
celebrit
celebriti
celebritie
celebrities
celebrity
celes
celest
celesti
celestia
celestial
cell
cells
cellu
cellul
cellula
cellular
celt
celti
celtic
cem
ceme
cemen
cement
cemet
cemete
cemeter
cemetery
cen
cens
censor
censorship
censu
census
cent
cente
centen
centenn
centenni
centennia
centennial
center
centi
centim
centime
centimet
centimetr
centimetre
centimetres
centr
centra
central
centre
centu
centur
century
ceo
ceph
cer
cera
ceram
cerami
ceramic
cere
cereb
cerebr
cerebra
cerebral
ceremon
ceremoni
ceremonia
ceremonial
ceremony
cert
certa
certai
certain
certainly
certi
certif
certifi
certific
certifica
certificat
certificate
certification
certifications
certifie
certified
cf
ch
cha
chai
chain
chair
chairm
chairma
chairman
chak
chakr
chakra
chal
chalk
challeng
challenge
challenged
challenging
cham
chamb
chambe
chamber
chamberl
chamberla
chamberlai
chamberlain
chambers
champ
champa
champi
champio
champion
champions
championship
chan
chanc
chance
chancel
chancell
chancello
chancellor
chand
chandl
chandle
chandler
chandr
chandra
chang
change
changed
changes
changing
chann
channe
channel
chant
chao
chaos
chaot
chaoti
chaotic
chap
chape
chapel
chaplin
chapm
chapman
chapp
chapt
chapte
chapter
char
chara
charac
charact
characte
character
characteriz
characterization
charg
charge
charged
charging
chari
charis
charism
charisma
charit
charita
charitab
charitabl
charitable
charity
charl
charle
charles
charleston
charlo
charlot
charlott
charlotte
charlton
charm
charming
chart
chas
chase
chasing
chass
chast
chau
che
check
chef
chem
chemi
chemic
chemica
chemical
chemis
chemist
chemistr
chemistry
cherok
cheroke
cherokee
cheshire
chev
chevr
chew
chi
chic
chica
chicag
chicago
chick
chie
chief
chiefly
chil
child
childh
childho
childhoo
childhood
childr
childre
children
chill
chim
chimn
chimne
chimney
chin
china
chine
chines
chinese
chip
chl
chlo
chlor
chlori
chlorid
chloride
cho
choc
choco
chocol
chocola
chocolat
chocolate
choi
choic
choice
choir
chok
chol
choo
choos
choose
choosing
chop
chopr
chopra
chor
choral
chord
choru
chorus
chos
chose
chosen
chr
chri
chris
christ
christi
christia
christian
christm
christma
christmas
christo
christoph
christophe
christopher
chrom
chroma
chromo
chromos
chromosom
chromosome
chron
chroni
chronic
chronicl
chronicle
chrono
chronol
chronolo
chronolog
chry
chrys
chu
chuck
chun
chur
church
churchill
ci
cic
cig
ciga
cigar
cin
cinc
cinci
cincin
cincinn
cincinna
cincinnat
cincinnati
cind
cindy
cine
cinem
cinema
cinemat
cinemati
cinematic
cinemato
cinematog
cinematogr
cinematogra
cinematograph
cinematographe
cinematographer
cinematography
cir
circ
circl
circle
circu
circui
circuit
circul
circula
circular
circulat
circulation
circum
circums
circumst
circumsta
circumstan
circumstanc
circumstance
circumstances
cit
citation
citi
citie
cities
citiz
citize
citizen
citizens
citizenship
city
civ
civi
civil
civili
civilian
civiliz
civiliza
civilizat
civilizati
civilizatio
civilization
cl
cla
clad
clai
claim
claiming
clair
claire
clan
clap
clar
clara
clare
claren
clarenc
clarence
clari
clarif
clarifi
clarifie
clarified
clarin
clarine
clarinet
clark
clarkson
clas
clash
class
classi
classic
classica
classical
classif
classifi
classific
classifica
classificat
classificati
classificatio
classification
classroom
clau
claud
claudi
claus
clause
claw
claws
clay
clayton
cle
clea
clean
cleaning
clear
clearan
clearanc
clearance
clearing
clearly
clem
cleme
clemen
clement
cler
clerg
clergy
cleric
clerk
clev
cleve
clevel
clevela
clevelan
cleveland
clever
cli
clich
click
clif
cliff
cliffor
clifford
clift
clifto
clifton
clim
clima
climat
climate
climax
climb
climbing
clin
clinch
clinic
clinica
clinical
clint
clinton
clip
clips
cliv
clive
clo
clock
clon
clone
clos
close
closed
closely
closing
closur
closure
cloth
clothing
clou
cloud
clouds
clov
clove
clover
clow
clown
clu
club
clus
clust
cluste
cluster
clusters
clut
clutch
cly
clyd
clyde
cm
co
coa
coach
coaching
coal
coalition
coas
coast
coastal
coastlin
coastline
coat
cob
coba
cobb
cobr
cobra
coch
cochr
cochran
cochrane
cock
cockp
cockpi
cockpit
cocon
coff
coffe
coffee
coffi
coffin
cognitive
coh
cohe
cohen
coin
coinag
coinage
coinc
coinci
coincid
coincide
coincided
col
colb
colbe
colber
colbert
cold
coli
colin
coll
colla
collabor
collabora
collaborat
collaboration
collaborato
collaborator
collap
collaps
collapse
collapsed
collar
colle
colleague
colleagues
collec
collect
collecting
collection
collective
collectively
collecto
collector
collectors
colleg
college
collegi
collegia
collegiat
collegiate
colli
collid
collide
collided
collie
collier
collin
collins
collision
colo
colomb
colombi
colombia
colon
coloni
colonia
colonial
coloniz
colony
color
coloration
colos
coloss
colou
colour
colu
colum
columb
columbi
columbia
columbu
columbus
column
columns
com
comb
comba
combat
combi
combin
combination
combining
combu
come
comeback
comed
comedi
comedia
comedian
comedic
comedy
comf
comfo
comfor
comfort
comforta
comfortab
comfortabl
comi
comic
comics
coming
comm
comma
comman
command
commanding
comme
commemorat
commemorate
commemorated
commemorative
commen
commenc
commence
commenced
comment
commentator
commentators
commenting
commer
commerc
commerci
commercia
commercial
commercially
commi
commission
commit
commitm
commitme
commitmen
commitment
committ
committe
committee
commo
commod
commodor
commodore
common
commonly
commonw
commonwe
commonwea
commonweal
commonwealth
commu
commun
communa
communal
communi
communic
communica
communicat
communicati
communicatio
communication
communications
communis
communism
communist
communit
community
commut
comp
compa
compac
compact
compan
compani
companio
companion
companions
company
compar
comparabl
comparable
comparatively
comparing
comparison
compas
compass
compat
compatibl
compatible
compelling
competition
competitive
competitor
competitors
compilation
compl
compla
complain
complaint
complaints
comple
complem
compleme
complemen
complement
complet
complete
completed
completely
completing
completion
complex
compli
complian
complic
complica
complicat
complicate
complicated
complication
complications
complim
complime
complimen
compliment
compo
compon
compone
componen
component
components
compos
composi
composit
composite
compositi
compositio
composition
compou
compoun
compound
compounds
compr
comprehensive
compri
compris
comprising
comprom
compromi
compromis
compromise
compton
compu
compul
compuls
compulso
compulsor
compulsory
comput
compute
computer
computing
con
conan
conc
conce
conceal
conceived
concen
concent
concentr
concentra
concentrat
concentrate
concentrated
concentration
concep
concept
conception
conceptu
concer
concern
concerning
concert
concession
concessions
concl
conclu
conclud
conclude
concluded
concluding
conclusion
concor
concord
concur
concurr
concurre
concurren
concurrenc
concurrency
concurrent
concurrently
concussion
cond
conde
condem
condemn
conden
condens
condi
condit
conditi
conditio
condition
conditions
condo
condom
condu
conduc
conduct
conducting
conductor
conf
confe
confer
confere
conferen
conferenc
conference
confession
confessions
confi
confid
confide
confiden
confidenc
confidence
confident
config
configu
configur
configuration
confir
confirm
confirmation
confirming
confl
confli
conflic
conflict
conflicting
conflu
conflue
confluen
confluenc
confluence
confor
conform
confron
confront
confrontation
confu
confus
confuse
confused
confusing
confusion
cong
congestion
congo
congr
congra
congrat
congratu
congratul
congratula
congratulat
congre
congreg
congrega
congregat
congregati
congregatio
congregation
congres
congress
congression
congressiona
congressional
congressm
congressman
conj
conju
conjun
conjunc
conjunct
conjuncti
conjunctio
conjunction
conn
conne
connec
connect
connectic
connecticu
connecticut
connecting
connection
connector
conno
connor
conqu
conque
conquer
conques
conquest
cons
conscious
consciousn
consciousne
consciousnes
consciousness
consecutive
consequenc
consequence
consequences
consequently
conservation
conservative
consi
consid
conside
consider
considerabl
considerable
considerably
consideration
considering
consis
consist
consisting
conso
consol
consoli
consolid
consolida
consolidat
consolidate
consolidated
conson
consonan
consonant
consor
consort
consp
conspi
conspic
conspicu
conspicuous
conspir
conspira
conspirac
conspiracy
conspirat
conspirator
const
consta
constab
constabl
constable
constan
constant
constanti
constantin
constantino
constantinop
constantinopl
constantinople
constantly
conste
constel
constell
constellation
consti
constit
constitu
constitut
constituti
constitutio
constitution
constitutional
constr
constra
constrain
constraint
constraints
constru
construc
construct
constructi
constructio
construction
consu
consul
consult
consulta
consultan
consultant
consultat
consultati
consultatio
consultation
consulting
consum
consuming
consumpt
consumpti
consumptio
consumption
cont
conta
contac
contact
contai
contain
containing
contains
contam
contami
contamin
contamina
contaminat
contaminate
contaminated
conte
contempl
contempla
contemplat
contemporar
contemporari
contemporarie
contemporaries
contemporary
contempt
conten
contend
content
contention
contes
contest
contestan
contestant
contestants
context
conti
contin
contine
continen
continent
continenta
continental
continu
continually
continuation
continue
continued
continuing
continuous
continuously
contr
contra
contrac
contract
contractor
contrad
contradi
contradic
contradict
contrar
contrary
contras
contrast
contrasting
contribut
contributing
contribution
contributions
contributor
contro
control
controll
controlle
controlled
controlling
controv
controve
controver
controvers
controversi
controversia
controversial
controversy
conv
conve
convection
convective
conven
conveni
convenie
convenien
convenient
convention
conventional
conver
converg
converge
convergen
convers
conversation
conversion
convert
converte
converted
converting
convex
convey
convi
convic
convict
conviction
convin
convinc
convince
convinced
convincing
convo
convoy
conwa
conway
coo
cook
cooking
cool
cooling
coon
coop
coope
cooper
cooperation
cooperative
coor
coord
coordi
coordin
coordina
coordinat
coordinate
coordinated
coordination
coordinator
cop
copenhagen
copi
copie
copies
copp
coppe
copper
copy
copyright
cor
coral
corb
corinth
cork
corn
corne
cornel
corneli
cornell
corner
cornish
cornw
cornwa
cornwal
cornwall
cornwalli
cornwallis
coron
corona
coronation
corp
corpor
corpora
corporal
corporat
corporate
corporation
corps
corpu
corpus
corr
corre
correc
correct
correction
correctly
correspond
corresponde
corresponden
correspondenc
correspondence
correspondent
corresponding
corri
corrid
corridor
corro
corrup
corrupt
corruption
corv
cou
coul
could
coun
counc
counci
council
councillor
couns
counse
counsel
count
countdown
counterattack
countr
countri
countrie
countries
country
county
coup
coupl
couple
cour
coura
courag
courage
couri
courie
courier
cours
course
court
courth
courtho
courthou
courthous
courthouse
courtship
cous
cousi
cousin
cov
cove
coven
covenan
covenant
covent
cover
coverag
coverage
covering
cow
cowa
cowar
coward
cowboy
cowboys
cox
cr
cra
crab
crack
craf
craft
crai
craig
cran
crash
crat
crate
crater
craw
crawford
crawl
craz
crazy
cre
crea
cream
creat
creating
creation
creative
creator
creatur
creature
creatures
cred
credi
credit
credits
crew
cri
crick
cricke
cricket
crim
crime
crimi
crimin
crimina
criminal
crimson
cripp
crippl
cris
crisi
crisis
crisp
crist
crit
criti
critic
critical
critically
criticiz
criticize
criticized
criticizing
critics
critique
cro
croa
croat
croati
croatia
croatian
croc
croco
crocod
crocodi
crocodil
crocodile
crof
croft
crom
cromw
cromwe
cromwel
cromwell
cron
crook
crop
crops
cros
crosb
crosby
cross
crossing
crossov
crossove
crossover
crow
crowd
crowl
crowle
crowley
crown
cru
cruc
cruci
crucia
crucial
crucif
crucifi
crui
cruis
cruise
cruiser
cruisers
cruising
crus
crusa
crusad
crusade
crusader
crusaders
crush
crust
crusta
cruz
cry
crying
cryp
crypt
crys
cryst
crysta
crystal
cu
cub
cuba
cuban
cubi
cubic
cul
cull
culm
culmi
culmin
culmina
culminat
culminating
culp
cult
culti
cultiv
cultiva
cultivat
cultivati
cultivatio
cultivation
cultu
cultur
cultura
cultural
culture
culv
culve
culver
cum
cumb
cumbe
cumber
cumberl
cumberla
cumberlan
cumberland
cumu
cumul
cun
cunningham
cup
cur
curious
curr
curre
curren
current
currently
curri
curric
curricu
curricul
curriculu
curriculum
curtain
curv
curve
curved
curving
cus
cusp
cust
custo
custod
custody
custom
cut
cy
cyan
cyb
cybe
cyber
cyc
cycl
cycle
cycling
cyclo
cyclon
cyclone
cyclonic
cyl
cyli
cylin
cylind
cylindr
cylindric
cylindrica
cylindrical
cyn
cyni
cynic
cyp
cypr
cypru
cyprus
cyr
cyri
cyril
cyru
cyrus
cz
cze
czech
czecho
czechos
czechosl
czechoslo
czechoslov
czechoslova
czechoslovak
czechoslovaki
czechoslovakia
d
da
dall
dalla
dallas
dam
damag
damage
damaged
damaging
damon
damp
dan
danc
dance
dancing
dang
dange
danger
dangero
dangerou
dangerous
dani
danie
daniel
danish
dann
danny
danub
danube
darwin
dash
daugh
daught
daughte
daughter
dave
davenport
davi
david
davidson
davis
dawson
day
daylight
daytim
daytime
dayton
death
debut
decemb
decembe
december
deception
decim
decision
deck
decline
declined
declining
decommission
decommissione
decommissioned
decompression
decorat
decorate
decorated
decoration
decorations
decorative
dedicated
dedication
default
defensive
defici
deficit
defin
define
defined
defini
defining
definit
definite
definitely
definition
definitive
delawar
delaware
delhi
deliberat
deliberate
deliberately
deliver
delivering
delivery
democratic
demographic
demolish
demolishe
demolished
demolition
demonstration
demonstrations
denomination
denounced
departure
depict
depicting
depiction
depictions
deposed
deposit
deposition
deposits
depot
depression
deprived
depth
derby
derivative
describ
describe
described
describing
description
deserve
design
designation
destination
destinations
destructive
detachment
determin
determination
determine
determined
determining
develop
developing
developm
developme
developmen
development
device
devices
devil
devon
devotion
dext
dexte
dexter
di
diag
diagn
diagno
diagnos
diagnosi
diagnosis
diagr
diagram
dial
diale
dialec
dialect
dialogu
dialogue
diam
diame
diamet
diamete
diameter
diamond
dian
diana
dick
dickinson
dictator
diction
dictiona
dictionar
dictionary
did
diff
diffe
differ
differe
differen
differenc
difference
differences
different
differently
diffic
difficu
difficul
difficult
difficulti
difficultie
difficulties
difficulty
diffusion
dig
digg
digging
digi
digit
digita
digital
digitally
dign
digni
dignit
dignity
dimension
dimensiona
dimensional
dimensions
diminished
dinosaur
dinosaurs
dioxid
dioxide
diplom
diploma
diplomat
diplomati
diplomatic
dir
dire
direc
direct
directing
direction
directive
directly
director
dirt
dirty
dis
disabili
disabilit
disability
disable
disabled
disadvant
disadvanta
disadvantag
disadvantage
disag
disagr
disagre
disagree
disagreed
disagreem
disagreeme
disagreemen
disagreement
disapp
disappe
disappea
disappear
disappearan
disappearanc
disappearance
disappo
disappoi
disappoin
disappoint
disappointing
disappointm
disappointme
disappointmen
disappointment
disapprov
disastrous
disb
disba
disban
disband
disbande
disbanded
disc
disch
discha
dischar
discharg
discharge
discharged
disci
discip
discipl
disciplin
discipline
disco
discography
discon
discont
disconti
discontin
discontinu
discontinue
discontinued
discount
discour
discoura
discourag
discourage
discouraged
discours
discourse
discov
discove
discover
discovering
discovery
discrimination
discu
discus
discuss
discussing
discussion
discussions
disemb
disgu
disguis
disguise
disguised
disgus
disgust
dish
disin
disint
disinte
disk
dism
disma
disman
dismant
dismantl
dismantle
dismantled
dismay
dismi
dismis
dismiss
dismissal
disn
disne
disney
disor
disord
disorde
disorder
disorganized
disp
dispa
dispar
dispara
dispat
dispatch
dispatche
dispatched
dispe
dispen
dispens
disper
dispers
displ
displa
displac
displace
displaced
displacem
displaceme
displacemen
displacement
display
displaying
disple
displea
displeas
dispos
disposa
disposal
disposition
dispu
disput
dispute
disputed
disrup
disrupt
disruption
dissolution
dissolved
dist
distan
distanc
distance
disti
distin
distinc
distinct
distinction
distinctive
distinguish
distor
distort
distorte
distorted
distortion
distr
distra
distrac
distract
distre
distres
distress
distri
distribut
distributi
distributio
distribution
distributo
distributor
distric
district
distu
distur
disturb
disturba
disturban
disturbanc
disturbance
disturbing
div
diva
dive
diver
diverg
diverge
divergen
divers
diversi
diversion
diversit
diversity
divert
divi
divid
divide
divided
dividing
divin
divine
division
divo
divor
divorc
divorce
divorced
dix
dixon
dj
djo
do
doc
dock
docky
dockya
dockyar
dockyard
doct
docto
doctor
doctr
doctrin
doctrine
docu
docum
docume
documen
document
documenta
documentar
documentary
documentation
dog
dogg
dogge
dogget
doggett
doing
doll
dolla
dollar
dollars
dolphin
dolphins
dom
doma
domain
dome
domes
domest
domesti
domestic
domi
domin
domina
dominan
dominanc
dominance
dominant
dominat
dominate
dominated
domination
domini
dominic
dominica
dominican
dominion
don
donal
donald
donation
donations
dong
doo
doom
door
doorw
doorwa
doorway
dop
dopa
dopp
doroth
dorothy
dou
doub
doubl
double
doubt
doug
dougl
dougla
douglas
dov
dove
dover
dow
down
downg
downgr
downgra
downgrad
downgrade
downgraded
downtown
downwar
downward
doz
doze
dozen
dozens
draf
draft
dragg
dragge
dragged
dragon
dragoon
drain
draina
drainag
drainage
dramatic
dramatically
draught
dreadnought
dreadnoughts
drink
drinking
drive
driven
driver
drivers
driving
drom
drop
dropp
droppe
dropped
dropping
drought
drov
drove
drown
drowning
drug
drum
drummer
drummond
drums
du
dual
dub
dubb
dubbe
dubbed
dubl
dubli
dublin
duch
ducho
duchov
duchovn
duchovny
duchy
duck
ducks
duff
duk
duke
dull
dumb
dump
dung
dur
duran
duration
durh
durha
durham
during
dv
dvd
dwar
dwarf
dwelling
dynamic
e
ea
each
ead
eag
eagl
eagle
eagles
eal
ear
earl
earli
earlie
earlier
early
earn
earning
earp
earth
earthquak
earthquake
earthw
earthwo
earthwor
eas
easi
easily
east
eastbound
eastw
eastwa
eastwar
eastward
eastwo
eastwoo
eastwood
eat
eating
eaton
eb
ec
ecc
ecce
eccen
eccent
eccentr
eccentric
eccl
eccle
eccles
ecclesi
ecclesia
ecclesias
ecclesiast
ecclesiasti
ecclesiastic
ecclesiastica
ecclesiastical
ech
echo
ecl
ecli
eclip
eclips
eclipse
eco
ecol
ecolo
ecolog
ecologi
ecologic
ecologica
ecological
ecology
econom
economi
economic
economically
economy
ecos
ecosy
ecosys
ecosyst
ecosyste
ecosystem
ecu
ecw
ed
edd
eddi
eddie
eddy
edg
edga
edgar
edge
edi
edible
edinburgh
edit
editing
edition
edito
editor
editori
editorial
edm
edmon
edmont
edmonton
edmu
edmun
edmund
edu
educ
educa
educat
educate
educated
education
educational
edw
edwa
edwar
edward
edwin
ef
eff
effe
effec
effect
effective
effectively
effects
effi
effic
effici
efficie
efficien
efficienc
efficiency
efficient
effo
effor
effort
efforts
eg
egg
eggs
ego
egy
egyp
egypt
egypti
egyptia
egyptian
eh
eigh
eight
eighteenth
eighth
ein
eins
einst
einste
einstein
eisenhow
eisenhowe
eisenhower
eithe
either
ej
eje
ejec
eject
ek
el
elabor
elabora
elaborat
elaborate
elaborated
elbow
election
elector
electora
electoral
electric
electrical
electricity
electromagnetic
electron
electronic
electrons
elegan
elegant
elephant
elevator
eleven
eleventh
eligib
eligibi
eligibil
eligibili
eligibilit
eligibility
eligible
elimina
eliminat
eliminate
eliminated
eliminating
elimination
eliz
eliza
elizab
elizabe
elizabeth
ell
elli
ellio
elliot
elliott
elong
elonga
elongat
elongate
elongated
elsewh
elsewhe
elsewher
elsewhere
elvi
elvis
ely
em
ema
emai
email
eman
emanc
emanci
emancip
emancipation
emanu
emanue
emanuel
emb
emba
embar
embark
embarr
embarra
embarras
embarrass
embl
emble
emblem
embo
embod
embodi
embodie
embr
embra
embrac
embry
embryo
eme
emer
emeral
emerald
emerg
emerge
emerged
emergen
emergenc
emergency
emerging
emerson
emi
emig
emigr
emigra
emigrat
emigrate
emigrated
emil
emili
emily
emin
emine
eminem
eminen
eminent
emission
emissions
emm
emma
emme
emmy
emotion
emotiona
emotional
emotionally
emp
empe
emper
emperor
emph
empha
emphas
emphasi
emphasis
emphasiz
empi
empir
empire
empl
emplo
employ
employing
employm
employme
employmen
employment
empow
empowe
empower
empt
empty
emu
emul
emula
emulat
emulate
en
enabl
enable
enabled
enabling
enc
enchan
enchant
enci
encir
encirc
encircl
encircle
encl
enclo
enclos
enclosu
enclosur
enclosure
enco
encomp
encompa
encompas
encompass
encou
encoun
encount
encounte
encounter
encour
encoura
encourag
encourage
encouraged
encouraging
encr
ency
encyc
encycl
encyclop
encyclope
encycloped
encyclopedi
encyclopedia
end
endang
endange
endanger
endangere
endangered
endemic
ending
endor
endors
endorse
endorsed
endorsem
endorseme
endorsemen
endorsement
endow
endur
enduran
enduranc
endurance
enduring
enemy
enfo
enfor
enforc
enforce
enforced
enforcem
enforceme
enforcemen
enforcement
eng
enga
engag
engage
engaged
engagem
engageme
engagemen
engagement
engaging
engi
engin
engine
engl
engla
englan
england
english
engr
engra
engraving
enh
enha
enhan
enhanc
enhance
enhanced
enig
enigm
enigma
enix
enjo
enjoy
enjoyabl
enjoyable
enjoying
enl
enla
enlar
enlarg
enlarge
enlarged
enli
enlight
enlighte
enlighten
enlis
enlist
enormous
enough
enqui
enquir
ensembl
ensemble
ensign
ensur
ensure
ensured
ensuring
ent
ente
enter
entering
enterp
enterpr
enterpri
enterpris
enterprise
entertain
entertaining
entertainm
entertainme
entertainmen
entertainment
enth
enthu
enthus
enthusi
enthusia
enthusias
enthusiasm
enthusiast
enthusiasti
enthusiastic
enti
entir
entire
entirely
entr
entra
entran
entranc
entrance
entry
env
envelop
envelope
envi
envir
environ
environm
environme
environmen
environment
environmental
envis
envision
envisione
envisioned
enz
enzy
enzym
enzyme
enzymes
ep
eph
epi
epic
epid
epide
epidem
epidemi
epidemic
epil
epis
episc
episcop
episcopa
episcopal
episo
episod
episode
epist
epith
epithe
epithet
epon
epony
eponym
eponymo
eponymou
eponymous
equ
equa
equal
equally
equat
equati
equatio
equation
equations
equato
equator
eque
eques
equest
equestrian
equi
equil
equili
equilib
equilibr
equilibri
equilibriu
equilibrium
equip
equipm
equipme
equipmen
equipment
equipp
equippe
equipped
equit
equity
equiv
equiva
equival
equivale
equivalen
equivalent
er
era
eri
eric
erik
erin
ern
ero
erod
erode
eroded
erosion
erot
eroti
erotic
err
erra
erron
error
erup
erupt
erupte
erupted
eruption
eruptions
es
esc
esca
escal
escala
escalat
escap
escape
escaped
escaping
esch
esche
esco
escor
escort
escorting
esp
espe
especially
espn
ess
essa
essay
esse
essen
essenc
essence
essent
essenti
essentia
essential
essentially
essex
est
esta
establish
establishing
establishm
establishme
establishmen
establishment
estat
estate
esti
estim
estima
estimat
estimate
estimated
eston
estoni
estonia
estrange
estu
estua
estuar
estuary
eth
etha
ethan
ethano
ethanol
ethi
ethic
ethical
ethics
ethiop
ethiopi
ethiopia
ethn
ethni
ethnic
etymology
eu
euc
eug
euge
eugen
euph
eur
eura
euras
eurasi
eurasia
eurasian
euro
eurog
euroga
eurogam
eurogame
eurogamer
europ
europa
europe
europea
european
eurovision
ev
eva
evac
evacu
evacua
evacuat
evacuate
evacuated
evacuation
eval
evalu
evalua
evaluat
evaluate
evaluated
evaluation
evan
evang
evange
evangel
evangeli
evangelic
evangelica
evangelical
evans
evap
evapo
evapor
eve
even
evening
event
events
eventu
eventual
eventually
ever
everton
every
everyb
everybo
everybod
everybody
everyon
everyone
everything
everywher
everywhere
evi
evid
evide
eviden
evidenc
evidence
evident
evil
evo
evok
evoke
evol
evolu
evolution
evolv
evolve
evolved
ew
ex
exa
exac
exace
exacer
exacerba
exacerbat
exacerbate
exact
exactly
exag
exagg
exagge
exagger
exaggera
exaggerat
exaggerate
exaggerated
exam
exami
examin
examination
examining
exampl
example
exc
excava
excavat
excavate
excavated
exception
exceptional
exceptionally
excessive
exch
excha
exchan
exchang
exchange
exclu
exclud
excluding
exclusion
exclusive
exclusively
exe
exec
execu
execut
execute
executed
execution
executive
exempl
exempli
exemplif
exemplifi
exemplifie
exer
exerc
exerci
exercis
exercise
exercises
exh
exha
exhau
exhaus
exhaust
exhi
exhib
exhibi
exhibit
exhibiti
exhibitio
exhibition
exi
exil
exile
exis
exist
existing
exit
exo
exot
exoti
exotic
exp
expan
expand
expanding
expectations
expenditure
expensive
experimentation
expl
expla
explai
explain
explaining
explan
explana
explanat
explanati
explanation
expli
explic
explici
explicit
explicitly
explo
exploi
exploit
exploitation
explor
exploration
exploring
explos
explosi
explosion
explosiv
explosive
expo
expon
expor
export
expos
exposition
exposu
exposur
exposure
expression
ext
extan
extant
exte
exten
extend
extending
extens
extension
extensiv
extensive
extensively
exter
exteri
exterio
exterior
exterm
extermi
extermin
extern
externa
external
exti
extin
extinc
extinct
extinction
extinguish
extr
extra
extrac
extract
extraction
extraor
extraord
extraordi
extraordin
extraordina
extraordinar
extraordinary
extratrop
extratropi
extratropic
extratropica
extratropical
extrav
extrava
extravag
extravaga
extravagan
extre
extrem
extreme
extremely
ey
eye
eyes
eyew
eyewa
eyewal
eyewall
ez
f
fa
fab
fabi
fabr
fabri
fabric
fac
face
facebook
faced
faci
facial
facil
facili
facilit
facilita
facilitat
facilitate
faciliti
facilitie
facilities
facility
facing
fact
faction
factions
facto
factor
factory
facul
facult
faculty
fai
fail
failing
failu
failur
failure
fair
fairb
fairba
fairban
fairbank
fairbanks
fairly
fairy
faith
faithful
fak
fake
fal
falcon
falk
falkl
falkla
falklan
falkland
fall
falling
fallout
fals
false
fam
fame
fami
famil
famili
familia
familiar
familie
families
family
famous
fan
fant
fanta
fantas
fantast
fantastic
fantasy
far
farm
farming
farmland
farth
farthe
farther
fashi
fashio
fashion
fashionabl
fashionable
fath
fathe
father
fatigu
fatigue
fau
faul
fault
faun
fauna
fav
favo
favor
favorable
favorably
favori
favorit
favorite
favour
favourable
favouri
favourit
favourite
fb
fbi
fe
fea
fear
fearing
feas
feast
feat
feath
feathe
feather
feathers
featu
featur
feature
featured
features
featuring
feb
febr
febru
februa
februar
february
feedback
fel
feli
felix
fell
fellow
fellowship
felt
fem
fema
femal
female
femin
femini
feminin
feminine
feminis
feminist
ferdinand
ferguson
fernando
festival
fever
few
fi
fianc
fib
fibr
fiction
fictional
fif
fift
fifte
fiftee
fifteen
fifteenth
fifth
fifty
fight
fighting
figu
figur
figure
figures
fij
fiji
fil
filipino
fill
filling
film
filming
filmmak
filmmake
filmmaker
filmmakers
fin
fina
final
finally
finan
financ
financi
financia
financial
financially
financing
finch
find
finding
fing
finge
finger
fingers
finish
finishing
finland
finn
finnish
fir
fire
fireb
firefight
firing
firm
firmly
firs
first
fish
fishing
fiv
five
fix
fixtur
fixture
fl
fla
flag
flagship
flam
flame
flames
flan
fland
flande
flander
flanders
flank
flash
flashback
flashbacks
flat
flav
flavo
flavor
flaw
flaws
fle
flee
fleet
flem
fleming
flemish
flesh
flew
flex
flexi
flexibl
flexible
fli
flick
flight
flin
flint
flo
floa
float
floating
floo
flood
flooding
floor
flor
flora
flori
florid
florida
flot
floti
flotil
flotill
flotilla
flour
flourish
flow
flu
fluc
flui
fluid
fluor
fluori
fluorid
fluoride
fly
flying
fo
foc
focu
focus
focusing
fog
fol
fold
folding
foli
folio
folk
folkl
folklor
folklore
foll
follow
following
fon
fond
font
foo
food
fool
foot
footag
footage
footb
footba
footbal
football
footh
footp
for
forbi
forbid
forbidd
forbidde
forbidden
forc
force
forgive
form
formally
formation
formu
formul
formula
forthcoming
fortifi
fortification
fortifications
fortifie
fortified
forward
fos
foss
fossi
fossil
fost
foste
foster
fou
fought
foul
foun
found
foundation
fount
founta
fountain
four
fourteenth
fourth
fow
fowl
fowle
fowler
fox
fr
fra
frac
fract
fraction
fractur
fracture
frag
fragi
fragil
fragile
fragm
fragme
fragmen
fragment
fragments
fram
frame
framew
framewo
framewor
framework
fran
franc
france
franch
franchi
franchis
franchise
franci
francis
francisc
francisco
franco
frank
frankfurt
frankl
frankli
franklin
franz
frau
fraud
fre
frea
freak
fred
free
freedom
freely
freeman
freew
freewa
freeway
freez
freezing
freight
fren
french
frequency
frequent
frequently
fresh
freshm
freshma
freshman
freshwat
freshwate
freshwater
frey
fri
fria
friar
friction
frid
frida
friday
frie
fried
friedr
friedri
friedrich
frien
friend
friendly
friends
friendship
frig
friga
frigat
frigate
frigates
fright
frighte
frighten
fring
fringe
frit
fritz
fro
frog
frogs
from
fron
front
fros
frost
froz
froze
frozen
fru
frui
fruit
frus
frust
frustr
frustra
frustrat
frustrate
frustrated
frustration
fry
ft
fu
fuck
fug
fuj
fuji
ful
fulf
fulfi
fulfil
fulfill
full
fully
fumbl
fumble
fun
function
functional
functioning
fund
fundam
fundame
fundamen
fundament
fundamenta
fundamental
funding
fung
fungi
fungu
fungus
funk
funn
funne
funnel
funny
fur
furious
furn
furna
furnac
furnace
furni
furnit
furnitu
furnitur
furniture
furth
furthe
further
furthermor
furthermore
fusion
fut
futu
futur
future
futuri
futuris
futurist
futuristic
g
ga
gab
gable
gabr
gabri
gabrie
gabriel
gag
gaga
gai
gain
gaining
gal
gala
galac
galact
galacti
galactic
galax
galaxi
galaxie
galaxies
galaxy
gali
galil
galile
galileo
gall
gallagh
gallaghe
gallagher
gallan
gallant
gallipoli
gallon
gallons
gallow
galveston
gam
gamb
gambl
gambling
game
gamecub
gamecube
gamep
gamepl
gamepla
gameplay
gamespot
gaming
gamm
gamma
gan
gand
gandhi
gang
gap
gar
garag
garage
garb
garba
garbag
garbage
garc
garci
garcia
gard
garde
garden
gardn
gardne
gardner
garfi
garfie
garfiel
garfield
garland
garn
garne
garner
garr
garrison
gary
gas
gasolin
gasoline
gat
gate
gatehouse
gatesh
gateshe
gateshea
gateshead
gatew
gatewa
gateway
gath
gathe
gather
gathering
gau
gaug
gauge
gaul
gav
gave
gavin
gay
gaz
gaza
gaze
gazet
gazett
gazette
gb
ge
gea
gear
gem
gemi
gemin
gen
gene
gener
genera
general
generally
generat
generate
generated
generating
generation
generator
generators
generic
generous
genetic
genetically
genev
geneva
geno
genoc
genoci
genocid
genom
genome
genu
genui
genuin
genuine
genus
geo
geoff
geoffr
geoffre
geoffrey
geog
geogr
geogra
geograph
geographi
geographic
geographica
geographical
geography
geol
geolog
geologi
geologic
geologica
geological
geology
geom
geome
geomet
geometr
geometri
geometric
geometry
geor
georg
george
georgetown
georgi
georgia
ger
gera
geral
gerald
gerar
gerard
germ
germa
german
germanic
germany
gerr
gerry
gesture
get
gettysburg
gh
gha
gho
ghos
ghost
gi
gia
gian
giant
giants
gib
gibb
gibbon
gibbs
gibr
gibra
gibral
gibralt
gibralta
gibraltar
gibson
gif
gift
gig
giga
gil
gilb
gilbe
gilber
gilbert
gill
gilli
gillia
gillian
gim
gin
giov
giova
giovan
giovann
giovanni
gir
girl
girlfri
girlfrie
girlfrien
girlfriend
girls
giro
giu
giv
give
given
giving
gl
gla
glac
glaci
glacia
glacial
glacie
glacier
glaciers
glad
glam
glan
gland
glands
glas
glasgow
glass
glastonbury
glaz
gle
glen
glenn
gli
glid
glide
glider
gliders
glit
glo
glob
globa
global
globally
glor
glori
gloria
glorious
glory
glos
gloss
glou
glouc
glouce
glouces
gloucest
glouceste
gloucester
gloucestershire
glov
glove
glu
glut
gly
go
goa
goal
goalk
goalke
goalkee
goalkeep
goalkeepe
goalkeeper
god
godwin
going
gol
gold
goldb
goldf
goldman
golf
gom
gome
gon
gond
gone
gong
gonn
gonna
gonz
gonza
gonzal
goo
good
goodb
goodby
goodbye
goodman
goodw
goodwi
goog
googl
google
gop
gordon
goth
gotha
gothi
gothic
goul
gould
gov
gove
gover
govern
governan
governanc
governance
governm
governme
governmen
government
governo
governor
gow
gr
gra
grab
grac
grace
grad
grade
gradu
gradua
gradually
graduat
graduate
graduated
graduating
graduation
graf
graff
grah
graha
graham
grain
gram
gramm
gramma
grammar
grammy
gran
grana
grand
grandfath
grandfathe
grandfather
grandmoth
grandmothe
grandmother
grandson
grani
granit
granite
grant
granting
grap
grape
graph
graphi
graphic
graphical
graphics
gras
grasp
grass
grassland
grat
grati
grav
grave
gravel
graves
gravi
gravit
gravitation
gravitationa
gravitational
gravity
gray
graz
grazing
gre
grea
great
greatly
grec
greco
gree
greek
green
greenhouse
greenland
greenw
greenwi
greenwich
greenwo
greenwoo
greenwood
greg
grego
gregor
gregory
gren
grena
grenad
gret
grew
grey
greyhound
gri
grid
griff
griffi
griffin
griffith
grill
grim
grin
grind
grip
gro
groov
groove
gros
gross
grossing
ground
group
grov
grove
groves
grow
growing
grown
growth
gru
grun
grung
grunge
grupp
gruppe
gu
gua
guad
guada
guadal
guadalc
guadalca
guadalcan
guadalcana
guadalcanal
guam
guan
guar
guara
guaran
guarant
guarante
guarantee
guaranteed
guard
guardi
guardia
guardian
guat
guate
guatem
guatema
guatemal
guatemala
gub
gube
guber
gubern
guberna
gubernat
gubernato
gubernator
gubernatori
gubernatoria
gubernatorial
guerrilla
gui
guid
guidan
guidanc
guidance
guide
guidelin
guideline
guidelines
guil
guild
guill
guilt
guilty
guin
guine
guinea
guit
guita
guitar
gulf
gun
gunf
gunfi
gunfir
gunfire
gunn
gunpow
gunpowd
gunpowde
gunpowder
guns
guy
gw
gwy
gwyn
gy
gym
gymn
gymna
gymnas
gyp
gyps
h
ha
hab
habi
habit
habita
habitat
habsburg
hack
had
hag
hai
hail
hair
hait
haiti
hak
hal
half
halftim
halftime
halfw
halfwa
halfway
hali
halif
halifa
halifax
hall
hallow
hallowe
hallowee
halloween
halo
halt
halv
ham
hama
hamas
hamasa
hamasak
hamasaki
hamburg
hami
hamil
hamilt
hamilton
haml
hamle
hamlet
hamlin
hamm
hamme
hammer
hammon
hammond
hamp
hampshir
hampshire
hampton
han
hancock
hand
handful
handh
handhe
handhel
handheld
handic
handl
handle
handled
handling
handsom
handsome
hang
hanga
hangar
hanging
hank
hann
hanna
hannah
hanov
hanove
hanover
hans
hap
happ
happe
happen
happening
happin
happine
happines
happiness
happy
har
hara
haral
harald
haras
harass
harb
harbor
harbour
hard
hardcor
hardcore
harding
hardly
hardw
hardwa
hardwar
hardware
hardy
harm
harmful
harmon
harmoni
harmonic
harmony
haro
harol
harold
harp
harr
harri
harrie
harrier
harriet
harris
harrison
harry
harsh
hart
hartford
hartl
hartle
hartm
hartma
hartman
haru
harv
harve
harves
harvest
harvey
has
hat
hatch
hath
hau
haul
haun
haunt
hav
hava
havan
havana
have
havi
havil
havill
havilla
havillan
havilland
having
haw
hawa
hawai
hawaii
hawaiia
hawaiian
hawk
hawkin
hawkins
hay
hayw
haz
haza
hazar
hazard
hbo
he
headquarter
headquartere
headquartered
headquarters
health
healthy
heath
heaven
heavi
heavie
heavier
heavily
heavy
heavyw
heavywe
heavyweight
height
hel
held
helicopt
helicopte
helicopter
helicopters
helium
helm
help
helping
henderson
hendrix
henson
hepburn
her
herb
hercul
hercule
hercules
hereford
heritage
herman
hermann
herself
hersh
herzegovina
hi
hib
hick
hid
hidd
hidde
hidden
hide
hiding
hierarchy
hig
higg
higgi
higgin
higgins
high
highland
highlands
highlight
highlighting
highly
highw
highwa
highway
hijack
hik
hil
hill
him
himself
hin
hind
hindu
hint
hipp
hippe
hipper
hippo
hir
hire
hired
hiring
hiroshima
his
hispanic
histor
histori
historia
historian
historians
historic
historica
historical
historically
history
hit
hitchcock
hm
hms
ho
hob
hoba
hobb
hobbs
hock
hocke
hockey
hoff
hoffm
hoffma
hoffman
hog
hoga
hogan
hogg
hok
hoki
hokie
hokies
hol
hold
holding
holi
holid
holida
holiday
holl
holla
hollan
holland
holli
hollow
holly
hollyw
hollywo
hollywoo
hollywood
holm
holme
holmes
holo
holoc
holoca
holocau
holocaus
holocaust
holy
hom
homa
homag
homage
home
homeland
hometown
homi
homic
homici
homicid
homicide
homo
homos
homose
homosex
homosexu
homosexua
homosexual
homosexuali
homosexualit
homosexuality
hon
hond
hondu
hondur
hondura
honduras
hone
hones
honest
honey
hong
hono
honor
honorable
honou
honour
hoo
hood
hook
hoov
hoove
hop
hope
hoped
hoping
hopk
hopki
hopkin
hopkins
hopp
hor
hora
horac
horace
horizon
horizont
horizonta
horizontal
hormon
hormone
horn
horr
horro
horror
hors
horse
horsepower
horses
hos
hosp
hospi
hospit
hospita
hospital
host
hostag
hostage
hosting
hot
hou
hour
hours
hous
house
househ
househo
househol
household
households
housing
houston
hov
hove
how
howe
howev
howeve
however
hoy
hu
hub
hubb
hubba
hubbar
hubbard
hud
hudson
hug
huge
hugh
hugo
hul
hulk
hull
hum
huma
human
humanitarian
humb
humbe
humber
humbl
humi
humid
humil
humili
humm
humo
humor
humorous
humour
humph
humphr
humphre
humphrey
hun
hund
hundr
hundre
hundred
hundreds
hung
hunga
hungar
hungari
hungaria
hungarian
hungary
hunt
hunting
hur
hurl
hurle
hurley
huron
hurr
hurri
hurric
hurrica
hurrican
hurricane
hurt
hus
husb
husba
husban
husband
husk
huss
hut
hutchinson
hutton
hv
hy
hyb
hybr
hybri
hybrid
hyd
hydr
hydra
hydrau
hydraul
hydrauli
hydraulic
hydro
hydrog
hydroge
hydrogen
hyg
hym
hymn
hymns
hyp
hype
hyper
hyph
hypha
hyphae
hypo
hypoth
hypothe
hypothes
hypothesi
hypothesis
i
ib
ibn
icelandic
icon
iconi
iconic
idaho
identical
identifi
identification
identifie
identified
identify
identifying
if
ig
ign
ignor
ignoran
igua
iguan
ij
ill
illegitimat
illegitimate
illinoi
illinois
illn
illne
illnes
illness
illu
illumin
illumina
illuminat
illuminate
illuminated
illus
illusion
illust
illustr
illustra
illustrat
illustrate
illustrated
illustration
illustrations
im
ima
imag
image
images
imagi
imagin
imagination
imb
imi
imit
imita
imitat
imitation
imm
imma
immat
imme
immed
immedi
immedia
immediat
immediate
immediately
immi
immig
immigr
immigra
immigran
immigrant
immigrants
immigration
immor
immort
immorta
immortal
immu
immun
immuni
immunit
immunity
imp
impa
impac
impact
impe
imped
impedan
impedanc
impedance
impen
impend
impending
imper
imperi
imperia
imperial
imperson
impl
impla
implan
implant
imple
implem
impleme
implemen
implement
implementation
impli
implic
implica
implicat
implicati
implicatio
implication
implications
impo
impor
import
importa
importan
importanc
importance
important
impos
imposs
impossi
impossib
impossibl
impossible
impr
impre
impres
impress
impresse
impressed
impression
impressive
impri
imprison
imprisonm
imprisonme
imprisonmen
imprisonment
impro
improv
improving
impu
impul
impuls
in
inaccura
inaccurat
inaccurate
inadequate
inapp
inappr
inappro
inapprop
inappropr
inappropri
inappropria
inappropriat
inappropriate
inaugur
inaugura
inaugural
inauguration
incarnation
incentive
inception
inclu
includ
including
inclusion
incom
income
incomp
incompl
incomple
incomplet
incomplete
incon
incons
inconsi
inconsis
inconsist
inconsiste
inconsisten
inconsistent
incor
incorpor
incorpora
incorporat
incorporate
incorporated
incorporating
incorporation
incorr
incorre
incorrec
incorrect
incorrectly
increasingly
incredibly
incub
incumb
incumbe
incumben
incumbent
incurr
incurre
incurred
indefini
indefinit
indefinite
indian
indianapolis
indicat
indicate
indicated
indicating
indication
indiff
indiffe
indiffer
indiffere
indifferen
indigenous
indiv
indivi
individ
individu
individua
individual
individually
individuals
indon
indone
indones
indonesi
indonesia
indonesian
induc
induct
inducte
inducted
indulg
indulge
industrial
ineff
inevitable
inexp
inf
infa
infam
infamou
infamous
infan
infant
infantr
infantry
infe
infec
infect
infecte
infected
infection
infectious
infer
inferi
inferior
infes
infi
infil
infilt
infiltr
infiltra
infiltrat
infiltrate
infin
infini
infinit
infinite
infinity
infl
infla
inflam
inflamm
inflamma
inflammat
inflat
inflati
inflatio
inflation
infli
inflic
inflict
influ
influe
influen
influenc
influence
influenced
influent
influenti
influential
influenz
influenza
influx
info
infor
inform
informa
informat
informati
information
infr
infra
infras
infrast
infrastr
infrastru
infrastruc
infrastruct
infrastructu
infrastructur
infrastructure
infring
infringe
infu
inhab
inhabi
inhabit
inhabita
inhabitan
inhabitant
inhabitants
inheritance
inhg
inhib
inhibi
inhibit
inhibitor
initial
initially
initiative
inj
inje
injec
inject
injecti
injectio
injection
inju
injur
injuri
injurie
injuries
injury
innovation
innovations
innovative
inquir
inquiry
inscribe
inscribed
inscription
inscriptions
inspection
inspector
inspiration
install
installation
installe
installed
installm
installme
installmen
installment
instanc
instance
instinct
institution
institutions
instruct
instruction
instructions
instructor
instrum
instrume
instrumen
instrument
instrumenta
instrumental
instrumentation
instruments
insuffici
insufficie
insufficien
insufficient
insur
insura
insuran
insuranc
insurance
insurg
insurge
insurgen
insurgent
insurgents
integration
intellectual
intelligenc
intelligence
intelligent
intensified
intensive
intention
intentionally
interaction
interactions
interception
interceptions
interchange
international
internationally
interrupt
interrupte
interrupted
intersection
interven
intervene
intervened
intervention
intervi
intervie
interview
intima
intimat
intimate
intimi
intimid
intimida
intimidat
intricat
intricate
intrigu
intrigue
introduc
introduce
introduced
introducing
introduction
inva
invad
invade
invaded
invading
invasion
invent
invente
invented
invention
inventor
inventory
inves
invest
investi
investig
investiga
investigat
investigate
investigated
investigating
investigation
investigators
investm
investme
investmen
investment
investors
invi
invincible
invisible
invit
invitation
invite
invited
invo
invok
invoke
invol
involv
involve
involved
involvem
involveme
involvemen
involvement
involving
ion
ioni
ionia
iowa
iphon
iphone
iq
iranian
iraq
irish
iron
ironc
ironcl
ironcla
ironclad
ironclads
irvi
irvin
irving
irwin
is
ish
ishi
islam
islamic
island
isolation
isotop
isotope
isotopes
istanbul
it
italian
itself
iv
iva
ivan
ivor
ivy
iwa
ix
j
ja
jab
jac
jack
jacks
jackso
jackson
jacksonvi
jacksonvil
jacksonvill
jacksonville
jaco
jacob
jacqu
jacque
jacques
jag
jagd
jagu
jagua
jaguar
jai
jail
jain
jak
jaka
jakar
jakart
jakarta
jal
jam
jama
jamai
jamaic
jamaica
jame
james
jami
jamie
jamm
jan
janu
janua
januar
january
jap
japa
japan
jar
jard
jardi
jardin
jarr
jarre
jarret
jarrett
jason
jav
java
jaw
jaws
jay
jazz
jealous
jeff
jefferson
jennif
jennife
jennifer
jewish
jill
jim
jimm
jimmy
jin
jo
joan
joann
job
joh
joha
johan
johann
john
johnson
johnston
johor
joi
join
joining
jok
joke
joker
joking
jon
jonath
jonatha
jonathan
jone
jones
jor
jord
jordan
jorg
jos
jose
joseph
josh
joshu
joshua
jou
jour
journ
journa
journal
journali
journalis
journalism
journalist
journe
journey
jov
joy
joyc
joyce
ju
juan
jub
jubi
jubil
jud
juda
judg
judge
judgem
judgeme
judgemen
judgement
judgm
judgme
judgmen
judgment
judi
judic
judici
judicia
judicial
judith
judy
jug
juic
juice
jul
juli
julia
julian
juliu
julius
july
jump
jumping
jun
junction
june
jung
jungl
jungle
juni
junior
junk
jur
jura
juras
jurass
jurassic
juri
jurisdiction
jury
jus
just
justi
justic
justice
justif
justifi
justifie
justified
justify
justin
juv
juve
juven
juveni
juvenil
juvenile
juveniles
juvent
k
kag
kah
kahn
kam
kama
kami
kamp
kan
kang
kanga
kany
kanye
kapoo
kapoor
kapp
kappa
kash
kath
kelly
kemp
kentucky
kevin
keyboard
keyboards
kg
kh
kha
khal
khali
khalid
khan
khm
khme
khmer
khrushch
khrushche
khrushchev
khu
ki
kick
kicking
kickoff
kid
kidn
kidnapp
kidnappe
kidnapped
kids
kil
kill
kille
killed
killing
kilo
kilog
kilogr
kilogra
kilogram
kilograms
kilom
kilome
kilomet
kilometr
kilometre
kilometres
kim
kimb
kin
kind
king
kingd
kingdo
kingdom
kingston
kink
kip
kir
kirby
kirk
kis
kiss
kissing
kit
kitch
kitche
kitchen
kitt
kitty
km
knif
knife
knight
knock
knockou
knockout
know
knowing
knowl
knowle
knowled
knowledg
knowledge
knowles
known
knox
ko
kob
koch
koh
kohl
kok
kol
kom
komb
komba
kombat
kon
kong
kor
kore
korea
korean
kosovo
kov
krish
krishn
krishna
kron
krug
kual
kuala
kub
kubrick
kum
kuma
kumar
kur
kurt
l
la
lab
labo
labor
labora
laborat
laborato
laborator
laboratory
labour
lac
lack
lacking
lacr
lacro
lacros
lacross
lacrosse
lad
ladi
ladie
ladies
lady
laf
lafa
lafay
lafaye
lafayet
lafayett
lafayette
lag
lago
lagoon
lagu
lah
lai
laid
lair
lak
lake
lam
lamb
lamp
lan
lanc
lanca
lancas
lancashir
lancashire
lancast
lancaste
lancaster
land
landf
landfa
landfal
landfall
landing
landlor
landlord
landown
landowne
landowner
landowners
lane
lang
langu
langua
languag
language
lank
lanka
lap
lar
larg
large
largely
lark
larki
larkin
larr
larry
larv
larva
larvae
las
lash
last
lasting
lat
late
later
lati
latin
latit
latitu
latitud
latitude
latt
latte
latter
lau
laud
laude
lauded
laugh
laun
launch
launching
laur
lav
lava
lavish
law
lawy
lawye
lawyer
lawyers
lay
laying
layout
laz
lb
le
lea
lead
leadership
leading
leaf
league
leak
leap
lear
learn
learning
leas
least
leath
leathe
leather
leav
leave
leaves
leaving
leb
leba
leban
lebanon
lectur
lecture
lectures
led
lef
left
leg
lega
legac
legacy
legal
legally
legi
legion
legis
legisl
legisla
legislat
legislati
legislation
legislativ
legislative
legislator
legislatu
legislatur
legislature
legit
legiti
legitim
legitima
legitimat
legitimate
leh
leic
leice
leices
leicest
leiceste
leicester
leigh
leipzig
leisure
lemon
lemur
lemurs
length
lengthy
lennon
leon
leona
leonar
leonard
leonardo
leop
leopa
leopar
leopard
leopold
leth
letha
lethal
lev
leva
leve
level
lever
levi
levin
lew
lewi
lewis
lex
lexi
lexing
lexingt
lexington
lez
lf
lh
li
lib
libe
libel
liber
libera
liberal
liberat
liberation
libert
liberta
liberti
libertie
liberties
liberty
libr
libra
librar
librari
library
libre
libret
librett
libretto
liby
libya
lic
lice
licen
licenc
licence
licens
license
licensed
licensing
lich
licht
lichte
lichten
lif
life
lifebo
lifeboa
lifeboat
lifelong
lifetim
lifetime
lift
lifting
lig
liga
light
lighth
lightho
lighthou
lighthous
lighthouse
lighting
lightly
lik
like
likelihood
likely
lill
lily
lim
limb
limbs
limi
limit
limitation
limitations
limiting
lin
linc
linco
lincol
lincoln
lincolnshire
lind
linda
lindw
lindwa
lindwal
lindwall
line
lineag
lineage
lineback
linebacke
linebacker
lineup
ling
lingu
lingui
linguis
linguist
linguisti
linguistic
link
linking
linn
linna
linnae
linnaeu
linnaeus
lion
lip
lipi
liqui
liquid
liquo
liquor
lis
lisa
lisb
lisbon
list
listing
lit
lite
liter
litera
literally
literar
literary
literat
literatu
literatur
literature
lith
lithi
lithiu
lithium
lithu
lithua
lithuan
lithuani
lithuania
lithuanian
litt
littl
little
liv
live
liverpool
livestock
living
livingston
liz
liza
lizar
lizard
ll
llan
llo
lloy
lloyd
lo
loa
load
loading
loan
lob
lobb
lobbi
lobbie
lobby
loc
loca
local
localization
localized
locally
locat
locate
located
location
loch
lock
lockh
locom
locomo
locomot
locomoti
locomotiv
locomotive
locomotives
locu
locus
lod
lodg
lodge
lodging
lof
loft
log
loga
logan
logg
logi
logic
logica
logical
logis
logist
logisti
logistic
logistics
logo
loi
lois
lok
lom
lomba
lombar
lombard
lon
lond
london
lone
lonely
long
longtim
longtime
loo
look
looking
loop
loos
loose
loosely
lop
lope
lopez
lor
lord
lori
loris
los
losing
lost
lot
lotu
lotus
lou
loud
loui
louis
louisi
louisian
louisiana
louisv
louisvi
louisvil
louisvill
louisville
lounge
lov
love
lovely
loving
low
lowland
loy
loya
loyal
loyali
loyalis
loyalist
loyalt
loyalty
lp
lu
lub
luc
luca
lucas
luci
lucia
luck
lucky
lucy
ludwig
luftwaff
luftwaffe
lug
luk
luke
lum
lumb
lumbe
lumber
lumi
lumin
lump
lun
luna
lunar
lunch
lund
lung
lup
luth
luthe
luther
lutheran
lux
luxu
luxur
luxury
luz
ly
lying
lyn
lynch
lynn
lyon
lyr
lyri
lyric
lyrical
lyrically
lyrics
m
ma
mac
maca
macarthur
macau
macb
macbe
macbeth
macdon
macdona
macdonal
macdonald
macedonia
macedonian
macf
macfa
macfar
macfarl
macfarla
macfarlan
macfarlane
mach
machi
machin
machine
mack
macki
mackin
macl
macm
macmi
macmil
macmill
macmillan
mad
madag
madaga
madagas
madagasc
madagasca
madagascar
madam
made
madh
madison
madon
madonn
madonna
madr
madra
madras
madri
madrid
mafi
mafia
mag
maga
magaz
magazi
magazin
magazine
magg
maggi
maggie
magi
magic
magica
magical
magis
magist
magistr
magistra
magistrat
magistrate
magm
magma
magn
magna
magnat
magnate
magne
magnet
magneti
magnetic
magni
magnif
magnifi
magnific
magnifice
magnificen
magnificent
magnit
magnitu
magnitud
magnitude
magnu
magnus
mah
maha
mahar
mai
maid
mail
main
mainland
mainly
maintain
maintaining
maintenance
maj
major
majori
majorit
majority
mak
make
makeup
making
mal
mala
malag
malaga
malagas
malagasy
malar
malari
malaria
malay
malays
malaysi
malaysia
malaysian
mall
malver
malvern
mam
mama
mamm
mamma
mammal
mammals
mammoth
man
mana
manag
manage
managed
managem
manageme
managemen
management
manager
managing
manch
manche
manches
manchest
mancheste
manchester
mang
manga
mangal
mangalo
mangalor
mangalore
manh
manha
manhat
manhatt
manhatta
manhattan
manif
manife
manifes
manifest
manifestation
manipul
manipula
manipulat
manitoba
mankin
mankind
mann
manne
manner
manning
manor
manpower
mansion
manu
manual
manuf
manufa
manufac
manufact
manufactu
manufactur
manufacture
manufactured
manufacturer
manufacturers
manufacturing
many
manz
mao
map
mapl
maple
mar
marath
marathon
marble
marc
march
marco
marcu
marcus
marg
marga
margar
margare
margaret
marge
margi
margin
marginal
mari
maria
mariah
marian
mariju
marijua
marijuan
marijuana
marin
marine
mario
marion
marit
mariti
maritim
maritime
mark
marking
marlborough
maroon
marque
marques
marqui
marr
marri
marria
marriag
marriage
marry
marrying
marsh
marsha
marshal
marshall
mart
marth
martha
marti
martia
martial
martin
marty
martyr
marv
marve
marvel
marvin
marx
marxi
marxis
mary
maryl
maryla
marylan
maryland
mas
masc
masco
mascot
mascu
mascul
masculi
masculin
mash
mask
mason
mass
massa
massac
massach
massachu
massachus
massachuse
massachuset
massachusett
massachusetts
massacr
massacre
massive
mast
maste
master
mastering
masterp
masterpi
masterpie
masterpiec
masterpiece
mat
match
matching
mate
mater
materi
materia
material
matern
maternal
math
mathe
mathem
mathema
mathemat
mathemati
mathematic
mathematical
mathematici
mathematician
mathematics
mathi
matrix
matt
matte
matter
matth
matthe
matthew
matu
matur
maturi
maturit
maturity
mau
maun
maur
mauri
mauric
maurice
maurit
mauriti
mauritiu
mauritius
mav
mave
maverick
max
maxi
maxim
maximi
maximu
maximum
maxw
maxwe
maxwel
maxwell
may
mayb
maybe
mayor
maz
mb
mba
mbar
mc
mcb
mcc
mcca
mccain
mccar
mccart
mccarth
mccarthy
mccartn
mccartne
mccartney
mccay
mccl
mcco
mccoo
mccool
mccor
mccoy
mccu
mcdon
mcdona
mcdonal
mcdonald
mcf
mcg
mcgi
mcgr
mcgui
mck
mcke
mcki
mckin
mckinl
mckinle
mckinley
mcl
mcla
mclar
mclare
mclaren
mcm
mcmahon
mcn
me
meadow
mean
meaning
meant
meantim
meantime
meanwhile
measur
measure
measurem
measureme
measuremen
measurement
measurements
measuring
mech
mecha
mechan
mechani
mechanic
mechanica
mechanical
mechanics
mechanis
mechanism
mechanisms
median
medica
medical
medication
medicin
medicine
meditation
medium
meg
mega
meh
melancho
melbourne
memb
membe
member
members
membership
membr
membra
membran
membrane
memor
memora
memorable
memori
memoria
memorial
memory
memphi
memphis
men
mentally
mention
mentor
menz
merchandi
merchandis
merchandise
merchant
mercury
messenger
metaboli
metabolis
metall
metallic
metallica
metaphor
meteorological
meth
metha
metho
method
methodi
methodis
methodist
methods
metric
metropolitan
mex
mexi
mexic
mexica
mexican
mexico
mi
miam
miami
mic
mich
micha
michae
michael
miche
michel
michell
michelle
michi
michig
michiga
michigan
mick
micr
micro
microphon
microphone
micros
microscop
microscopi
microscopic
microso
microsof
microsoft
mid
midd
middl
middle
middleton
midf
midfi
midfie
midfiel
midfield
midland
midlands
midnight
midship
midshipm
midw
midwa
midway
miffl
miffli
mifflin
mig
might
migr
migra
migran
migrant
migrat
migrate
migrated
migration
migratory
migu
migue
miguel
mih
mik
mikh
mikha
mil
mila
milan
mild
mile
miles
mileston
milestone
mili
milit
milita
militar
militari
military
militi
militia
milk
milky
mill
millennium
milli
millim
millime
millimet
millimetr
millimetre
millimetres
million
millw
millwa
millwal
millwall
milo
milton
milwa
milwau
milwauk
milwauke
milwaukee
mimic
min
mind
minh
mini
minia
miniat
miniatu
miniatur
miniature
minim
minima
minimal
minimiz
minimize
minimu
minimum
minis
minist
ministe
minister
ministr
ministry
minn
minne
minneapolis
minnes
minneso
minnesot
minnesota
mino
minog
minogu
minogue
minor
minu
minus
minut
minute
minutes
mirand
miranda
mis
misc
misca
miscon
miss
missi
missil
missile
missiles
missing
mission
mississippi
missour
missouri
mist
mista
mistak
mistake
mistaken
mistakenly
mistr
mistre
mistres
mistress
misu
misun
misund
misunde
misunder
misunders
misunderst
mitochondri
mitochondria
mix
mixing
mixtur
mixture
miz
mlb
mm
mo
mob
mobi
mobil
mobile
mobili
mobilit
mobility
mobiliz
mock
mocking
mod
mode
model
moder
modera
moderat
moderate
moderately
modern
modernization
modi
modif
modifi
modification
modifications
modifie
modified
modify
modu
modul
moff
moffa
moffat
moh
moha
moham
mohamm
moi
mois
moist
moistu
moistur
moisture
mol
mollu
mollus
mom
mome
momen
moment
momentu
momentum
mon
monarch
monarchy
mongo
mongol
mongoli
mongolia
monica
monitor
monitoring
monk
monmouth
monog
monop
monopo
monopoly
montag
montgom
montgome
montgomer
montgomery
month
monthly
months
monu
monum
monume
monumen
monument
moo
mood
moody
moon
moor
moore
moos
mor
mora
moral
morali
moralit
morality
moran
more
moreov
moreove
moreover
morg
morga
morgan
mori
mormon
morn
morning
moro
moroc
morocc
morocco
morph
morpho
morphol
morpholo
morpholog
morphologi
morphologic
morphologica
morphological
morphology
morr
morri
morris
morrison
mort
morta
mortal
mortali
mortalit
mortality
mortar
morti
morton
mos
moscow
mosqu
mosque
mosqui
mosquit
mosquito
most
mostly
mot
moth
mothe
mother
moti
motif
motifs
motion
motiv
motiva
motivat
motivate
motivated
motivation
moto
motor
motorc
motorcy
motorcyc
motorcycl
motorcycle
motorw
motorwa
motorway
mott
motto
mou
moul
mould
moun
mound
mount
mounta
mountai
mountain
mountainous
mountains
mour
mourn
mourning
mous
mouse
mouth
mov
move
moved
movem
moveme
movemen
movement
movi
movie
moving
moz
moza
mozamb
mozambi
mozambique
mph
mu
much
mud
mudd
mug
mugh
mugha
muh
muha
muham
muhamm
muhamma
muhammad
mul
muld
mulde
mulder
mull
mult
multi
multip
multipl
mum
mumb
mumba
mumbai
mun
mund
muni
munic
munich
munici
municip
municipa
municipal
municipali
municipalit
municipaliti
municipalitie
municipalities
municipality
munition
munitions
mur
mura
mural
murd
murde
murder
murphy
murr
murra
murray
mus
musc
muscl
muscle
muscles
muscu
muscul
muscula
muscular
muse
museum
mush
mushr
mushro
mushroo
mushroom
mushrooms
musi
music
musical
musically
musician
musicians
musk
muske
musket
musl
musli
muslim
muslims
muss
must
mut
muta
mutan
mutant
mutation
mutations
muti
mutin
mutiny
mutu
mutua
mutual
muzz
muzzl
muzzle
mv
mvp
my
myself
myth
mythic
mytho
mythol
mytholo
mytholog
mythology
n
nablu
nablus
nag
naga
nak
naka
nam
name
named
namely
nanc
nancy
napol
napole
napoleon
napoleonic
narrative
narrator
narrow
narrowly
nash
nashv
nashvi
nashvil
nashvill
nashville
nath
natha
nathan
nation
nationa
national
nationally
native
natur
natural
naturally
nature
nautical
nava
naval
navar
nave
navi
navig
naviga
navigat
navigate
navigation
navy
nb
nba
nbc
nearby
neck
negative
negatively
negotiations
neighbor
neighborhood
neighboring
neighbors
neighbour
neighbourhood
neighbouring
neighbours
neither
nelson
nerve
nervous
network
neutron
neverth
neverthe
neverthel
neverthele
nevertheles
nevertheless
newark
newborn
newfoundland
newton
next
ngu
nguy
nh
nhl
niagar
niagara
nic
nicaragua
nicholson
nick
nickn
nickna
nicknam
nickname
nicknamed
nico
nicol
nicola
nicolas
nig
night
nightclub
nin
nine
nineteenth
ninja
ninth
nirvana
nitrog
nitroge
nitrogen
nixon
nj
no
noah
nob
nobe
nobel
nobi
nobil
nobili
nobilit
nobility
nobl
noble
noblem
nobo
nobod
nobody
noctur
nocturn
nom
noma
nomad
nome
nomen
nomenc
nomencl
nomenclature
nomi
nomin
nomina
nominat
nominati
nominatio
nomination
nominations
nomur
nomura
non
noon
nor
norfo
norfol
norfolk
norm
norma
normal
normall
normally
norman
normand
normandy
north
northampton
northbou
northboun
northbound
northumb
northumbe
northumber
northumberl
northumberlan
northumberland
northumbr
northumbri
northumbria
northw
northwa
northwar
northward
northwe
northwes
northwest
northwestward
norton
norw
norwa
norway
norwegian
not
notabl
notable
notably
nothing
notifi
notifie
notified
notion
notorious
nottingham
nov
nova
nove
novel
novemb
novembe
november
novi
now
nowh
nowhe
nowher
nowhere
nuc
nucl
nucle
nuclea
nuclear
nucleu
nucleus
null
num
numb
numbe
number
numerous
nur
nurs
nurse
nurser
nursery
nursing
nutrition
nwa
o
oak
oakland
oath
ob
oba
obam
obama
obe
ober
obey
obi
obit
obitu
obitua
obituar
obj
obje
objec
object
objecti
objectio
objection
objections
objectiv
objective
objectives
obl
obli
oblig
obligation
obligations
obliv
obo
obs
obsc
obscu
obscur
obscure
obse
obser
observ
observa
observat
observation
observations
observator
observatory
observe
observed
observing
obsession
obst
obsta
obstac
obstacl
obstacle
obstacles
obt
obta
obtai
obtain
obtaining
obv
obvi
obvio
obviou
obvious
obviousl
obviously
oc
occ
occa
occas
occasi
occasio
occasion
occasional
occasionally
occu
occul
occult
occup
occupa
occupat
occupati
occupation
occupi
occupie
occupied
occupy
occupying
occur
occurr
occurring
oce
ocea
ocean
oceanic
och
oct
octa
octag
octago
octagon
octav
octo
octob
octobe
october
octop
octopu
octopus
of
off
offensive
offi
offic
office
officer
officers
offici
officia
official
officially
offsh
offsho
offshor
offshore
og
oh
ohi
ohio
oi
oil
ois
ok
oka
oki
okin
okina
okinaw
okinawa
okl
okla
oklah
oklaho
oklahom
oklahoma
ol
olaf
old
oldh
oldha
oldham
olg
olga
oli
olig
oliv
olive
oliver
olivi
olivia
oly
olymp
olympi
olympia
olympic
olympics
om
oma
omah
omaha
omar
omi
omit
omitt
omitte
omitted
omn
omni
on
ongo
ongoing
onlin
online
only
op
ope
open
opening
openly
oper
opera
operat
operating
operation
operational
operations
operativ
operative
operator
operators
opi
opin
opine
opined
opinion
opp
oppe
oppen
oppenh
oppenhe
oppenhei
oppenheim
oppenheime
oppenheimer
oppo
oppor
opport
opportu
opportun
opportuni
opportunit
opportunity
oppos
opposi
opposing
opposit
opposite
oppositi
oppositio
opposition
oppr
oppre
oppres
oppress
oppressi
opt
opte
opted
opti
optic
optica
optical
optim
optimi
optimis
optimist
optimisti
optimistic
option
optional
opu
or
orang
orange
orator
orb
orbi
orbit
orbital
orch
orcha
orchar
orchard
orche
orches
orchest
orchestr
orchestra
orchestral
ordinanc
ordinance
org
orga
organ
organi
organic
organis
organisa
organisat
organisati
organisatio
organisation
organism
organisms
organiz
organiza
organizat
organizati
organizatio
organization
organizing
orientation
origin
origina
original
originally
ornam
orname
ornamen
ornament
orph
orpha
orphan
orthodox
orton
oryzomy
osborn
oswald
oth
othe
other
otherw
otherwi
otherwis
otherwise
ottawa
ottom
ottoma
ottoman
ou
ought
our
ourselves
ous
oust
out
outage
outages
outb
outbr
outbre
outbrea
outbreak
outcom
outcome
outfi
outfit
outfits
outflow
outlin
outline
outlined
outlook
outnumb
outnumbe
outnumber
outpo
outpos
outpost
outright
outstanding
outward
ov
ova
oval
ove
over
overal
overall
overcom
overh
overha
overhau
overhaul
overlook
overlooke
overlooked
overlor
overlord
overnight
oversh
oversha
overshad
overshadow
overthrow
overtim
overtime
overtur
overturn
overturne
overturned
overwh
overwhe
overwhel
overwhelm
overwhelming
ovi
ow
own
ownership
ox
oxf
oxfo
oxfor
oxford
oxi
oxid
oxidation
oxy
oxyg
oxyge
oxygen
oz
p
pa
pacific
pack
packag
package
packaging
pag
pagan
page
pain
painful
paint
painting
pak
paki
pakis
pakist
pakistan
pakistani
pal
pala
palac
palace
palestinian
palm
pamphl
pamphle
pamphlet
panam
panama
panth
panthe
panther
panthers
pap
papa
papal
pape
paper
paperback
papu
par
para
parach
parachu
parachut
parachute
parad
paradi
paradis
paradise
paraguay
paral
parall
paralle
parallel
paralympic
paralympics
param
paramount
paran
parano
paranoi
paranor
paranorm
paranorma
paranormal
paratroop
pardon
pari
paris
parish
park
parking
parkw
parkwa
parkway
parl
parli
parlia
parliam
parliame
parliamen
parliament
paro
parod
parodi
parodie
parodies
parody
parsons
part
parth
parthi
parthia
parti
partial
partially
partic
partici
particip
participa
participat
participate
participated
participating
participation
particu
particul
particula
particular
particularly
partition
partly
partnership
party
pash
pasha
passeng
passenge
passenger
passengers
passion
passiona
passionat
passionate
passive
pastor
pasture
paterson
path
patho
pathog
pathoge
pathogen
pathol
patholo
patholog
pathw
pathwa
pathway
patriarch
patric
patrici
patricia
patrick
patron
patrona
patronag
patronage
patterson
pau
paul
paulin
pauline
paus
pave
paved
pavilion
pay
paying
paym
payme
paymen
payment
pb
pe
pea
peac
peace
peaceful
peach
peak
peaking
pear
pearl
pearson
peas
peasan
peasant
peasants
peck
pecul
peculi
peculia
peculiar
ped
pedr
pedro
peg
pegg
peggy
pel
peli
pell
pelo
peloton
pemb
pen
pena
penal
penalt
penalti
penaltie
penalties
penalty
peng
pengu
pengui
penguin
penguins
peni
penin
penins
peninsu
peninsul
peninsula
penn
pennan
pennant
penns
pennsy
pennsyl
pennsylv
pennsylva
pennsylvan
pennsylvani
pennsylvania
penny
pension
penultimat
penultimate
people
pep
pepp
peppe
pepper
per
perc
perce
perceived
percen
percent
percentag
percentage
perception
perch
percussion
percy
perf
perfe
perfec
perfect
perfection
perfectly
perform
performa
performan
performanc
performance
performing
perh
perha
perhap
perhaps
peri
perim
perime
perimet
perimete
perimeter
perio
period
periodic
periodically
periph
periphe
peripher
periphera
peripheral
perish
perkin
perkins
perm
perma
perman
permane
permanen
permanent
permanently
permi
permission
permit
permitt
permitte
permitted
perp
perpe
perpen
perpend
perpendi
perpendic
perpendicu
perpendicul
perpendicula
perpendicular
perpet
perpetr
perpetra
perpetu
perpetua
persecution
person
persona
personal
personali
personalit
personality
personally
perth
pet
pete
peter
petersburg
peterson
petition
petr
petro
petrol
pf
ph
pha
phal
phan
phant
phanto
phantom
phar
pharm
pharma
pharmac
phas
phase
phenom
phenome
phenomen
phenomena
phenomenon
phi
phil
phila
philad
philade
philadel
philadelph
philadelphi
philadelphia
philanthrop
philh
philha
philhar
philharm
philharmo
philharmon
philharmoni
philharmonic
phili
philip
philipp
philippi
philippin
philippine
philippines
phill
philli
phillip
phillips
philo
philos
philoso
philosoph
philosophi
philosophic
philosophica
philosophical
philosophy
pho
phoenix
phon
phone
phono
phonog
phonogr
phonogra
phonograph
phos
phosph
phospha
phosphat
phot
photo
photog
photogr
photogra
photograph
photographic
photographs
photography
photon
photos
phr
phra
phras
phrase
phy
phyl
phyll
phylo
phylog
phyloge
phylogen
phys
physi
physic
physica
physical
physically
physici
physician
physio
physiol
physiolo
physiolog
pi
pian
piani
pianis
pianist
piano
pic
pica
picar
picard
picc
pick
picking
picn
pict
pictu
pictur
picture
pictures
pig
pigm
pigme
pigmen
pigment
pik
pike
pil
pila
pilg
pilgr
pilgri
pilgrim
pilgrima
pilgrimag
pilgrimage
pill
pilla
pillar
pillars
pilo
pilot
pin
pinch
pink
pinn
pinna
pion
pione
pionee
pioneer
pioneering
pip
pipe
pipel
pipeli
pipelin
pipeline
piper
pit
pitch
pitchfork
pitching
pittsburgh
piv
pivo
pivot
pix
pixa
pixar
pizz
pizza
pl
pla
plac
place
placed
plag
plague
plagued
plai
plain
plan
plann
planne
planned
planning
plant
plantation
plantations
plants
plaque
plas
plasm
plasma
plast
plaste
plaster
plasti
plastic
plat
plate
platform
plati
platin
platinu
platinum
platoon
plau
play
playable
playboy
playing
playoff
playoffs
playstation
playwright
plaz
plaza
ple
plea
pleas
pleasan
pleasant
pleasu
pleasur
pleasure
pled
pledg
pledge
pledged
plei
pli
plo
plot
plu
plug
plum
pluma
plumag
plumage
plur
plura
plural
plus
plut
pluto
pluton
plutoni
plutonium
plymouth
pneumonia
po
pock
pocke
pocket
podium
poe
poem
poems
poet
poetic
poetr
poetry
poi
poin
point
points
pois
poison
poisoning
pok
pol
pola
polan
poland
polar
pole
poles
poli
polic
police
policy
polish
polit
politi
politic
politica
political
politically
politici
politician
politicians
polk
poll
pollu
pollut
pollution
polo
polon
poly
polyg
polygon
polym
polyme
polymer
pom
pomp
pompe
pon
pond
poni
ponie
pont
pony
poo
pool
poor
poorly
pop
popu
popul
popula
popular
populariz
popularize
populat
populate
populated
population
por
porc
porch
porn
port
portable
portal
portion
portland
portr
portra
portrai
portrait
portray
portrayal
portraying
portsmouth
portu
portug
portuga
portugal
portugu
portugue
portugues
portuguese
pos
pose
posed
posi
position
positive
positively
poss
posse
posses
possess
possession
possi
possib
possibi
possibil
possibili
possibilit
possibility
possibl
possible
possibly
post
posthumous
posthumously
postpon
postpone
postponed
postseason
postur
posture
postwar
pot
potential
potentially
potom
potoma
potomac
pou
poul
poult
pound
pounds
pour
pov
pove
pover
povert
poverty
pow
powd
powde
powder
powe
powell
power
powerf
powerfu
powerful
pp
pr
pra
prac
pract
practi
practic
practica
practical
practically
practice
practitioner
practitioners
prad
prade
pradesh
prague
prai
prair
prairi
prairie
prais
praise
praised
praising
pran
prank
prat
pratt
pray
praye
prayer
pre
preach
prec
preca
prece
preced
preceding
preci
precious
precip
precipi
precipit
precipita
precipitat
precipitation
precision
precl
precu
precur
precurs
precursor
pred
predation
predator
predators
prede
predec
predece
predeces
predecess
predecessor
predi
predic
predict
predictable
prediction
predictions
predominantly
pref
prefa
prefac
preface
prefe
prefec
prefect
prefectu
prefectur
prefecture
prefer
preferr
preferre
preferred
preferring
prefix
preg
pregn
pregna
pregnan
pregnanc
pregnancy
pregnant
preh
prehi
prehis
prehist
prehistor
prehistori
prehistoric
preju
prejud
prejudi
prejudic
prejudice
prelimina
preliminar
preliminary
prelu
prelud
prelude
prem
prema
premat
prematur
premature
premi
premie
premier
premiership
premium
prep
prepa
prepar
preparation
preparations
preparatory
preparing
prequel
pres
presby
presbyt
presbyte
presbyter
presbyteri
presbyteria
presbyterian
prescrib
prescribe
prescribed
prese
preseason
presen
presenc
presence
present
presentation
preservation
preserve
preserved
presi
presid
preside
presiden
president
presidential
press
pressur
pressure
prestigious
preston
presum
presumably
presume
presumed
prev
preva
prevai
prevail
prevailing
preval
prevale
prevalen
prevalent
preve
preven
prevent
preventing
prevention
previ
previe
preview
previous
previously
pri
pric
price
prim
prima
primar
primari
primarily
primary
primat
primate
primates
prime
primetim
primetime
primitive
prin
princ
prince
princeton
princi
princip
principa
principal
principally
principl
principle
principles
print
printing
prinz
prio
prior
prison
priv
priva
privat
private
privately
privi
privil
privile
privileg
privilege
privileges
privy
prix
prize
pro
prob
proba
probab
probabi
probabil
probabili
probabilit
probability
probable
probably
problem
problematic
problems
proc
proce
proced
procedur
procedure
procedures
proces
process
processing
procession
processor
procl
procla
proclai
proclaim
proclamation
procu
procur
procure
prod
produ
produc
produce
produced
producer
producers
producing
product
production
productive
products
prof
profe
profes
profess
profession
professiona
professional
professo
professor
profi
profil
profile
profit
profitable
profits
profound
prog
progr
progra
program
programm
programme
programming
progression
progressive
progressively
proh
prohi
prohib
prohibi
prohibit
prohibition
proj
proje
projec
project
projection
prolong
prolonge
prolonged
prom
promi
promin
promine
prominen
prominent
prominently
promis
promise
promised
promising
promo
promot
promote
promoted
promoting
promotion
promotional
prompt
prompte
prompted
prompting
promptly
pron
pronounc
pronounce
pronounced
pronu
pronun
pronunc
pronunci
pronunciation
proof
prop
propa
propag
propaga
propagan
propagand
propaganda
prope
propel
propell
propelle
propelled
propeller
proper
properly
propert
properti
propertie
properties
property
proph
prophe
prophec
prophet
propo
proportion
propos
proposal
proposition
propr
propri
proprie
propulsion
pros
prose
prosec
prosecu
prosecut
prosecute
prosecution
prosecutor
prosp
prospe
prospec
prospect
prosper
prosperi
prosperit
prosperity
prost
prosth
prosthe
prosti
prostit
prostitu
prostitut
prostitute
prot
protagoni
protagonis
protagonist
prote
protea
protec
protect
protecting
protection
protective
protector
protei
protein
proteins
protes
protest
protestan
protestant
proto
protoc
protoco
protocol
proton
protot
prototy
prototyp
prototype
protr
proud
prov
prove
proved
proven
provid
provide
provided
providing
provinc
province
provinci
provincia
provincial
proving
provision
provisional
provisions
provo
provok
provoke
provoked
proxim
proximi
proximit
proximity
pru
prus
pruss
prussi
prussia
prussian
pry
pseudonym
psychological
psychology
pu
pub
publ
publi
public
publication
publiciz
publicize
publicly
publish
publishe
published
publishing
puck
puff
pul
puli
pull
pulling
pulp
pump
pumping
pun
punc
punch
punct
punctu
punish
punishm
punishme
punishmen
punishment
punk
punt
pup
pupi
pupil
pupils
pupp
puppe
puppet
pur
puran
purana
purch
purcha
purchas
purchase
purchased
purchasing
puri
purit
purp
purpl
purple
purport
purporte
purported
purpos
purpose
purposes
purs
pursu
pursui
pursuing
pursuit
push
pushing
put
puzz
puzzl
puzzle
puzzles
py
pyr
pyra
pyram
pyrami
pyramid
pyro
pyth
q
qu
qua
quad
quadr
quadra
quadru
quadrup
quadrupl
quadruple
quak
quake
quaker
qual
quali
qualif
qualifi
qualific
qualifica
qualificat
qualificati
qualificatio
qualification
qualify
qualifying
qualit
quality
quan
quant
quanti
quantit
quantiti
quantitie
quantities
quantity
quantu
quantum
quar
quarr
quarry
quart
quarte
quarter
quarterback
quarterf
quarterfi
quarterfin
quarterfina
quarterfinal
quat
quate
quater
quaterm
quaterma
quatermas
quatermass
que
queb
quebe
quebec
quee
queen
quen
ques
quest
question
questioning
qui
quick
quickl
quickly
quin
quinn
quint
quinta
quintan
quit
quo
quot
quotation
r
ra
raaf
rab
raba
rabb
rabbi
rabbit
rabi
rac
racc
raccoon
race
rach
rache
rachel
raci
racia
racial
racing
rack
rad
rada
radar
radi
radia
radial
radiation
radic
radica
radical
radio
radioh
radiohe
radiohea
radiohead
radiu
radius
raf
rag
ragn
rah
rahm
rai
raid
raiding
rail
railw
railwa
railway
rain
rainbow
rainf
rainfa
rainfal
rainfall
rais
raise
raised
raising
raj
raja
rak
rall
ralli
rallie
ralph
ram
rama
ramb
ramm
ramon
ramp
ran
ranch
randolph
random
rang
range
ranging
rank
ranking
rap
rapi
rapid
rapidly
rapp
raptor
rar
rare
rarely
rari
rarit
rash
rat
rath
rathe
rather
ratifi
ratifie
ratified
rating
ratings
ration
rationa
rational
rau
rav
rave
raven
raw
ray
raym
raymon
raymond
raz
rb
rbi
rbis
re
reach
reache
reached
reaching
reaction
reactor
reagan
real
reali
realign
realigne
realigned
realis
realism
realistic
realit
reality
realize
realized
realizes
realizing
really
realm
reapp
reappe
reappea
reappear
reason
reasonable
reasonably
reasoning
reasons
reb
rebe
rebec
rebecc
rebecca
rebel
rebellion
rebellious
rebels
rebound
rebounds
rebuild
rebuilding
rebuilt
rec
recal
recall
recapture
received
receiver
receiving
reception
receptor
recession
reck
reco
recognition
recogniz
recognize
recognized
recomm
recomme
recommen
recommend
recommendation
recommendations
recon
reconc
reconci
reconcil
reconcili
reconciliation
reconn
reconna
reconnai
reconnais
reconnaiss
reconnaissa
reconnaissan
reconnaissanc
reconnaissance
recons
reconst
reconstr
reconstru
reconstruc
reconstruct
reconstructe
reconstructed
reconstruction
recor
record
recording
recount
recover
recovering
recovery
rectangular
recu
recur
recurr
recurring
reddish
redemption
redesign
redesigna
redesignat
redesignate
redesignated
redevelopment
rediscover
reduc
reduce
reduced
reducing
reduction
ref
refe
refer
refere
referen
referenc
reference
references
referr
referre
referred
referring
refi
refin
refine
refined
refit
refitt
refl
refle
reflec
reflect
reflecting
reflection
reform
reformation
refr
refra
refrai
refrain
refu
refuge
refurbish
refus
refusal
refuse
refused
refusing
reg
rega
regain
regal
regar
regard
regarding
rege
regen
regenc
regency
regent
regg
regga
reggae
regi
regim
regime
regimen
regiment
regimental
regin
regina
region
regional
regis
regist
registe
register
registr
registration
registry
regr
regre
regret
regula
regular
regularly
regulat
regulation
regulations
regulato
regulator
reh
reha
rehab
rehabi
rehabil
rehabili
rehabilit
rehabilitation
rehe
rehea
rehear
rehears
rehearsal
rehearsals
reign
reigning
reilly
rein
reinforc
reinforce
reinforced
reinforcem
reinforceme
reinforcemen
reinforcement
reinforcements
rej
reje
rejec
reject
rejecte
rejected
rejection
rejoin
rel
rela
relat
relate
related
relating
relation
relations
relationship
relative
relatively
relatives
relativity
relax
relay
rele
relea
releas
release
released
relegation
releva
relevan
relevant
reli
reliable
relian
relianc
reliance
relic
relics
relie
relief
relieve
relieved
religion
religious
relinquish
relocation
relu
reluc
reluct
reluctan
reluctant
reluctantly
rem
rema
remai
remain
remaining
remak
remake
remar
remark
remarkable
remarr
rememb
remembe
remember
remi
remin
remind
remini
reminis
reminisc
reminisce
reminiscen
reminiscent
remix
remn
remnan
remnant
remnants
remo
remod
remode
remot
remote
remov
removal
remove
removed
removing
renam
rename
renamed
rendezvous
renov
renova
renovat
renovate
renovated
renovation
renovations
renown
renowne
renowned
renumber
renumbere
renumbered
renumbering
reop
reope
reopen
reorgan
reorgani
reorganis
reorganized
rep
repa
repai
repair
repairs
repe
repea
repeat
repeate
repeated
repeatedly
repeating
repell
repetitive
repl
repla
replac
replace
replaced
replacem
replaceme
replacemen
replacement
replacing
replay
reple
repli
replic
replica
replicat
replicate
reply
report
repr
repre
repres
represe
represen
represent
representation
representative
representatives
representing
repri
reprin
reprint
repris
reprise
reprised
repro
reprod
reprodu
reproduc
reproduce
reproduction
reproductive
rept
repti
reptil
reptile
reptiles
repu
republic
republican
reputation
request
requesting
requi
requie
requiem
require
required
requirem
requireme
requiremen
requirement
requirements
requires
requiring
research
resembl
resemblan
resemblanc
resemblance
resemble
resembled
resembles
resembling
reservation
reservations
reserve
reserved
reservoir
resign
resignation
resistanc
resistance
resolution
resolve
resolved
reson
resona
resonan
resonanc
resonance
resource
resources
respectively
respond
responding
respons
responsi
responsib
responsibi
responsibil
responsibili
responsibilit
responsibility
responsible
restaurant
restor
restoration
restore
restored
restoring
restriction
restrictions
result
resulting
resupp
resur
resurr
resurre
resurrec
resurrect
resurrection
retain
retaining
retaliation
retrieved
retur
return
returning
reunion
rev
reve
revea
reveal
revealing
revel
revelation
reven
revenge
revenu
revenue
rever
revers
reverse
reversed
revi
revie
review
reviews
revis
revise
revised
revisi
revision
revisions
revisit
reviv
revival
revive
revived
revo
revol
revolt
revolution
revolve
revolver
reward
rework
rex
rf
rh
rhe
rhetor
rhetori
rhetoric
rhi
rhin
rhine
rhino
rho
rhod
rhode
rhodes
rhodesi
rhodesia
rhodesian
rhy
rhym
rhyme
rhyth
rhythm
rhythmic
ri
ria
riaa
rib
ribbon
ric
rica
rican
rich
richa
richar
richard
richardson
richm
richmon
richmond
rick
ricky
rico
rid
ridg
ridge
ridic
ridicu
ridicul
ridiculous
riding
rif
riff
rifl
rifle
rifles
rig
rigg
right
rigi
rigid
rih
riha
rihan
rihann
rihanna
rik
ril
rile
riley
rim
rin
ring
rink
rio
riot
riots
rip
ripp
ris
rising
risk
rit
ritu
ritua
ritual
rituals
riv
riva
rival
rivalr
rivalry
rive
river
rk
rko
ro
roa
road
roadw
roadwa
roadway
rob
robb
robbe
robber
robbery
robbi
robe
rober
robert
robertson
robi
robin
robinson
robo
robot
robson
robu
robus
robust
roc
roch
roche
roches
rochest
rocheste
rochester
rock
rod
rodg
rodge
rodger
rodgers
rodrigu
rodrigue
rodrigues
rodriguez
rog
roge
roger
rogers
rogu
rogue
roh
rok
rol
rolan
roland
role
roll
rollin
rolling
rollins
rom
roma
roman
romanian
romantic
ron
rona
ronal
ronald
roo
roof
rook
rooki
rookie
room
roos
roose
rooseve
roosevel
roosevelt
root
roots
rop
rope
ros
rosb
rosbe
rosber
rosberg
rot
rota
rotat
rotating
rotation
roth
rott
rotte
rotten
rou
rough
roughl
roughly
roun
round
rous
rout
route
routin
routine
rov
rove
rover
rovers
row
rowl
rowla
rowlan
rowland
rowling
rox
roy
roya
royal
royc
royce
rp
rpg
ru
rub
rubb
rubi
rubin
ruby
rud
rudd
ruff
rufus
rugby
rugg
ruin
rul
rule
ruling
rum
rumbl
rumble
rumor
rumors
rumour
rumours
run
runn
running
runs
runw
runwa
runway
rup
rupe
ruper
rupert
rur
rura
rural
rus
rush
rushing
russ
russe
russel
russell
russi
russia
russian
rust
ruth
ry
rya
ryan
s
sabb
sabba
sabbath
sabin
sabotag
sabotage
sack
sacrific
sacrifice
saf
safe
safely
safet
safety
saff
saffi
saffir
saga
sailor
sailors
sain
saint
sakura
salford
salisbury
salmon
salva
salvad
salvador
salvag
salvage
salvation
sam
samanth
samantha
same
samo
sampl
sample
samples
samu
samue
samuel
sanc
sanch
sanche
sanchez
sanct
sanctu
sanctua
sanctuar
sanctuary
sand
sandston
sandstone
sandw
sandwi
sandwich
sandy
sang
sank
santiago
sarawak
satisfaction
satur
saturd
saturda
saturday
saturn
sauc
sauce
savag
savage
savan
savann
savanna
save
saved
saves
savi
savoy
saxon
saxophon
scand
scanda
scandal
scandinavian
sch
scharnhorst
sche
sched
schedu
schedul
schedule
scheduled
schem
scheme
schi
schiz
schizo
schizoph
schizophr
schizophre
schizophren
schizophreni
schl
schm
schmi
schmid
schn
scho
schol
schola
scholar
scholarly
scholars
scholarship
schoo
school
schu
schul
schum
schuma
schumach
schumache
schumacher
schw
schwa
schwar
schwart
schwartz
schwarz
scientific
scientology
scop
scope
scor
score
scored
scoring
scottish
scou
scout
scouting
scrambl
scranton
scrapp
scrappe
scrapped
scripture
scully
sculp
sculpt
sculptor
sculptur
sculpture
search
searching
season
secession
second
section
sector
secur
secure
secured
securing
security
seemingly
segregation
seizur
seizure
sejm
selection
self
selling
semifinals
seminary
senator
senior
sensitive
sensitivity
sentim
sentime
sentimen
sentiment
sentimental
septemb
septembe
september
sequel
sequenc
sequence
serbia
serbian
servant
servants
serve
served
serves
servic
service
serving
session
sessions
seven
seventeenth
seventh
several
sexual
sexually
seymour
sh
sha
shackl
shackle
shacklet
shackleto
shackleton
shad
shadow
shaf
shaft
shah
shak
shake
shakes
shakesp
shakespe
shakespea
shakespear
shakespeare
shaki
shakir
shakira
shaku
shal
shall
shallow
sham
shan
shangh
shangha
shanghai
shank
shanka
shankar
shann
shannon
shap
shape
shaped
shar
share
shared
sharehold
shareholde
shareholder
sharing
shark
sharks
sharon
sharp
sharply
shat
shatt
shatte
shatter
shattere
shattered
shaw
shawn
she
sheff
sheffi
sheffie
sheffiel
sheffield
shell
sheph
shephe
shepher
shepherd
shepp
sheriff
shi
shif
shift
shifting
shill
shim
shin
ship
shipbuilding
shipp
shippe
shipped
shipping
ships
shir
shirl
shirle
shirley
shirt
shirts
shiv
shiva
sho
shock
shocking
shoo
shoot
shooting
shootou
shootout
shop
shopping
shops
shor
shore
shorelin
shoreline
short
shortag
shortage
shortly
shot
shou
shoul
should
shout
show
showing
shr
shrewsbury
shri
shrin
shrine
shrub
shu
shun
shut
shutout
shutt
shuttl
shuttle
shy
sib
sibe
siber
siberi
siberia
sibl
sibling
siblings
sick
sight
sighting
sigm
sign
signal
signature
signific
significa
significan
significant
significantly
signing
silicon
silly
silver
simi
simil
simila
similar
similarly
simon
simp
simpl
simple
simplic
simplici
simplicit
simplicity
simplifi
simplifie
simplified
simply
simps
simpson
simpsons
simu
simul
simula
simulat
simulate
simulation
simult
simultan
simultane
simultaneous
simultaneously
sinc
since
singapore
singh
singula
singular
sink
sinking
sioux
sitcom
situation
siva
six
sixteenth
sixth
siz
size
skand
skill
skills
skin
skinn
skinne
skinner
skipp
skippe
skirmish
skull
slash
slaught
slaughte
slaughter
slave
slaves
slavic
slick
slight
slightl
slightly
slipp
slippe
slipped
slogan
slope
slopes
slov
slova
slovak
slovaki
slovakia
slove
sloven
sloveni
slow
slowl
slowly
slugg
smackdown
small
smallpox
smash
smith
smithson
smok
smoke
smoking
smooth
smuggl
smuggle
smyth
snow
snowf
social
sociali
socialis
socialism
socialist
sociology
sodium
sof
soft
softwar
software
solic
solomon
solution
solve
som
soma
somal
somali
some
somebo
somebod
somebody
somehow
someon
someone
something
sometim
sometime
sometimes
somewh
somewhat
somewhe
somewher
somewhere
somm
somme
son
song
songw
songwr
songwri
songwrit
songwriting
sonic
sony
soon
soph
sophi
sophia
sophis
sophist
sophisti
sophistic
sophistica
sophisticat
sophisticate
sophisticated
sophom
sophomo
sophomor
sophomore
sorrow
sou
sought
soul
sound
soundtrack
soup
sour
sourc
source
sources
south
southampton
southbou
southboun
southbound
southw
southwe
southwes
southwest
sov
sove
sover
sovere
sovereign
sovereignt
sovereignty
sovi
sovie
soviet
sp
spacecraft
spain
span
spani
spanish
spann
spanning
sparrow
speaking
specialized
specific
specifically
specifications
specified
specim
specime
specimen
specimens
spectators
spector
spectrum
speculated
speculation
spelling
spic
spice
spielberg
spin
spinal
spinn
spinning
spiritual
splash
spo
spoi
spoil
spok
spokan
spokane
spoke
spoken
spokes
spokesm
spokesma
spokesman
spokesp
spokespe
spokesper
spokespers
spokesperson
spon
spong
sponge
spongeb
spongebo
spongebob
spons
sponso
sponsor
sponsorship
spont
sponta
spontan
spontane
spontaneous
spor
sport
sporting
sports
spot
spotlight
spott
spotte
spotted
springfi
springfie
springfiel
springfield
spur
sq
squ
squa
squad
squadr
squadro
squadron
squal
squall
squar
square
sque
squi
squid
squir
squirr
squirre
squirrel
stability
stabiliz
stable
stack
stadium
staff
staffor
stafford
stag
stage
stall
stallion
stamp
stance
stand
standa
standar
standard
standing
standout
stanford
stanton
stanza
starboard
starcraft
station
stefani
stephani
stepp
steppe
stepped
steven
stevenag
stevenage
stevens
stevenson
stick
sticky
stiff
still
stimu
stimul
stimula
stimulat
stock
stockholm
stockp
stok
stoke
stomach
ston
stone
stonew
stop
stopp
stoppe
stopped
stopping
stor
stora
storag
storage
store
storey
stori
storie
stories
storm
story
storyboard
storylin
storyline
stow
straight
straightforw
straightforwa
straightforwar
straightforward
strand
strang
strange
stranger
strength
strick
stripp
strippe
stripped
strok
stroke
strong
stronghold
strongly
struck
structur
structural
structure
struggl
struggle
struggled
struggling
stubb
stuck
stuff
stump
stur
sub
subcon
subdivision
subf
subfa
subfam
subfami
subg
subj
subje
subjec
subject
subm
subma
submar
submari
submarin
submarine
subme
submer
submerg
submerge
submerged
submi
submis
submiss
submissi
submissio
submission
submit
submitt
submitte
submitted
subor
subord
subordi
subordin
subordina
subordinat
subordinate
subp
subpl
subplo
subplot
subs
subsc
subscr
subscri
subscrib
subscribe
subscription
subsequent
subsequently
subsi
subsid
subsidi
subsidia
subsidiar
subsidiary
subsp
subspe
subspec
subspeci
subspecie
subspecies
subst
substa
substan
substanc
substance
substances
substant
substanti
substantia
substantial
substantially
substi
substit
substitu
substitut
substitute
substituted
substr
substra
substrat
substrate
subtrop
subtropi
subtropic
subtropica
subtropical
subu
subur
suburb
suburban
subw
subwa
subway
succ
succe
succes
success
successful
successfully
succession
successive
successor
succumb
such
suck
suff
suffic
suffici
sufficie
sufficien
sufficient
sufficiently
suffix
sug
suga
sugar
sugg
sugge
sugges
suggest
suggesting
suggestion
suggestions
suici
suicid
suicide
suitable
sulfur
sullivan
sultan
summ
summa
summar
summari
summarized
summary
summe
summer
summon
sung
sunshin
sunshine
sup
supe
super
superb
superh
superhe
superher
superhero
superi
superior
superm
superma
superman
supermar
supernova
superstructure
superv
supervi
supervis
supervising
supervision
supervisor
supp
suppl
supple
supplem
suppleme
supplemen
supplement
suppli
supplie
supplied
supplies
supply
suppo
suppor
support
supporting
supportive
suppos
suppose
supposed
supposedly
suppr
suppre
suppres
suppress
suppression
supr
supre
suprem
supreme
sur
surf
surfa
surfac
surface
surg
surge
surgeon
surger
surgery
surgic
surgica
surgical
surn
surnam
surname
surp
surpl
surplu
surplus
surpr
surpri
surpris
surprise
surprised
surprising
surprisingly
surr
surre
surrea
surreal
surren
surrend
surrende
surrender
surrey
surround
surrounding
surve
survei
surveil
surveill
surveilla
surveillan
surveillanc
surveillance
survey
surveyor
surviv
surviva
survival
surviving
survivo
survivor
survivors
susceptible
suspension
suspicion
suspicious
sustain
sustainable
sustaine
sustained
suth
suthe
suther
sutherland
swa
swallow
swamp
swif
swift
swim
swimm
swimme
swimmer
swimming
switching
swor
sword
syllable
sylvest
sylveste
sylvester
symbo
symbol
symboli
symbolic
symbolis
symbolism
symboliz
symbolize
symp
sympa
sympath
sympathy
symph
sympho
symphon
symphoni
symphonic
symphony
sympt
sympto
symptom
symptoms
synagogu
synagogue
syndicate
syndrom
syndrome
synonym
synop
synops
synopsi
synopsis
synth
synthe
synthes
synthesi
synthesis
synthesize
synthesized
synthesizer
synthesizers
synthet
synthetic
t
ta
tab
tabl
table
tac
tackl
tackle
tackles
tactic
tactica
tactical
tactics
tag
tai
tail
tailor
taiw
taiwan
tak
taka
take
taken
takeoff
takeov
takeove
takeover
taking
tal
talbot
tale
talen
talent
talk
talking
tall
tam
tama
tamar
tami
tamil
tamm
tamp
tampa
tan
tang
tank
tanks
tann
tap
tape
tar
taran
tarant
targ
targe
target
targeting
tariff
tas
task
tasman
tasmani
tasmania
tast
taste
tau
taugh
taught
taun
taunton
taver
tavern
tax
taxation
taxonomic
taxonomy
tay
tayl
taylor
tb
tchaikovsky
te
tea
teach
teache
teacher
teachers
teaching
team
tear
tears
tech
techn
techni
technic
technica
technical
technically
technici
technician
technique
techniques
techno
technol
technolo
technolog
technologi
technologic
technologica
technological
technology
tel
tele
teleg
telegr
telegra
telegram
telegraph
telephone
telescope
televi
televis
televise
televised
television
tell
telling
tells
telugu
temp
tempe
temper
tempera
temperat
temperatu
temperatur
temperature
temperatures
templ
temple
tempo
temporar
temporari
temporarily
temporary
ten
tenan
tenant
tenants
tenn
tenni
tennis
tenor
tension
tensions
tenth
tenur
tenure
ter
term
termi
termin
termina
terminal
terminat
terminate
terminated
terminu
terminus
terr
terra
terrac
terrace
terrai
terrain
terri
terrible
territori
territoria
territorial
territory
terror
terrori
terroris
terrorism
terrorist
terry
tes
tess
test
testam
testame
testamen
testament
testif
testified
testify
testimony
testing
tex
texa
texas
texi
texian
text
textbook
textu
textur
texture
th
tha
thai
thail
thaila
thailan
thailand
thal
tham
thame
thames
than
thanh
thanho
thanhou
thanhous
thanhouse
thanhouser
thank
thanks
thanksgiving
that
the
theatrical
themselves
theologi
thereafter
therefore
theropod
thi
thick
thie
thief
thin
thing
things
think
thinking
thir
third
thirt
thirte
thirtee
thirteen
thirteenth
thirty
this
tho
thom
thoma
thomas
thomp
thomps
thompson
thomson
thor
thorn
thorough
thoroughl
thoroughly
thorp
thorpe
thos
those
thou
though
thought
thous
thousa
thousan
thousand
thousands
thr
thra
thrash
thre
threa
thread
threat
three
thresh
thri
thril
thrill
thriv
thrive
thro
throa
throat
thron
throne
through
throughou
throughout
throw
throwing
thru
thrus
thrust
thu
thumb
thun
thund
thunde
thunder
thunderb
thunderbi
thunderbir
thunderbird
thunders
thunderst
thundersto
thunderstor
thunderstorm
thunderstorms
thur
thurs
thursd
thursda
thursday
thus
ti
tib
tibe
tiber
tiberi
tibet
tick
ticke
ticket
tickets
tig
tige
tiger
tigers
tight
tightly
tik
til
till
tim
timb
timba
timbal
timbala
timbalan
timbaland
timbe
timber
timberl
timberla
timberlak
timberlake
time
timelin
timeline
timor
timothy
tin
tint
tintin
tiny
tip
tipp
tippe
tit
tita
titan
titani
titanic
titl
title
titu
titul
titula
to
tomb
tombs
tomorrow
tong
tongu
tongue
tonight
took
tooth
topic
topics
topol
topp
topping
torch
torchwoo
torchwood
toron
toront
toronto
torture
tortured
totally
tottenham
touch
touchdown
touching
tough
tour
touring
tourn
tourna
tournam
tourname
tournamen
tournament
tow
towa
towar
toward
towards
towe
tower
town
township
toxic
toxici
toxicit
toxicity
tr
tra
trac
trace
traced
trach
track
tracking
tracy
trad
trade
tradem
tradema
trademar
trademark
trading
tradition
traditiona
traditional
traditionally
traff
traffi
traffic
trafficking
traffor
trafford
trag
trage
traged
tragedy
tragi
tragic
trai
trail
trailing
train
training
tram
tramw
tramwa
tramway
tran
trans
transactions
transc
transce
transcen
transcend
transcr
transcri
transcription
transf
transfe
transfer
transferr
transferre
transferred
transferring
transform
transformation
transi
transit
transition
transl
transla
translat
translate
translated
translation
transm
transmi
transmission
transmit
transmitt
transmitte
transmitted
transp
transpa
transpar
transpare
transparen
transpl
transpla
transport
transportation
transporting
transve
transver
transvers
transverse
transylvani
transylvania
trap
trapp
trappe
trapped
trash
traum
trauma
trav
trave
travel
traveling
travell
travelling
traver
travers
travi
travis
tre
trea
treas
treason
treasur
treasury
treat
treatm
treatme
treatmen
treatment
treaty
tree
trees
trek
trem
treme
tremen
tremend
tremendous
tren
trench
trend
trev
trevor
tri
tria
trial
triang
triangl
triangle
triangular
trib
triba
tribal
tribe
tribes
tribun
tribunal
tribut
trick
trig
trigg
trigge
trigger
trilogy
trim
trimm
trin
trini
trinid
trinida
trinidad
trinit
trinity
trio
trip
tripl
triple
triton
triumph
triv
trivi
tro
troi
troj
trojan
trol
troll
tron
trond
trondh
trondhe
trondhei
trondheim
troop
troops
trop
troph
trophi
trophy
tropi
tropic
tropica
tropical
trot
trott
trouble
trough
trout
troy
tru
truc
truce
truck
trucks
true
truly
trum
truma
truman
trump
trumpe
trumpet
trun
trunc
trunca
truncat
truncate
truncated
trunk
trunkl
trunklin
trunkline
trus
trust
truth
try
trying
tu
tub
tube
tuber
tuberc
tubercu
tubercul
tuberculo
tuberculos
tuberculosi
tuberculosis
tubes
tuck
tucke
tucker
tug
tul
tumor
tun
tung
tunn
tunne
tunnel
tur
turb
turbi
turbin
turbine
turbines
turbo
turbul
turbule
turbulen
turf
turk
turkish
turm
turmo
turmoi
turmoil
turn
turning
turnov
turnove
turnover
turnp
turnpi
turnpik
turnpike
turr
turre
turret
turrets
turt
turtl
turtle
turtles
tutor
tv
tw
twe
twee
tweed
tweet
twel
twelf
twelfth
twelv
twelve
twen
twent
twenty
twi
twic
twice
twilight
twin
twis
twist
twit
twitt
twitte
twitter
two
ty
tyl
tyle
tyler
tyn
tyne
typ
type
typh
typho
typhoon
typic
typica
typical
typically
tyr
tyra
tyran
tyrann
tyranno
tyrannos
tyrannosa
tyrannosaur
tz
u
ub
uh
uk
ukrain
ukraini
ukrainian
ul
ult
ulti
ultim
ultima
ultimat
ultimate
ultimately
ultr
ultra
umb
umbr
ump
umpi
umpir
umpire
un
unabl
unable
unanimous
unanimously
unawar
unaware
unb
unc
unce
uncer
uncert
uncerta
uncertai
uncertain
uncertaint
uncertainty
unch
uncha
unchang
unchange
unchanged
uncl
uncle
unclea
unclear
unco
uncom
uncomf
uncomfo
uncomfor
uncomfort
uncomforta
uncomfortab
uncomfortabl
uncomfortable
uncomm
uncommo
uncommon
uncon
uncons
unconsc
unconsci
unconscio
unconsciou
unconscious
unconst
unconsti
unconstit
unconstitu
unconstitut
unconstituti
unconstitutio
unconstitution
unconstitutiona
unconstitutional
unconv
uncov
uncove
uncover
uncr
uncre
und
unde
undef
undefe
undefea
undefeat
undefeate
undefeated
under
underg
undergo
undergoing
undergr
undergro
undergrou
undergroun
underground
undermin
undermine
underneath
understand
understanding
undertaking
underw
underwor
underworl
underworld
undi
undis
undisc
undiv
undivi
undivid
undivide
undivided
undo
unempl
unemplo
unemploy
unemploym
unemployme
unemploymen
unemployment
uneven
unexp
unexpe
unexpec
unexpect
unexpecte
unexpected
unexpectedly
unf
unfa
unfai
unfair
unfav
unfavo
unfavor
unfavora
unfavorab
unfavorabl
unfi
unfinish
unfinishe
unfinished
unfo
unfor
unfort
unfortu
unfortun
unfortuna
unfortunat
unfortunate
unfortunatel
unfortunately
unh
unha
unhapp
unhappy
uni
unic
unid
unide
uniden
unident
unidenti
unidentif
unidentifi
unidentifie
unidentified
unif
unifi
unifo
unifor
uniform
unimp
unin
unint
uninte
union
uniqu
unique
unit
univ
unive
univer
univers
universa
universal
universally
universe
universi
universit
university
unk
unknown
unl
unle
unles
unless
unli
unlik
unlike
unlikely
unlo
unloa
unload
unlock
unnam
unname
unnamed
unoff
unoffi
unoffic
unoffici
unofficia
unofficial
unor
unp
unpa
unpl
unpop
unpopu
unpopul
unpopula
unpopular
unpr
unpre
unprec
unprece
unpreced
unprecede
unpreceden
unprecedent
unprecedente
unprecedented
unpro
unsign
unsigne
unsigned
unsur
unsure
unt
unti
until
unu
unus
unusu
unusua
unusual
unusually
unv
unve
unvei
unveil
unveile
unveiled
unw
unwi
unwil
unwill
unwilling
up
upanish
upanisha
upanishad
upcom
upcoming
uph
uphe
uphel
upheld
upho
uphol
uplif
uplift
upon
upp
uppe
upper
upright
upward
upwards
uranium
urban
uruguay
us
usaf
usag
usage
use
used
useful
ush
ushe
usher
using
usual
usually
utiliz
utilize
utilized
v
va
vac
vaca
vacan
vacanc
vacant
vacat
vacate
vacation
vacc
vacci
vaccin
vacu
vacuu
vacuum
vag
vagu
vague
vain
val
vali
valid
vall
valle
valley
valu
valuable
value
valv
valve
vamp
vampi
vampir
vampire
van
vancouv
vancouve
vancouver
vanderwerff
vangu
vangua
vanguar
vanguard
vanish
vapo
vapor
var
vari
variable
varian
variant
variants
variation
variations
varie
variet
variety
various
variously
vary
varying
vas
vast
vatic
vatica
vatican
vau
vaugh
vaugha
vaughan
vaul
vault
ve
vector
veg
vega
vegas
vege
veget
vegeta
vegetable
vegetables
vegetation
veh
vehi
vehic
vehicl
vehicle
vehicles
vein
vel
velo
veloc
veloci
velocit
velocity
velve
velvet
ven
veng
venge
vengea
vengean
vengeanc
vengeance
veni
venic
venice
venom
vent
venti
ventil
ventr
ventu
ventur
venture
venu
venue
venues
venus
ver
vera
verac
verb
verba
verbal
verd
verde
verdi
verdic
verdict
verg
verge
verm
vermon
vermont
vern
verna
vernon
veron
veroni
veronic
veronica
vers
versa
versat
versati
versatil
version
versu
versus
vert
verte
verteb
vertebr
vertebra
vertebrat
vertebrate
verti
vertic
vertica
vertical
very
vi
viabl
viable
vib
vibr
vibration
vic
vicin
vicini
vicinit
vicinity
vicious
vick
vict
victi
victim
victims
victo
victor
victori
victoria
victorio
victoriou
victorious
victory
vietnam
viewership
viewpoint
vigorous
vij
vija
vijay
viking
vikings
vill
villa
village
villain
violation
violations
violin
virgini
virginia
vish
vishn
vishnu
visibility
visibl
visible
vision
visitor
visitors
vitamin
vivi
vivid
viz
vo
voc
voca
vocal
vocali
vocalis
vocalist
vocals
vogu
vogue
voi
voic
voice
void
vol
volc
volca
volcan
volcani
volcanic
volcano
volk
voll
volle
volley
volt
volta
voltag
voltage
volu
volum
volume
volun
volunt
volunta
voluntar
voluntary
vom
vomi
vomit
von
voor
vor
vort
vot
vote
voted
voting
vow
voy
voya
voyag
voyage
vu
vuk
vul
vulc
vulca
vulcan
vulg
vulga
vuln
vulne
vulner
vulnera
vulnerabi
vulnerabil
vulnerabili
vulnerabilit
vulnerable
vult
vultur
vulture
w
wa
wad
wadd
wag
wage
wages
wagg
wagn
wagne
wagner
wagon
wagons
wah
wai
wain
wais
wait
waiting
waiv
waive
wak
wake
wal
wald
wale
wales
walk
walking
wall
wallach
walsh
walt
walton
wan
wand
wande
wander
wang
want
wanting
war
warbl
warble
warbler
warf
warfa
warfar
warfare
warh
warm
warming
warrior
warriors
warship
warships
wartim
wartime
warwick
was
wash
washington
wat
watch
watching
wate
water
waterf
waterfa
waterfal
waterfall
waterlin
waterline
watersh
watershe
watershed
waterw
waterwa
waterway
wats
watson
watt
watts
wav
wave
wavelength
waves
wax
way
we
weak
wealth
wealthy
weapon
weapons
weath
weathe
weather
web
webb
webs
websi
websit
website
webst
webste
webster
weekly
weh
wehr
wehrm
wehrma
wehrmach
wehrmacht
weigh
weighing
weight
wein
wel
welcome
welcomed
weld
welding
welf
welfa
welfar
welfare
well
wellington
welsh
wembl
wemble
wembley
wen
wend
went
wer
were
wern
werne
wes
wesl
wesle
wesley
wess
wesse
wessex
west
westbound
westmin
westmins
westminst
westminste
westminster
westw
westwa
westwar
westward
wh
wha
whal
whale
whales
whar
wharf
what
whe
whea
wheat
whedon
whee
wheel
wheelch
wheelcha
wheelchai
wheelchair
when
wher
where
whereby
wheth
whethe
whether
whi
which
whig
whil
while
whip
whis
whisk
whist
whistl
whistle
whit
white
whiteh
whitish
whitm
whitn
whitne
whitney
who
why
wi
wick
wicke
wicked
wicket
wickets
wid
wide
widely
widow
width
wif
wife
wig
wigan
wigg
wiggi
wiggin
wiggins
wik
wiki
wil
wilc
wild
wildlif
wildlife
wilh
wilhe
wilhel
wilhelm
wilhelmsh
wilhelmsha
wilhelmshav
wilhelmshave
wilhelmshaven
wilk
wilki
wilkin
wilkinson
will
willi
willia
william
williamson
willing
willingn
willingne
willingnes
willingness
willis
willow
wilm
wilming
wilmington
wilson
wimb
wimbl
wimble
wimbled
wimbledon
win
winch
winche
winches
winchest
wincheste
winchester
wind
window
windows
winds
windsor
wing
winn
winne
winner
winning
winston
wint
winte
winter
wir
wire
wirel
wirele
wireles
wireless
wish
wit
witch
witchc
witchcr
witchcra
witchcraf
witchcraft
with
withdrawal
within
withou
without
withstand
witn
witne
witnes
witness
witt
wive
wives
wiz
wiza
wizar
wizard
wo
wol
wolf
woll
wolls
wollst
wollsto
wollston
wollstone
wollstonec
wollstonecr
wollstonecra
wollstonecraf
wollstonecraft
wolv
wolve
wolver
wolveri
wolverin
wolverine
wolverines
wolves
wom
woma
woman
won
wong
woo
wood
woodland
woodw
wool
wor
word
words
work
working
worksh
worksho
workshop
workshops
worl
world
worldw
worldwi
worldwid
worldwide
worm
wors
worship
worshipp
worshippe
worst
worth
worthy
wou
woul
would
woun
wound
wr
wra
wrapp
wrappe
wrapped
wre
wreck
wres
wrest
wrestl
wrestle
wrestlem
wrestleman
wrestlemani
wrestlemania
wrestler
wrestlers
wrestling
wri
wright
wris
wrist
writ
write
writer
writers
writing
writt
writte
written
wro
wrong
wrot
wrote
wrought
wu
wulf
ww
wwf
wy
wya
wyat
wyatt
wyn
wyoming
x
xb
xbo
xbox
xi
xii
xiii
xiv
xvi
xx
y
ya
yach
yacht
yah
yak
yal
yale
yam
yama
yan
yang
yank
yankov
yankovi
yankovic
yar
yard
yards
ye
yea
year
years
yell
yellow
yellowish
yellowston
yellowstone
yeom
yi
yo
yog
yoga
yok
yoko
yong
yor
york
yorkshir
yorkshire
yoshi
you
young
youth
yp
yu
yuan
yuc
yuca
yucat
yug
yugo
yugos
yugosl
yugosla
yugoslav
yugoslavi
yugoslavia
yuk
yun
z
zach
zack
zag
zagr
zagre
zagreb
zan
zapp
zepp
zeppe
zeppel
zeppeli
zeppelin
zh
zhang
zhu
zim
zimb
zimba
zimbab
zimbabw
zimbabwe
zin
zinc
zion
zo
zomb
zombi
zombie
zon
zone
zoo
zool
zoolo
zoolog
zoologi
zur
