##'
##'d
##'l
##'ll
##'s
##'t
##'v
##a
##abb
##abbl
##abi
##abia
##abian
##abic
##ability
##abit
##abitation
##abitu
##abitually
##abl
##ablish
##ablishing
##ablishm
##ably
##abol
##abor
##abora
##aborious
##abou
##abour
##about
##abouts
##abula
##aby
##acation
##acc
##acco
##accountabl
##ach
##achful
##aching
##achus
##acific
##acious
##ack
##acking
##acksmith
##acob
##acon
##acqu
##acrific
##actic
##acticabl
##actically
##actory
##actur
##acu
##aculous
##acus
##adicat
##adict
##adition
##adow
##adows
##adually
##adyship
##aff
##affi
##affic
##affo
##ag
##agazi
##agg
##agging
##agic
##ago
##agogu
##agon
##agoni
##agranc
##agu
##ah
##aham
##ahan
##ahom
##aight
##aightway
##aim
##ain
##ainbow
##aining
##ainly
##aint
##aithful
##aitor
##ajor
##ak
##akabl
##akf
##akfa
##akfas
##akfast
##aking
##alanc
##alcon
##alcony
##alion
##alisbury
##alistic
##aliz
##alization
##alizing
##alj
##alk
##alking
##all
##allo
##alloon
##allop
##alloping
##ally
##alogous
##alogu
##alogy
##alom
##alour
##alous
##alousy
##alph
##alstaff
##alth
##althy
##alu
##aluabl
##amag
##amatic
##ambo
##amboa
##amboat
##amond
##amos
##amous
##amp
##amphl
##amping
##ampton
##anc
##anch
##ancho
##ancholy
##anctu
##ancy
##andfath
##andish
##andmoth
##androvitch
##andsom
##andwich
##ang
##anging
##angl
##angu
##angul
##angula
##angular
##anic
##anical
##anically
##animity
##animous
##anish
##anization
##ank
##ankful
##anking
##ankly
##anour
##anovitch
##anquil
##anquillity
##anquish
##anship
##ansoul
##antag
##antic
##anwhil
##aomi
##aoul
##aph
##aphic
##aphor
##aphy
##apkin
##apol
##apon
##apons
##apor
##apour
##app
##apping
##aptur
##aranc
##aratus
##arba
##arbarous
##arbican
##arbor
##arbour
##arching
##ardships
##argain
##ariably
##arious
##arition
##arkabl
##arking
##arlour
##armonious
##armony
##arnaby
##arnish
##arpoon
##arrow
##arshly
##artially
##articula
##artur
##arwick
##ash
##ashi
##ashing
##asion
##asmuch
##asonabl
##asonably
##astic
##astroph
##atag
##atching
##ath
##athsh
##atic
##atica
##atifi
##atification
##atigu
##ation
##ationship
##atious
##atisfactory
##atitud
##ativ
##ator
##atory
##atric
##atrici
##atrick
##atu
##atulat
##atur
##aturally
##atus
##aubon
##auc
##auch
##aug
##augh
##aught
##aughty
##aul
##ault
##auphin
##ausibl
##autic
##autiful
##aution
##autions
##aux
##av
##avigation
##avilion
##aving
##aviour
##avish
##avo
##avoi
##avor
##avour
##avourabl
##avouring
##avy
##awain
##awar
##awful
##axation
##axon
##aylight
##aymond
##az
##aza
##azar
##azi
##azil
##azing
##azza
##azzl
##b
##ba
##babl
##bably
##bacco
##back
##bag
##bah
##bal
##ball
##ban
##band
##band's
##barous
##bauch
##bb
##bbing
##bbish
##bbl
##bi
##bia
##bic
##bica
##bican
##bil
##bili
##bilit
##bility
##bin
##bish
##bit
##bitation
##bition
##bitu
##bitually
##bj
##bl
##blish
##blishing
##blishm
##bly
##bo
##boa
##boar
##board
##bod
##body
##bol
##bon
##boo
##book
##bor
##bora
##borg
##borious
##born
##borough
##bou
##bour
##bourn
##bow
##brok
##brow
##brows
##btor
##bu
##bui
##buil
##buk
##bul
##bula
##bulous
##bur
##burg
##burgh
##burn
##bury
##bus
##buth
##buthn
##buthno
##buthnot
##by
##c
##cabula
##caffo
##call
##cally
##camp
##carious
##cation
##caution
##cautions
##cc
##cca
##cco
##ccomm
##ccommo
##ccomp
##ccompl
##ccomplish
##ccou
##ccoun
##ccount
##ccountabl
##ccu
##ccum
##ccumul
##ccup
##ccustom
##ch
##chanc
##chang
##chanic
##chanical
##chanically
##chbish
##chbisho
##chbishop
##chful
##chi
##chil
##child
##chill
##chin
##ching
##chio
##chnical
##cho
##chol
##cholo
##cholog
##choly
##choo
##ci
##cially
##ciation
##cibl
##cibly
##cid
##cifi
##cific
##cifica
##cifical
##cifically
##ciful
##cill
##cilla
##cim
##cion
##cious
##cip
##cipi
##cipic
##cipit
##cipita
##cipitat
##cision
##ck
##ckl
##cknow
##ckon
##ckoning
##cksniff
##claim
##cliff
##clin
##clination
##clining
##cloth
##clu
##clud
##clusion
##co
##cob
##cock
##coff
##cog
##cogn
##cogni
##cognis
##cognition
##cogniz
##coh
##cohol
##col
##coll
##com
##comb
##comf
##coming
##comm
##comp
##compl
##complish
##compo
##compos
##con
##conc
##conci
##concil
##concili
##conciliation
##cond
##condly
##cong
##congr
##conom
##cony
##cop
##cor
##cora
##corat
##coration
##cord
##corn
##corpor
##cottish
##cou
##coun
##count
##cour
##coura
##courag
##courg
##cours
##cov
##cow
##cqu
##crib
##cribabl
##crific
##crim
##crimi
##crimin
##cription
##criptur
##crof
##crow
##crup
##crupulous
##ct
##ctability
##ctabl
##ctation
##ctator
##ctators
##ctful
##ctfully
##ctic
##cticabl
##ctically
##ctifi
##cting
##ction
##ctitious
##ctiv
##ctly
##ctor
##ctorious
##ctory
##ctric
##ctrici
##ctricit
##ctricity
##ctu
##ctua
##ctual
##ctually
##ctur
##cturing
##cu
##cul
##cula
##cular
##culat
##culation
##culations
##culativ
##culi
##culia
##culiar
##culiarly
##culous
##cumb
##cumul
##cun
##cund
##cuni
##cunia
##cuniar
##cuniary
##cuous
##cur
##curi
##curing
##curit
##curity
##cus
##custom
##cut
##cuting
##cution
##cutiv
##cuto
##cutor
##d
##ddish
##ddition
##dfath
##dibl
##dibly
##dic
##dica
##dicat
##dication
##dici
##dicin
##dict
##dicul
##dicula
##diculous
##diff
##dific
##dification
##digal
##digious
##dignation
##dinburgh
##dious
##dish
##distinct
##dition
##ditor
##ditors
##ditur
##dium
##dj
##djac
##djoining
##dju
##dlock
##dmini
##dmonish
##dmoth
##dn't
##dolph
##dom
##domin
##domina
##doo
##dop
##dour
##dow
##down
##dox
##drob
##droom
##drovitch
##dship
##dsmith
##dsom
##dually
##duc
##ducation
##ducing
##duction
##ductiv
##dulg
##duli
##dulit
##dulity
##dulous
##dult
##duous
##dvanc
##dvantag
##dvoc
##dward
##dwich
##dyship
##e
##f
##factory
##factur
##fall
##famous
##fath
##ff
##fianc
##fic
##fication
##fici
##ficia
##ficial
##figu
##figur
##fin
##fini
##finit
##finition
##fish
##fix
##flow
##fluous
##fo
##fol
##fold
##folk
##foo
##foot
##for
##form
##formation
##forming
##forth
##forward
##found
##frain
##ftain
##fu
##fug
##ful
##fully
##fum
##fun
##fur
##fus
##fusing
##fut
##g
##gain
##ganc
##ganic
##ganization
##gation
##gativ
##gaz
##gazi
##gg
##gga
##ggar
##gging
##ggish
##ggo
##ggot
##ggott
##ggotty
##gh
##gianc
##gibl
##gic
##gim
##gin
##ginn
##ginning
##gion
##gions
##gious
##giving
##glig
##gnifi
##gnific
##gnify
##gnition
##gnobl
##gnom
##gnoranc
##go
##gog
##gogu
##going
##gom
##gorously
##goth
##gour
##graph
##grim
##groom
##ground
##grown
##gu
##gua
##guar
##guard
##gui
##guil
##gul
##gula
##gular
##gularly
##gulat
##gulation
##gulations
##gum
##gun
##guous
##h
##ha
##hab
##half
##hall
##ham
##han
##hand
##hap
##haps
##hav
##havi
##havio
##havior
##haviour
##hi
##hib
##hic
##hicl
##hil
##hild
##hill
##hin
##hind
##ho
##hog
##hol
##hold
##holding
##hom
##hoo
##hood
##hous
##hov
##how
##hu
##hur
##hurs
##hurst
##i
##iably
##iabol
##iag
##iah
##ially
##ialogu
##ianc
##iangl
##iastic
##iastica
##iastical
##iatic
##ib
##ibabl
##ibah
##ibb
##ibbl
##ibi
##ibil
##ibili
##ibilit
##ibility
##ibition
##ibl
##ibly
##ibu
##ibus
##ic
##ica
##icabl
##ical
##ically
##ican
##icat
##ication
##ich
##icho
##ici
##icily
##icion
##icious
##ick
##ick's
##icking
##ickl
##ico
##ictorious
##icul
##iculous
##icult
##icultu
##icultur
##idicul
##idiculous
##idious
##idn't
##idow
##iduous
##if
##iff
##iffly
##ifi
##ific
##ification
##ifl
##iform
##ift
##ifth
##iful
##ify
##ifying
##ig
##iga
##igal
##igan
##igat
##igation
##igato
##igator
##igg
##iggi
##iggin
##igging
##iggl
##igh
##ighb
##ighbo
##ighbor
##ighborh
##ighborho
##ighborhoo
##ighborhood
##ighboring
##ighbors
##ighbou
##ighbour
##ighbourh
##ighbourho
##ighbourhoo
##ighbourhood
##ighbouring
##ighing
##ight
##ightfu
##ightful
##ightw
##ightwa
##ightway
##igibl
##igion
##igious
##ign
##ignation
##ignifi
##ignific
##ignifica
##ignifican
##ignify
##igo
##igorously
##igour
##igu
##iguous
##igur
##ihil
##ihood
##ijah
##iking
##ilbur
##ilgrim
##ilion
##ilious
##iliz
##ilk
##ill
##illing
##illion
##illo
##illon
##illy
##ilous
##ilv
##im
##imation
##imb
##imi
##imil
##iminish
##imit
##imity
##imo
##imon
##imony
##imous
##imp
##impl
##imu
##imus
##in
##in't
##ination
##inbow
##inburgh
##inc
##inci
##incibl
##incip
##incipally
##incipl
##inct
##inctiv
##indow
##inful
##ing
##ingh
##ingha
##ingham
##inguish
##inguishing
##ingul
##inion
##inish
##inishing
##inition
##ink
##inking
##inkl
##inous
##inquish
##inuous
##inx
##ioc
##ioch
##iograph
##iography
##ion
##ionship
##iotic
##iour
##ious
##ioux
##ipho
##iphol
##ipholu
##ipic
##iploma
##ipp
##ippi
##ipping
##iption
##iptur
##ipula
##ipulat
##iquit
##iquiti
##iquity
##irrup
##irtuous
##isapp
##isbury
##iscomf
##iscop
##iscourag
##iscours
##iscov
##iscu
##isdom
##isfactory
##isgiving
##isgu
##ish
##ishabl
##ishing
##isibl
##ision
##ismount
##ison's
##isposition
##issippi
##ississippi
##istakabl
##istanc
##istibl
##istic
##istill
##istinct
##istinguish
##istoc
##istocr
##istocra
##istocrac
##istocracy
##istocratic
##istol
##istoph
##istribut
##istribution
##isturb
##itably
##itag
##itain
##itanc
##itanic
##itch
##itching
##ith
##ithf
##ithfu
##ithful
##ition
##itious
##itish
##itiv
##itor
##itori
##itors
##itory
##itu
##itua
##itually
##ituation
##itud
##itur
##itus
##itution
##itutions
##ium
##iumph
##iv
##ivabl
##ivation
##iving
##ivision
##ivolous
##ix
##ixp
##ixth
##iz
##ization
##izing
##izon
##izz
##izzl
##j
##ja
##jac
##jah
##jam
##jan
##jo
##joi
##joic
##joicing
##join
##joining
##jol
##jor
##jou
##jour
##journ
##joy
##joying
##ju
##jud
##judi
##judic
##k
##kabl
##kiah
##kill
##kin
##king
##kipp
##know
##koff
##kshop
##kwa
##kwright
##l
##labora
##lack
##lacksmith
##laim
##lain
##lanc
##lanch
##lancholy
##lang
##lank
##lantic
##lapping
##lash
##lashing
##lation
##lations
##lationship
##lativ
##laught
##lausibl
##lav
##lavor
##laz
##lazing
##lban
##lbo
##lbow
##lbur
##lbury
##lcohol
##lcom
##lcon
##lcony
##ldom
##ldsmith
##lf
##lfish
##lfishn
##lgrim
##lib
##libl
##lic
##lica
##licac
##licacy
##licat
##lication
##lici
##licious
##licit
##licity
##lick
##lif
##liff
##lift
##lig
##light
##lightf
##lightfu
##lightful
##ligibl
##ligion
##ligious
##lihood
##lim
##limi
##limin
##limina
##liminar
##liminary
##limp
##lin
##lination
##link
##linquish
##lion
##lious
##lipp
##lipping
##lisbury
##lish
##lishing
##listic
##lium
##liv
##lix
##liz
##lizing
##lj
##lk
##lking
##ll
##llabl
##llibl
##llig
##lligibl
##lling
##llion
##llious
##llish
##llock
##llop
##lloping
##lloq
##llous
##llow
##llowing
##llowsh
##llowshi
##llowship
##llusion
##lly
##lly's
##lmo
##lob
##loc
##locit
##locity
##lock
##lof
##log
##logi
##logic
##logiz
##logous
##logu
##logy
##lom
##loma
##lomon
##long
##longing
##loo
##loof
##look
##loom
##looming
##lop
##loping
##lopm
##loq
##loqu
##lorious
##loth
##louc
##loud
##lough
##lour
##lourish
##lourishing
##lous
##lously
##lousy
##lov
##low
##lowing
##lowl
##lph
##lphi
##lphia
##lroom
##lsion
##lstaff
##lth
##lthough
##ltitud
##ltog
##ltuous
##lu
##luabl
##lubl
##luc
##luck
##luct
##lucta
##luctan
##luctanc
##luctant
##luctantly
##lud
##luff
##lug
##luggish
##lumb
##lung
##luous
##lush
##lushing
##lusion
##lution
##lv
##lvation
##lving
##lway
##ly
##m
##mack
##mag
##magn
##main
##maining
##mall
##manship
##markabl
##markably
##mash
##matic
##matica
##matical
##maz
##mazing
##mb
##mbition
##mbitious
##mbl
##mblanc
##mbling
##mbly
##mbo
##mbranc
##mbul
##mbula
##mbush
##miah
##mic
##mical
##mill
##min
##mina
##minabl
##minat
##mination
##mind
##mini
##minin
##minis
##minisc
##minish
##mish
##mistakabl
##mith
##mix
##mmin
##mmock
##mmon
##mmor
##mmovabl
##mmunition
##mo
##moc
##mock
##mocr
##mocra
##mocrac
##mocracy
##mocrat
##mocratic
##mod
##mog
##moi
##mois
##mok
##mol
##mom
##mon
##mond
##mong
##moni
##monia
##monious
##monish
##monition
##mony
##moo
##mooth
##mor
##morabl
##mori
##moria
##morial
##morrow
##mory
##mos
##mosph
##most
##mot
##moth
##moun
##mount
##mour
##mous
##mously
##mouth
##mov
##movabl
##mp
##mph
##mphl
##mpl
##mpla
##mplat
##mplating
##mplation
##mplish
##mpo
##mpor
##mpora
##mporal
##mporar
##mporari
##mporary
##mpt
##mptation
##mptibl
##mpting
##mption
##mpto
##mpton
##mptor
##mptuous
##mptuousl
##mptuously
##much
##mulous
##multuous
##munition
##n
##n't
##naby
##nanc
##nancy
##nasmuch
##nbow
##nburgh
##nburn
##nc
##nch
##nching
##nchm
##nchma
##nchman
##ncho
##ncholy
##ncibl
##nciful
##ncongr
##ncount
##ncour
##ncourt
##ncrof
##ncroft
##ncumb
##ndfath
##ndicat
##ndicula
##ndicular
##ndish
##nditur
##ndmoth
##ndour
##ndow
##ndown
##ndrovitch
##ndship
##ndsom
##ndwich
##nfamous
##ng
##ngag
##ngh
##ngha
##ngth
##ngu
##nham
##nib
##nibus
##nic
##nical
##nically
##nicious
##nico
##niff
##nifi
##nific
##nify
##nihil
##nimity
##nimous
##nion
##nious
##nish
##nishing
##nishm
##nition
##nix
##nization
##nizing
##njam
##njami
##njamin
##njoy
##njoying
##nju
##nk
##nkful
##nki
##nking
##nnico
##nnicot
##nnicott
##nobl
##noc
##nom
##nomi
##nomin
##noon
##noranc
##normous
##notic
##nough
##noun
##nounc
##nour
##nourabl
##novitch
##now
##nown
##noyanc
##npowd
##nquil
##nquill
##nquilli
##nquillit
##nquillity
##nquir
##nquiring
##nquish
##nshin
##nship
##nsibility
##nsibl
##nsibly
##nsion
##nsitiv
##nsomuch
##nsoul
##ntag
##ntanc
##ntangl
##nthrop
##ntially
##ntic
##ntica
##ntical
##ntifi
##ntific
##ntim
##ntion
##ntious
##ntiv
##ntor
##ntric
##ntua
##ntuck
##ntur
##nturi
##nturous
##ntury
##nually
##nuff
##nug
##nuous
##nvincibl
##nvisibl
##nwh
##nwhi
##nwhil
##nxious
##nyhow
##nymous
##nything
##nywh
##nzo
##o
##oach
##oachful
##oaching
##ob
##oba
##obabl
##obably
##obation
##obb
##obbing
##obby
##obi
##obl
##obo
##obus
##oc
##oca
##ocabula
##ocal
##ocat
##ocation
##occup
##occupi
##och
##oci
##ocia
##ociat
##ociation
##ocious
##ocit
##ock
##ockh
##ocking
##oclaim
##ocop
##ocu
##odigious
##odious
##odox
##oduc
##oduction
##oductiv
##of
##off
##ofound
##og
##ogh
##ogiz
##ognition
##ogous
##ogr
##ogra
##ograph
##ographi
##ographic
##ography
##ogu
##ohib
##ohibi
##ohibit
##ohol
##oic
##oj
##oja
##ojourn
##ok
##oking
##olation
##olic
##olin
##olk
##olling
##ollow
##ollowing
##olly
##olog
##ologi
##ologia
##ologic
##ologica
##ological
##ologis
##ologist
##ologu
##ology
##olong
##olous
##olph
##olu
##olubl
##olut
##olution
##olv
##olving
##om
##oma
##oman
##omi
##omm
##omob
##omobi
##omobil
##omon
##omp
##ompl
##omplish
##ompt
##omptly
##omuch
##on
##on's
##on't
##onabl
##onably
##onag
##onally
##ong
##onic
##onicl
##onious
##onish
##onishing
##onishm
##onju
##onlight
##onmouth
##ono
##onom
##onomy
##onopo
##onounc
##onour
##onourabl
##onous
##onship
##onsibl
##onth
##ontiff
##onymous
##onz
##oo
##ood
##ooding
##oof
##oofs
##ook
##ooking
##ool
##oom
##ooming
##oon
##oonlight
##oop
##ooping
##oos
##ooth
##oov
##op
##oph
##opha
##ophi
##opho
##ophon
##ophy
##oping
##opl
##opo
##opol
##opp
##opping
##oq
##oqu
##oranc
##orcibly
##ordship
##oric
##orious
##oriously
##orizon
##orking
##orkshop
##ormous
##oroth
##orothy
##orough
##orous
##orously
##orpor
##orribl
##orribly
##orrow
##orship
##orshipp
##orthwith
##ortion
##oscop
##oscow
##osition
##ossibl
##oth
##otic
##otion
##otonous
##ottish
##ou
##oubl
##oubt
##ouc
##ouch
##ouching
##oud
##oudly
##ough
##ought
##oul
##oun
##ounc
##ound
##ounding
##oup
##our
##ourabl
##ourc
##ourg
##ourish
##ourishing
##ous
##ously
##out
##outh
##oux
##ov
##ovabl
##oving
##ovision
##ovitch
##ovocation
##ovok
##ow
##owing
##own
##ox
##oxi
##oxic
##oxim
##oxy
##oyanc
##oyhood
##oz
##p
##partur
##ph
##phic
##phin
##pho
##phon
##phor
##phoru
##phorus
##phus
##pic
##pical
##picion
##picious
##pict
##pill
##piscop
##pkin
##ploma
##po
##poch
##pod
##poi
##pok
##pol
##poll
##pollo
##polog
##pon
##pond
##ponding
##pons
##ponsibl
##poo
##pool
##por
##port
##pos
##posi
##posit
##position
##pot
##poth
##poti
##pour
##pow
##powd
##pp
##pping
##priv
##proach
##proachful
##produc
##proof
##prov
##ptanc
##ptibl
##ptibly
##ptic
##ption
##ptiv
##ptu
##ptur
##publ
##publi
##public
##publica
##publican
##pug
##pugn
##pul
##pula
##pulch
##pulchr
##pulous
##puls
##pulsiv
##q
##qu
##qui
##quil
##quill
##quin
##quir
##quiring
##quish
##quit
##quity
##r
##rabia
##rabian
##rably
##racious
##rack
##ractic
##racticabl
##ractically
##raculous
##racus
##radicat
##radict
##radition
##radually
##raffic
##ragg
##ragging
##raggl
##ragic
##ragon
##raham
##raight
##raightway
##raim
##rain
##raitor
##ramatic
##ramp
##ranc
##ranch
##randfath
##randmoth
##rang
##rangu
##rank
##rankly
##ranquil
##ranquillity
##raph
##raphy
##rapping
##ratag
##ratus
##raught
##razil
##rba
##rbal
##rbarous
##rbican
##rbit
##rboard
##rbol
##rbor
##rbour
##rbury
##rbuthnot
##rchanc
##rchang
##rchbishop
##rchi
##rching
##rcibly
##rciful
##rcours
##rctic
##rdour
##rdship
##rdships
##rficial
##rflow
##rfluous
##rfolk
##rform
##rforma
##rformanc
##rforming
##rfum
##rgain
##rground
##rgu
##rgum
##rhaps
##riably
##riag
##riangl
##rib
##ribabl
##ribbl
##ribl
##ribly
##ribu
##ribut
##ric
##rica
##rican
##ricious
##rick
##rico
##ricultur
##rif
##riff
##rifi
##rific
##rift
##riga
##rigg
##riggs
##right
##rightful
##rigibl
##rigu
##riking
##rill
##rilling
##rilous
##rim
##rimm
##rimon
##rimony
##rinc
##rincip
##rincipally
##rincipl
##rink
##rinking
##rinkl
##riotic
##rious
##riously
##ripp
##ription
##riptur
##rish
##rishing
##rision
##ristic
##ristocracy
##ristocratic
##ristoph
##ritain
##ritanc
##rition
##ritish
##ritori
##ritory
##riumph
##riv
##riving
##rivolous
##rizon
##rizzl
##rju
##rkabl
##rking
##rkshop
##rkwright
##rloc
##rlook
##rlour
##rmin
##rminabl
##rmination
##rmom
##rmonious
##rmony
##rmount
##rmour
##rmous
##rnaby
##rnicious
##rnish
##rnoon
##roach
##roachful
##roaching
##rob
##roba
##robabl
##robably
##robation
##robbing
##robl
##roca
##roci
##rocious
##rocit
##rocity
##rock
##roclaim
##rocop
##rocu
##rodigious
##roduc
##roducing
##roduction
##roductiv
##rof
##rofound
##rog
##roga
##rogat
##rogati
##rogativ
##rohibit
##roic
##roj
##rok
##rolling
##rolong
##rom
##romatic
##romi
##rompt
##romptly
##rong
##ronic
##ronica
##ronicl
##ronom
##ronounc
##ronz
##roo
##rood
##rooding
##roof
##rook
##room
##roop
##rooping
##rop
##roph
##ropo
##ropol
##ropoli
##ropp
##ropping
##roscop
##roth
##rothy
##roubl
##rouching
##roud
##roudly
##rough
##rought
##round
##rounding
##roup
##rous
##rously
##rout
##rov
##rovi
##roving
##rovision
##rovit
##rovitch
##rovocation
##rovok
##row
##rowing
##rowl
##rown
##roxim
##roxy
##roz
##rpo
##rpool
##rpoon
##rpor
##rpow
##rrang
##rribl
##rribly
##rrifi
##rrific
##rritori
##rritory
##rriv
##rroga
##rround
##rrounding
##rrow
##rrowing
##rrows
##rrup
##rrupt
##rrupting
##rruption
##rsburg
##rship
##rshipp
##rshly
##rsion
##rsonag
##rsonally
##rstitious
##rstood
##rsuasion
##rtagnan
##rtain
##rtaining
##rtainly
##rtho
##rthquak
##rthrow
##rthrown
##rthumb
##rthur
##rthward
##rthwith
##rtially
##rticl
##rticula
##rticulat
##rtific
##rtifica
##rtificat
##rtill
##rtion
##rtistic
##rtook
##rtout
##rtu
##rtugu
##rtuous
##rtur
##rturb
##ruc
##ruchio
##ruck
##ruct
##ruction
##ructiv
##ructu
##rug
##rugg
##ruggl
##ruggling
##rump
##runk
##rup
##rupt
##ruption
##ruptly
##rupulous
##rush
##rushing
##rusion
##ruth
##ruthful
##rutus
##rvanc
##rvation
##rvativ
##rvic
##rving
##rvitud
##rvous
##rvously
##rward
##rwards
##rwick
##rybody
##rything
##rywh
##s
##sapp
##sault
##sband
##sband's
##sburg
##sbury
##scomf
##scop
##scor
##scourag
##scours
##scov
##scow
##scrib
##scribabl
##scribing
##scription
##scu
##sdom
##sfactory
##sfigur
##sgiving
##sgu
##sh
##shful
##shi
##shin
##shing
##ship
##shipp
##shir
##shly
##sho
##shol
##shold
##shop
##shor
##shot
##siastical
##siatic
##sibility
##sibl
##significan
##simil
##simila
##sion
##sippi
##sissippi
##sistanc
##sistibl
##sition
##sitiv
##sitor
##situd
##sking
##slav
##smith
##smount
##smuch
##sn't
##sniff
##sociat
##sociation
##solation
##solut
##solution
##solv
##som
##somuch
##son's
##sonabl
##sonably
##sonag
##sonally
##sooth
##soud
##soul
##sourc
##spic
##spicion
##spicious
##spok
##spond
##sponding
##spons
##sponsi
##sponsib
##sponsibi
##sponsibil
##sponsibili
##sponsibilit
##sponsibility
##sponsibl
##sposition
##spoti
##spotis
##spotism
##ssault
##ssibl
##ssion
##ssippi
##ssissippi
##ssistanc
##ssitud
##ssociat
##ssociation
##ssumption
##ssuranc
##stablish
##stablishing
##stablishm
##staff
##stakabl
##stall
##stalli
##stanc
##stibl
##stic
##stick
##stigat
##stigation
##still
##stimabl
##stimation
##stimony
##stinct
##stinctiv
##stinguish
##stion
##stionabl
##stitious
##stitut
##stitution
##stitutions
##stiv
##stiva
##stival
##stoc
##stock
##stol
##stom
##stonish
##stonishing
##stonishm
##stood
##stoph
##stor
##storation
##stow
##strain
##straint
##strang
##stribut
##stribution
##stric
##strict
##strong
##stronom
##stroph
##struct
##struction
##structiv
##stur
##sturb
##suasion
##succ
##suffici
##sula
##sult
##sulting
##sumption
##suppo
##suranc
##swald
##sycholog
##t
##tability
##tablish
##tablishing
##tablishm
##tably
##tack
##taff
##tag
##tagg
##tagn
##tagna
##tagnan
##tagoni
##tain
##taining
##tainly
##takabl
##talk
##tall
##talli
##tallic
##tamp
##tamping
##tanc
##tangl
##tanic
##taphor
##taphy
##taphys
##tatu
##tch
##tchful
##tching
##tgom
##th
##thful
##thing
##think
##thinks
##tho
##thod
##thodox
##thor
##thorn
##thorp
##though
##thought
##thqu
##thqua
##thquak
##throp
##throw
##thrown
##thu
##thumb
##thur
##thwa
##thwar
##thward
##thwith
##tially
##tibl
##tibly
##tic
##ticabl
##tically
##tick
##ticking
##ticl
##tico
##ticoa
##ticul
##ticula
##tiff
##tiffly
##tifi
##tific
##tification
##tifl
##tiful
##tify
##tifying
##tigat
##tigation
##tigu
##till
##tim
##timabl
##timation
##timon
##timony
##timu
##tinct
##tinctiv
##tinguish
##tinguishing
##tioch
##tion
##tionabl
##tionship
##tious
##tiously
##tipholu
##tiquity
##tirrup
##tisfactory
##tish
##tistic
##tition
##titious
##titu
##titud
##titut
##titution
##titutions
##tiv
##tlantic
##tmosph
##to
##toc
##tock
##tocking
##tog
##tol
##tom
##tomi
##tomobil
##tomy
##tonish
##tonishing
##tonishm
##tonous
##too
##tood
##took
##tool
##tooping
##top
##toph
##topp
##topping
##tor
##toration
##toric
##torical
##torious
##tory
##tout
##tow
##town
##toxic
##tpon
##traggl
##traight
##traightway
##train
##trang
##tratag
##tribut
##tributi
##tributio
##tribution
##tric
##trici
##trick
##trif
##trigu
##triking
##triotic
##tripp
##troduc
##troducing
##troduction
##trok
##trong
##tronom
##trop
##troph
##tropoli
##tropolis
##troth
##trov
##truchio
##truck
##truct
##truction
##tructiv
##tructu
##truggl
##truggling
##ttack
##tticoa
##tticoat
##ttish
##ttitud
##ttom
##ttribut
##tu
##tua
##tual
##tually
##tuat
##tuation
##tubbo
##tuck
##tuff
##tugu
##tulat
##tumbl
##tump
##tuous
##tur
##turally
##turb
##turn
##turning
##turous
##tury
##tus
##tution
##tutions
##twix
##twixt
##u
##uabl
##ually
##uasion
##uation
##ub
##ubb
##ubbing
##ubbish
##ubbo
##ubious
##ubj
##ubl
##ubli
##ublim
##ublish
##ubon
##ubt
##uc
##ucation
##ucc
##uccou
##uch
##ucha
##uchi
##uching
##uchio
##uci
##ucid
##ucida
##uck
##ucking
##uct
##uction
##uctiv
##uctu
##udibl
##ufactur
##uff
##uffi
##uffic
##uffici
##uffl
##ug
##uga
##ugg
##ugging
##uggish
##uggl
##uggling
##ugh
##ught
##ugm
##ugu
##ugur
##uh
##uish
##uishing
##uition
##ul
##ula
##ulan
##ular
##ulat
##ulating
##ulation
##ulativ
##ulg
##uli
##ulous
##ulously
##ulsion
##ult
##ultuous
##ulu
##ulus
##um
##umb
##umbl
##umbling
##umbu
##umour
##ump
##umph
##umption
##umptuous
##umul
##unching
##ung
##unish
##unishm
##unition
##unk
##unpowd
##unshin
##uous
##up
##uph
##uphi
##uphin
##upi
##upon
##upp
##uppo
##upt
##uption
##uptly
##upulous
##uranc
##urious
##urish
##urnish
##urop
##urround
##urrounding
##urrow
##us
##usband
##usband's
##ush
##ushi
##ushing
##usibl
##usion
##usiv
##uspicion
##uspicious
##ustom
##utching
##uth
##uthful
##utic
##utiful
##ution
##utions
##utious
##utiv
##uto
##utom
##utomobil
##utu
##utus
##ux
##uxurious
##uz
##uzz
##uzzl
##v
##vanc
##vanovitch
##vantag
##variably
##vasion
##vation
##vativ
##vator
##vic
##vigation
##vilion
##vill
##vincibl
##ving
##viour
##vious
##viousl
##viously
##vish
##visibl
##vision
##vitably
##vitch
##vitud
##viv
##viving
##vo
##voc
##vocation
##voi
##void
##voir
##vok
##voking
##vol
##volt
##volu
##volution
##volv
##volving
##vot
##votion
##vou
##vour
##vourabl
##vouring
##vous
##vously
##vout
##vow
##w
##wa
##wagg
##wai
##wain
##wak
##wal
##wald
##walk
##wall
##wamp
##wan
##war
##ward
##wardly
##warf
##wart
##wash
##wat
##way
##wful
##wh
##wha
##what
##whi
##whil
##who
##wich
##wick
##wif
##wig
##will
##wish
##with
##wix
##wkwa
##wo
##wok
##wom
##woma
##woman
##woo
##wood
##wor
##work
##worth
##worthy
##wright
##wung
##x
##xandrovitch
##xation
##xh
##xha
##xi
##xibl
##xic
##xica
##xican
##xico
##xion
##xious
##xit
##xity
##xon
##xp
##xpl
##xpli
##xplic
##xplicabl
##xt
##xth
##xton
##xtu
##xtur
##xu
##xua
##xual
##xurious
##xx
##xxx
##y
##y'
##y'd
##y'll
##y'r
##y'v
##yanc
##ybo
##ybod
##ybody
##ycholog
##yhood
##yhow
##ylight
##ylin
##yllabl
##ymbo
##ymond
##ymous
##ymp
##ymph
##ypical
##ypo
##ypoc
##ypoth
##yracus
##yship
##ything
##ywh
##z
##zh
##zing
##zo
##zu
##zz
##zza
##zzl
[UNK]
a
ab
aba
aban
aband
abandon
abat
abb
abbo
abbot
abdom
abh
abho
abhor
abhorr
abi
abid
abil
abili
abilit
abiliti
ability
abj
abl
abo
abol
abolish
abom
abomi
abomin
abomina
abominabl
abominat
abominati
abominatio
abomination
abou
aboun
abound
about
abov
abr
abraham
abro
abroa
abroad
abrupt
abruptly
abs
abso
absol
absolu
absolut
absor
absorb
abst
absta
abstain
abstr
abstra
abstrac
abstract
abstraction
absu
absur
absurd
abu
abun
abund
abunda
abundan
abundanc
abundant
abundantl
abundantly
abus
aby
abys
abyss
acc
acci
accid
acco
accommo
accommod
accommoda
accommodat
accommodati
accommodatio
accommodation
accomp
accompa
accompan
accompani
accompanim
accompany
accompanying
accompl
accompli
accomplic
accomplish
accomplishm
accor
accord
accordanc
according
accordingly
accou
accoun
account
accu
accum
accumul
accumula
accumulat
accur
accura
accurac
accuracy
accurat
accurs
accus
accusation
accustom
achi
achill
aching
acid
acknow
acknowl
acqu
acqua
acquai
acquain
acquaint
acquainta
acquaintan
acquaintanc
acqui
acquir
acquisition
acquit
activ
activi
activit
activiti
activity
actor
actors
actual
actually
acut
addition
adj
adjac
adjoining
adju
adjus
adjust
admini
adminis
administ
administr
administration
admonish
adop
adopt
adult
advanc
advancing
advantag
advoc
advoca
advocat
af
afa
afar
aff
affa
affai
affair
affairs
affl
affli
afflic
afflict
affliction
affo
affor
afford
afl
afo
afr
afra
afrai
afraid
afric
africa
african
aft
ag
aga
agai
again
agains
against
agath
agg
aggi
aggr
aggra
aggrav
aggrava
aggravat
ago
agon
agony
agricultur
agricultura
agricultural
ah
ahab
aim
ain't
aja
akin
alban
alcohol
alic
aliv
alk
alka
alkal
all
allianc
allow
allowanc
allusion
almo
almos
almost
alof
aloft
along
aloof
aloud
alph
alpha
alphab
although
altitud
altog
alway
always
amaz
amazing
ambition
ambitious
ambush
ammon
ammoni
ammunition
among
amoun
amount
amph
amphi
ampl
an
analogous
analogy
ancho
anchor
anci
and
ang
angl
anglo
angu
anguish
anim
anima
animal
animals
animat
animation
animo
annihil
annihila
annihilat
annix
annixt
announ
announc
announcing
annoyanc
annually
anoma
anoth
antagoni
antagonis
antagonist
anthrop
antic
antici
anticip
anticipa
anticipat
anticipation
antioch
antipholu
antipholus
antiquity
anto
antoin
anxi
anxious
anxiously
any
anyb
anybo
anybod
anybody
anyhow
anything
anyway
anywh
apo
apollo
apolog
apologi
apology
apos
apost
apostl
apoth
app
appall
appalling
apparatus
apparition
appl
appla
applau
applaud
applaus
appli
applic
application
apply
applying
appo
appoi
appoin
appoint
appointm
approach
approaching
approbation
approp
appropr
appropri
appropria
appropriat
approv
approxim
aquil
arabian
arbit
arbitr
arbitra
arbitrar
arbitrary
arbuthnot
archbishop
archi
archit
ardour
argu
argum
aristocracy
aristocratic
arkwright
armour
around
arrang
arriv
arroga
arrogan
arrow
arrows
artagnan
arthur
articl
articulat
artific
artifici
artificia
artificial
artill
artistic
ash
asha
asham
asiatic
asking
assault
assistanc
associat
association
assumption
assuranc
astonish
astonishing
astonishm
astronom
atho
athos
atlantic
atmosph
atom
attack
attitud
attribut
auction
audibl
augm
augu
augus
august
augustin
augustu
augustus
auth
autho
author
authori
authorit
authority
authoriz
auto
autom
automa
automat
automati
automatic
automobil
aux
auxi
auxil
auxili
auxilia
auxiliar
avo
avoi
avoid
avoiding
avow
awa
awai
await
awaiting
awak
awar
away
awful
awfully
awhil
awkwa
awkwar
awkward
awok
axi
axis
b
babb
babbi
babbit
babbitt
babbl
babi
baby
babyl
babylon
back
background
backw
backwa
backwar
backward
bacon
baff
baffl
bag
bagg
bagga
baggag
balanc
balcony
ball
balloon
bang
banish
bank
bankrupt
barba
barbar
barbari
barbaria
barbarian
barbarians
barbarous
barbican
bargain
barking
barnaby
barrow
bash
bathsh
baz
bibb
bibbs
bibl
bibli
bick
bickl
big
bigg
bigo
bigot
bill
billy
biograph
biscu
biscui
biscuit
bish
bisho
bishop
bix
black
blackb
blacksmith
blanc
blanch
blank
blaz
blazing
blin
blind
blindly
blink
block
bloo
blood
bloody
bloom
blooming
blow
blowing
blu
bluff
blush
blushing
bo
boa
boar
board
boarding
boas
boast
boat
bob
bobb
bod
bodi
bodily
body
boff
boffi
boffin
bog
boh
boi
boil
boiling
bois
boist
bol
bold
boldly
boldw
boldwo
boldwoo
boldwood
bolt
bomb
bomba
boo
book
books
boom
boot
booth
boots
bor
bord
born
borrow
bos
bosom
boss
bost
boston
bot
both
bott
bottl
bottom
bou
bough
boughs
bought
boul
bould
boun
bound
bount
bounty
bour
bourg
bout
bow
bowing
bowl
box
boy
boy's
boyhood
boyish
brack
brain
branch
brazil
brib
brick
briga
brigad
brigan
bright
brightly
brill
brilli
brillia
brillian
brillianc
brilliancy
brilliant
brim
brink
britain
british
brok
bronz
brood
brooding
brook
broom
broth
brough
brought
brow
brown
browning
brush
brutus
bu
bubb
bubbl
buck
buckingh
buckingha
buckingham
buckl
bud
budd
budg
buff
buffa
buffal
buffalo
bug
bugg
buggy
bui
buil
build
building
built
bul
bulg
bulk
bull
bullock
bully
bulw
bulwa
bulwar
bulwark
bump
bun
bunch
bund
bundl
bung
bunk
buny
bunya
bunyan
buo
buoy
bur
burd
burg
burgl
burgla
burglar
burgun
burgund
burgundy
buri
burk
burl
burn
burning
burs
burst
bursting
bury
bus
bush
busi
busily
busin
bust
bustl
busy
but
buy
buying
buzz
by
byz
byza
byzan
byzant
byzanti
byzantin
c
ca
cab
cabb
cabba
cabbag
cabi
cabin
cabl
cac
cad
caf
cag
cai
cain
cak
cal
cala
calam
calami
calamit
calamiti
calamity
calc
calcu
calcul
calcula
calculat
calculati
calculatio
calculation
calculations
calf
cali
calic
califor
californ
californi
california
caliph
call
calling
calm
calmly
calum
calv
cam
camb
cambr
cambri
cambrid
cambridg
camp
campb
can
can't
cannib
canniba
cannibal
canop
canto
cap
cap'
cap'n
capa
capabl
capac
capaci
capacit
capacity
capi
capit
capita
capital
capito
capitol
capric
capricious
capt
capta
captai
captain
capti
captiv
captu
captur
capu
car
carb
carbo
carbon
cargo
carolin
carolina
carp
carriag
carth
cartha
carthag
carving
cas
casaubon
cash
cask
cast
casting
castl
casu
casua
casual
casually
cat
catalogu
catastroph
catch
catching
cath
catho
cathol
catholi
catholic
catt
cattl
cau
caught
caul
caus
causing
caut
cauti
caution
cautious
cautiousl
cautiously
cav
cava
caval
cavali
cavalr
cavalry
ch
cha
chad
chaf
chaff
chag
chai
chain
chair
chais
chal
chald
chalk
chall
cham
chamb
champ
champa
champag
champagn
champi
champio
champion
chan
chanc
chang
changing
chann
chant
chao
chaos
chap
chapl
chapm
chapma
chapman
chapt
char
chara
charac
charact
charc
charg
charging
chari
chario
chariot
charit
charitabl
charity
charl
charlo
charlot
charlott
charm
charming
chart
chas
chast
chasti
chastis
chat
chatt
chau
chauc
chi
chic
chica
chicag
chicago
chich
chichi
chichik
chichiko
chichikov
chick
chil
child
child's
childh
childho
childhoo
childhood
childish
childr
chill
chilt
chim
chimn
chin
china
chinam
chinama
chinaman
chink
chip
chiv
chiva
chival
chivalr
chivalry
cho
choc
choco
chocol
chocola
chocolat
choi
choic
choir
chok
choking
chol
choo
choos
choosing
chop
chopp
chor
chord
choru
chorus
chos
christoph
chronicl
chu
chuck
chuckl
chum
chur
church
ci
cic
cig
ciga
cigar
cin
cind
cir
circ
circl
circling
circu
circui
circuit
circul
circula
circular
circulat
circulati
circulatio
circulation
circum
circumf
circums
circumst
circumsta
circumstan
circumstanc
cit
citi
citiz
city
civ
civi
civil
civili
civilis
civilisa
civilisat
civilisati
civilisatio
civilisation
civiliz
civiliza
civilizat
civilizati
civilizatio
civilization
cl
cla
clad
clai
claim
clam
clamb
clamo
clamor
clamour
clan
clang
clap
clapp
clapping
clar
clara
clark
clas
clash
clasp
clasping
class
classic
classica
classical
clat
clatt
clau
claud
claudi
claudio
claus
claw
claws
clay
click
cliff
clim
clima
climat
climb
climbing
clin
clo
cloa
cloak
clock
cloi
clois
cloist
clos
closing
cloth
clothing
clou
cloud
clouds
clov
clow
clown
clu
club
clum
clump
clums
clumsy
clung
clus
clust
clut
clutch
clutching
co
coa
coach
coachm
coachma
coachman
coal
coar
coars
coas
coast
coat
coax
cob
cobb
cobbl
cock
coco
cocoa
cod
coff
coffi
coffin
cog
cogn
coh
coi
coil
coin
coinc
coinci
coincid
col
cold
coldly
coll
collision
colloq
colo
colon
colony
color
colos
coloss
colossa
colossal
colou
colour
colu
colum
columb
columbi
columbia
columbu
columbus
column
columns
com
comb
comba
combat
combi
combin
combination
combu
combus
combust
comf
comfo
comfor
comfort
comfortabl
comfortably
comic
coming
comm
comma
comman
command
commanding
commi
commis
commiss
commissi
commissio
commission
commit
committ
commo
commod
commodi
commodit
common
commonly
commonp
commonpl
commonpla
commonplac
commonw
commot
commoti
commotion
commu
commun
communi
communic
communica
communicat
communicati
communicatio
communication
communion
comp
compa
compac
compact
compan
compani
companio
companion
companions
companionsh
companionshi
companionship
company
compar
comparativ
compari
comparis
comparison
compas
compass
compassi
compassio
compassion
compl
complain
complaining
complaint
complaints
complic
complica
complicat
complim
compo
compos
composition
composu
composur
compoun
compound
comprom
compromi
compromis
compu
compul
compuls
comput
comstock
con
conc
concl
conclu
conclud
conclus
conclusi
conclusio
conclusion
conclusiv
concu
concur
concurr
cond
condi
condit
conditi
conditio
condition
condu
conduc
conduct
conducto
conductor
condy
conf
confi
confid
confin
confir
confirm
confirmation
confis
confl
confli
conflic
conflict
confo
confor
conform
confou
confoun
confound
confu
confus
confusi
confusio
confusion
cong
congr
congratulat
conj
conju
conjun
conjunc
conjunct
conjuncti
conjunction
conjur
conn
conqu
cons
consc
consci
conscio
consciou
conscious
consi
consid
consig
consign
consis
consist
consisting
conso
consol
consolation
consor
consort
consp
conspi
conspic
conspicu
conspicuou
conspicuous
conspir
conspira
conspirac
conspiracy
const
consta
constabl
constan
constanc
constancy
constant
constanti
constantin
constantino
constantinop
constantinopl
constantiu
constantius
constantl
constantly
consti
constit
constitu
constitut
constituti
constitutio
constitution
constr
constra
constrai
constrain
constru
construc
construct
constructi
constructio
construction
consu
consul
consult
consultation
consulting
consum
consumm
consumma
consummat
consump
consumpt
consumpti
consumptio
consumption
cont
contain
containing
conti
contin
continu
continually
continuanc
continuous
contr
contra
contrac
contract
contraction
contradict
contrar
contrary
contribu
contribut
contribution
contriv
contrivanc
contro
control
controll
controv
conv
convi
convic
convict
conviction
convin
convinc
convincing
convul
convuls
convulsion
convulsiv
coo
cook
cooking
cool
coolly
coop
cop
copi
copiou
copious
copp
copy
coqu
cor
cora
coral
cord
cordi
cordia
cordial
cori
corin
cork
corn
cornw
cornwa
cornwal
cornwall
coron
corp
corpo
corpor
corpora
corporal
corporat
corporati
corporatio
corporation
corps
corpu
corr
corri
corrid
corrido
corridor
corro
corru
corrup
corrupt
corrupti
corruptio
corruption
cos
cost
costly
costum
cot
cott
cotta
cottag
cotton
cou
couch
cough
coul
could
couldn't
coun
counc
counci
council
couns
count
countr
countri
country
coup
coupl
cour
coura
courag
cours
court
cous
cousi
cousin
cov
cow
cowa
cowar
coward
cowardic
cowardl
cowardly
cowb
cowbo
cowboy
cowp
cox
coy
cr
crack
crackl
crag
cramp
crank
crash
crav
craving
craz
crazy
cri
crick
crim
crimi
crimin
crimina
criminal
cripp
crippl
critic
critici
criticis
criticism
cro
croc
crom
cromw
cron
croo
crook
crop
crops
cros
cross
crossing
crouch
crouching
crow
crowd
crowding
crown
cru
cruc
cruci
crumb
crumpl
crush
crushing
crutch
cry
crying
crystalli
crystallin
cu
cub
cubi
cubit
cubits
cuck
cucko
cud
cudg
cuff
cui
cul
cull
culp
cult
culti
cultiv
cultiva
cultivat
cultivation
cultu
cultur
cum
cumb
cun
cunn
cunning
cup
cupb
cupbo
cupboa
cupboar
cupboard
cur
curb
curi
curio
curios
curiosi
curiosit
curiosity
curious
curiously
curl
curling
curtain
curtains
curv
cus
cushi
cushio
cushion
cushions
cust
custo
custod
custody
custom
cut
cylin
cylind
d
d'
dagg
daint
dainti
dainty
damag
damos
damp
danc
dancing
dang
dangl
dangla
danglar
danglars
danish
dash
dashing
daught
dauphin
dav
davi
david
davy
daylight
daz
dazzl
dazzling
di
diabol
diaboli
diag
dialogu
diamond
dic
dick
dict
dicta
dictat
did
didn't
diff
diffi
diffic
difficu
difficul
difficult
difficulty
diffu
diffus
dig
digg
digging
dign
digni
dignifi
dignit
dignity
dilig
dim
dimin
diminish
dimly
dimm
din
dinah
dining
dinn
dioc
diploma
diplomat
diplomati
dipp
dir
dis
disabl
disag
disagr
disapp
disappo
disappoi
disappoin
disappoint
disappointm
disapprov
disb
disc
disch
discha
dischar
discharg
disci
discip
discipl
discipli
disciplin
discl
disclo
disclos
disco
discomf
discomfi
discomfit
discomfo
discomfor
discomfort
discon
disconc
discont
discor
discord
discourag
discours
discov
discr
discrim
discrimi
discrimin
discu
discus
discuss
discussing
discussion
disg
disgr
disgra
disgrac
disgu
disgui
disguis
disgus
disgust
disgusting
dish
disho
dishon
dishono
dishonor
dishonou
dishonour
disin
disint
disl
disli
dislik
dislo
dism
disma
dismal
dismay
dismi
dismis
dismiss
dismount
diso
disob
disor
disord
disp
dispa
dispar
dispat
dispatch
displ
displa
displac
display
dispo
dispos
disposition
dispu
disput
disqui
dissolv
dist
dista
distan
distanc
distant
disti
distill
distin
distinc
distinct
distinction
distinctly
distinguish
disto
distor
distort
distr
distra
distrac
distract
distri
distribut
distribution
distric
district
distru
distrus
distrust
distu
distur
disturb
disturbanc
disturbing
ditch
div
divi
divid
dividing
divin
division
divo
divor
divorc
dizz
dizzy
do
dobb
dobbi
dobbin
doc
dock
doct
docto
doctor
doctr
doctri
doctrin
docu
docum
dog
dogg
doll
dolla
dollar
dollars
dolly
dom
domain
domb
domi
domin
domina
dominan
dominant
dominat
domini
dominio
dominion
dominions
don
don't
donk
doo
doom
door
doorw
doorwa
doorway
doroth
dorothy
doth
dou
doubl
doubt
doubtf
doubtfu
doubtful
doubtfully
doug
dougl
dougla
douglas
dow
dowag
down
downwa
downwar
downward
doz
dragg
dragging
dragon
dramatic
drank
draught
drif
drift
drifting
drill
drink
drinking
driv
driving
dromi
dromio
droop
drooping
drop
dropp
dropping
drov
drow
drown
drowning
drows
drowsy
drug
drunk
du
dubious
duc
duca
duch
duck
dug
duk
dull
dumb
dumon
dumont
dump
dunc
dunca
duncan
dung
dutch
dwarf
e
ea
each
eag
eagl
ear
earl
earli
early
earn
earning
earth
earthly
earthquak
eas
easi
easily
east
eastw
eastwa
eastwar
eastward
easy
eat
eating
ebb
ec
ecc
eccl
echo
ecl
ecli
eclip
eclips
econom
economi
economic
economy
ecs
ecst
ecsta
ecstas
ecstasy
edic
edict
edific
edinburgh
edition
editor
educ
educa
educat
education
edward
eff
effic
effici
effo
effor
effort
efforts
eg
egg
eggs
ego
egot
egoti
egotis
egy
egyp
egypt
egypti
egyptia
egyptian
egyptians
eh
eight
eighth
eith
ej
eja
ejac
ejacu
ejacul
ejacula
ejaculat
el
elabora
elaborat
elastic
elbow
elf
elfr
elfri
elfrid
elin
elino
elinor
eliz
eliza
elizab
eloqu
em
emanc
emanci
emancip
emb
emba
embar
embark
embarr
embarra
embarras
embarrass
embarrassm
embas
embass
embassy
embl
embo
embod
embodi
embr
embra
embrac
embracing
embro
embroi
embroid
embry
embryo
emi
emig
emigr
emigra
emigran
emigrant
emil
emili
emilia
emily
emin
emm
emma
emotion
emp
emph
empha
emphas
emphasi
emphasis
emphat
emphati
emphatic
emphatica
emphatical
emphaticall
emphatically
empi
empir
empl
emplo
employ
employm
empt
empti
empty
en
enabl
enc
encamp
encampm
ench
encha
enchan
enchant
enchantm
enci
encir
encirc
encircl
encl
enclo
enclos
enclosu
enclosur
encomp
encompa
encompas
encompass
encount
encour
encoura
encourag
encouraging
encr
ency
encyc
end
endow
endu
endur
enduranc
enduring
enf
enfo
enfor
enforc
eng
enga
engag
engaging
engi
engin
engl
engla
englan
england
english
englishm
englishma
englishman
enh
enha
enhan
enhanc
enig
enigm
enigma
enjoin
enjoy
enjoying
enjoym
enlight
enormous
enough
enquir
ent
entangl
enth
enthu
enthus
enthusi
enthusia
enthusias
enthusiasm
enthusiast
enthusiasti
enthusiastic
enti
entic
entir
entit
entitl
entranc
enum
env
envi
envious
envir
environ
environm
envy
ep
eph
epi
epic
epid
epig
epis
episcop
episcopa
episcopal
episo
episod
epist
epistl
epith
epoch
equ
equa
equal
equall
equally
equat
equi
equil
equip
equipm
equipp
equit
equiv
equiva
equival
eradicat
escor
escort
establish
establishm
estimation
eth
ethic
eu
eug
eun
eunuch
eunuchs
euph
euphr
euphra
euphrat
europ
ev
evang
evapor
evolution
evolv
ex
exa
exac
exact
exactly
exagg
exal
exalt
exam
exami
examin
examination
examining
exampl
exas
exasp
exc
exch
excha
exchang
exci
excit
exciting
excl
excla
exclai
exclaim
exclaiming
exclam
exclama
exclamat
exclamati
exclamatio
exclamation
exclu
exclud
exclus
exclusi
exclusiv
excu
excur
excurs
excursi
excursion
excus
exh
exha
exhal
exhau
exhaus
exhaust
exhaustion
exhi
exhib
exhibi
exhibit
exhibiting
exhibition
exho
exhor
exhort
exi
exil
exis
exist
existing
exit
exo
exp
expl
expla
explai
explain
explaining
explan
explana
explanat
explanati
explanatio
explanation
expli
explic
explici
explicit
explo
explod
explor
explosion
expo
expos
exposu
exposur
exqu
exqui
exquis
exquisi
exquisit
ext
extinc
extinct
extinguish
exto
extor
extort
extr
extra
extrac
extract
extrao
extraor
extraord
extraordi
extraordin
extraordina
extraordinar
extraordinary
extrav
extrava
extravag
extravaga
extravagan
extravaganc
extravagant
exu
exul
exult
exultation
ey
ez
f
fa
fab
fabr
fabric
fac
fact
faction
facto
factor
factory
facul
facult
faculti
faculty
fad
fading
fag
fai
fail
failing
failu
failur
fain
faint
fainting
faintly
fair
fairf
fairfa
fairfax
fairly
fairy
faith
faithful
faithfully
fal
falcon
fall
falling
fals
falstaff
falt
fam
fami
famil
famili
familia
familiar
family
famous
fan
fana
fanatic
fanc
fanci
fanciful
fancy
fang
fangs
fann
fanny
fant
fanta
fantas
fantast
fantastic
far
farm
farth
farthing
fas
fasc
fasci
fascin
fascina
fascinat
fascinating
fascination
fashi
fashio
fashion
fashionabl
fast
fat
fath
fathom
fatigu
fau
fauch
faul
fault
faun
favo
favor
favorabl
favori
favorit
favour
favourabl
favouri
favourit
faw
fawn
fi
fib
fibr
fiction
fif
fift
fifth
fifty
fig
fight
fighting
figu
figur
figurativ
fil
fili
fill
filling
film
filth
filthy
fin
finally
financ
financi
financia
financial
find
finding
finish
finishing
fir
firm
firmly
firs
first
fish
fishing
fit
fitt
fitting
fitz
fiv
fix
fixing
fl
fla
flag
flam
flaming
flan
flank
flann
flap
flash
flashing
flat
flatt
flavor
flavour
flax
flick
flight
flin
flint
flo
floa
float
floating
flock
floo
flood
floor
flor
flori
florid
flos
floss
flour
flourish
flourishing
flow
flowing
flu
flui
fluid
flung
flush
flut
flutt
fly
flying
fo
foc
fog
fogg
fol
fold
folding
foli
folia
foliag
folk
folks
foll
folli
follow
following
folly
fon
fond
fondly
font
fonta
foo
fool
foolish
foot
footing
footp
for
forb
forbi
forbid
forbidd
forc
forcibly
forg
forgi
forgiv
forgo
forgot
forgott
form
formation
formul
formula
forsooth
forth
forthwith
fortifi
fortification
fortifications
fortitud
fortu
fortun
fortuna
fortunat
forwa
forwar
forward
fou
fought
foul
foun
found
foundation
fount
founta
fountai
fountain
fouqu
four
fourth
fow
fowl
fowls
fox
fr
frag
fragm
fragranc
franc
franci
francis
francisco
frank
frankl
frankli
franklin
frankly
frantic
fri
friction
fright
frightful
frightfully
frivolous
fro
frock
frog
frogs
from
fron
front
fros
frost
frown
frowning
froz
fru
frug
frui
fruit
fruitful
fu
fug
fugi
fugit
fugiti
fugitiv
ful
fulf
fulfi
fulfil
fulfill
full
fully
fum
fun
function
functions
fund
funda
fundam
funn
funny
fur
furious
furiousl
furiously
furn
furna
furnac
furni
furnish
furnit
furnitu
furnitur
furrow
furth
furtiv
fury
fus
fuss
fut
futi
futil
futu
futur
g
ga
gab
gabr
gabri
gag
gai
gaily
gain
gaining
gait
gal
gala
gali
galil
gall
galla
gallan
gallant
gallop
galloping
gallow
gallows
gam
gambl
gambling
gaming
gang
gap
gaping
gar
garb
gard
garl
garla
garlan
garland
garm
garth
gash
gat
gath
gau
gaud
gaug
gaul
gaun
gaunt
gav
gawain
gay
gaz
gazing
gh
gha
ghas
ghast
ghastl
ghastly
gho
ghos
ghost
ghostly
gi
gia
gian
giant
gib
gibb
gibbo
gibbon
gif
gift
gifts
gig
giga
gigan
gigantic
gil
gilb
gild
gill
gir
girl
girl's
giv
giving
gl
gla
glac
glaci
glad
gladly
glan
glanc
glancing
gland
glar
glaring
glas
glass
glaz
gli
glid
gliding
glim
glimm
glimp
glimps
glin
glind
glinda
glis
glist
glit
glitt
glo
glob
gloom
gloomi
gloomily
gloomy
glor
glori
glorious
glory
glos
gloss
glouc
glov
glow
glowing
glu
glut
go
gobl
gobli
goblin
god
god's
going
gol
gold
goldsmith
goo
good
goos
goth
gothic
gov
gow
gown
gr
gra
grac
gracious
graciously
gradually
graf
graft
graham
grain
gram
gramm
gramma
grammar
gran
grand
grandfath
grandmoth
grant
grap
graph
grapp
grappl
gras
grasp
grasping
grass
grat
gratifi
gratification
gratify
grating
gratitud
grav
gravi
gravit
gravity
gray
graz
griff
grim
grimly
grin
grind
grinding
grinn
grinning
gripp
grizzl
gro
groa
groan
groaning
groc
groom
groov
grop
groping
gros
gross
ground
group
grov
grow
growing
growl
growling
grown
growth
gru
grub
grud
grudg
gruff
grumbl
grun
grunt
gu
gua
guar
guara
guaran
guarant
guard
guardi
guardia
guardian
gui
guich
guid
guidanc
guil
guill
guilt
guilty
guin
guis
gulf
gull
gun
gunpowd
gush
h
ha
hab
habit
habitation
habits
habitu
habitua
habitual
habitually
hack
hackn
had
hadn't
hag
hagg
hagga
haggar
haggard
hai
hail
hair
hal
half
hall
hallo
halt
ham
haml
hamm
han
hand
handful
handk
handsom
hang
hanging
hank
hann
hannah
hans
hap
happ
happi
happily
happin
happy
har
harbor
harbour
hard
hardly
hardships
hark
harm
harml
harmon
harmonious
harmony
haro
harol
harold
harp
harpoon
harsh
harshly
harv
has
hasn't
hat
hatch
hath
hau
haught
haughti
haughty
haul
haun
haunt
hav
having
haw
hawk
hay
haz
haza
hazar
hazard
hi
hick
hid
hidd
hiding
high
highly
highw
highwa
highway
hil
hila
hilar
hild
hilda
hill
hills
him
hin
hind
hint
hip
hipp
hippo
hir
his
histor
histori
historia
historian
historians
historic
historical
history
hit
hitch
hith
ho
hoa
hoar
hoars
hob
hobb
hog
hoi
hois
hoist
hol
hold
holding
holi
holid
holida
holiday
holin
holl
holla
hollan
holland
hollow
holly
holm
holy
hom
homag
hono
honor
honorabl
honour
honourabl
hoo
hood
hoof
hoofs
hook
hoop
hoopd
hoopdr
hoopdriv
hop
hopp
hor
hora
horac
horat
horati
horizon
horizont
horizonta
horizontal
horn
horr
horri
horribl
horribly
horrid
horro
horror
hors
hos
hosp
hospi
hospit
hospita
hospitabl
hospital
hospitali
hospitalit
hospitality
host
hosti
hostil
hostili
hostilit
hostility
hot
hou
houn
hound
hounds
hour
hours
hous
hov
how
hu
huck
hug
hugh
hull
hum
huma
human
humbl
humbly
humi
humil
humili
humilia
humiliat
humiliation
humilit
humility
humm
humming
humo
humor
humorous
humour
hump
hun
hund
hundr
hung
hunt
hunting
hur
hurr
hurri
hurrican
hurry
hurrying
hurt
husband
husband's
hush
hut
hypoc
hypocr
hypocri
hypocris
hypocrit
hypoth
i
i'
i'l
i'll
i'm
i'v
iago
if
ignobl
ignom
ignomi
ignominious
ignoranc
ill
illu
illum
illumi
illumin
illumina
illuminat
illumination
illus
illusion
illusions
illust
illustr
illustra
illustrat
illustration
illustrious
imag
imagi
imagin
imagination
imaginativ
immin
immor
immort
immorta
immortal
immortali
immortalit
immortality
immovabl
imog
imp
impious
impl
impla
implac
implacabl
impli
implic
implici
implicit
implo
implor
imploring
impo
impor
import
importa
importan
importanc
important
importu
importun
impos
imposing
impossibility
impossibl
impot
improbabl
improp
improv
improving
impu
impud
impul
impuls
impulsiv
imput
in
inacc
inasmuch
incid
inclin
inclination
inclu
includ
including
incoh
incomp
incompa
incompr
incon
inconc
incongr
incons
inconsi
inconsid
inconsis
inconsist
inconv
incor
incorpor
incorr
incur
incurr
indic
indica
indicat
indicating
indication
indiff
indignation
indistinct
indoo
indoor
induc
indulg
inf
infa
infam
infamous
infamy
infan
infanc
infancy
infant
infi
infid
infin
infini
infinit
infir
infirm
infirmi
infirmit
infl
infla
inflam
inflamm
infli
inflic
inflict
influ
inform
information
infus
ing
inh
inha
inhab
inhabi
inhabit
inhabita
inhabitan
inhabitant
inhabitants
inhu
inhum
inhuma
inhuman
iniquity
inju
injun
injunc
injunct
injuncti
injunction
injur
injuri
injurious
injury
injus
injust
injusti
injustic
innoc
inqui
inquir
inquiri
inquiring
inquiry
inquis
inquisi
inquisit
inquisiti
inquisitiv
inscription
insignifican
insignificant
insomuch
install
instanc
instinct
instinctiv
institut
institution
institutions
instruct
instruction
instructions
insuffici
insult
insulting
insuranc
intim
intima
intimac
intimacy
intimat
into
intoxic
intoxica
intoxicat
intrigu
introduc
introducing
introduction
invariably
invasion
invincibl
invisibl
involu
involun
involunt
involunta
involuntar
involuntari
involuntarily
involuntary
involv
inward
inwardly
irish
isn't
it
it'll
it's
ivanovitch
ivo
ivor
ivory
j
ja
jac
jack
jacob
jacobi
jacqu
jagg
jai
jail
jam
jan
janu
janua
januar
january
jap
japa
japan
jau
jaun
jav
jaw
jaws
jim
jimm
jimmi
jimmy
jo
job
jock
joh
john
joi
join
joining
jok
jolly
jon
jonath
jonatha
jonathan
josh
joshu
joshua
jou
jour
journ
jous
joust
jov
jovi
jovia
jovial
joy
joyf
joyfu
joyful
joyfull
joyfully
joyou
joyous
ju
jua
juan
jub
jubi
jubil
jud
juda
judah
judg
judging
judgm
judi
judic
judici
judicia
judicial
judicious
jug
jugg
jui
juic
jul
juli
julia
julian
juliu
julius
july
jum
jump
jumping
jun
junc
junct
juncti
junctio
junction
jung
jungl
juni
junio
junior
jup
jupi
jupit
jur
jurg
jurgi
jurgis
juri
juris
jurisd
jurisdi
jurisdic
jurisdict
jurisdicti
jurisdictio
jurisdiction
jury
jus
just
justic
justif
justifi
justification
justify
k
kath
katha
kathar
kathari
katharin
kh
kha
ki
kick
kicking
kid
kidn
kil
kill
killing
kin
kind
kindly
king
king's
kingdom
kins
kinsm
kinsma
kinsman
kir
kirk
kis
kiss
kissing
kit
kitch
kitt
kitty
kn
knav
knif
knight
kniv
kno
knob
knock
knocking
knot
know
knowing
knuck
knuckl
ko
kok
koku
kor
ku
kur
l
l'
la
labor
laboratory
laborious
labour
labouring
laby
labyr
labyri
labyrin
labyrinth
lack
lacking
ladyship
lago
lagoon
lak
lamb
lamp
lanc
lang
langu
langua
languag
langui
languid
laph
lapha
lapham
lash
latch
latitud
lau
laud
laugh
laughing
laught
laun
launc
launch
laund
laur
laura
lauri
lavish
law
lawful
lawy
lay
laying
laz
lazi
lazy
li
lib
lic
lich
lick
lif
lig
ligh
light
lightly
lik
liking
lily
lim
limb
limbs
limi
limit
limitation
limp
lin
linco
lincol
lincoln
link
lion
lip
lips
liqu
liqui
liquid
liquo
liquor
lis
list
lit
lith
litt
littl
liv
living
liz
liza
lizar
lizard
lizz
lizzi
lo
loa
load
loaf
loath
lob
loc
loca
local
locali
localit
locat
location
lock
locom
locomo
locomot
locomoti
locomotiv
lod
lodg
lodging
lodgings
lof
loft
lofty
log
logi
logic
logica
logical
loin
lomb
lomba
lombar
lombard
lon
lond
london
long
longitu
longitud
loo
look
looking
loom
loop
loos
lop
lor
lord
lord's
lordship
los
losing
loss
lost
lot
loth
lou
loud
loudly
loui
louis
loung
lous
louv
lov
loving
low
loy
loya
loyal
loyalt
loyalty
lu
luc
luci
luciu
lucius
luck
lucky
lucy
ludic
lugg
lugga
luggag
luk
lull
lum
lumb
lumi
lumin
luminous
lump
lun
luna
lunat
lunati
lunatic
lunch
lung
lungs
lup
lupi
lupin
lurking
lus
lust
luth
lux
luxu
luxur
luxuri
luxuria
luxurian
luxurious
luxury
lx
lxx
m
ma
ma'
ma'a
ma'am
mac
macaul
macaula
macaulay
macb
mach
machi
machin
mack
mad
mag
magazi
magazin
magd
magda
magdal
magg
magi
magic
magis
magist
magistr
magistra
magistrat
magn
magni
magnif
magnifi
magnific
magnitu
magnitud
magnu
magnus
mah
maha
mahom
mai
maid
mail
maim
main
mainly
maint
mainta
maintai
maintain
maintaining
maj
major
majori
majorit
majority
mak
making
mal
malic
malicious
malig
malign
maligna
malignan
malignant
mall
mam
mama
mamm
mamma
mammal
man
man's
manag
manch
manchu
mang
manhood
manif
mank
manki
mankin
mankind
mansion
mansoul
manufactur
many
map
mapl
mar
marbl
marc
march
marching
marco
marcu
marcus
marg
marga
margar
margi
margin
margu
mari
maria
marian
mariann
marill
marilla
marin
marion
mariu
marius
mark
marking
marqui
marquis
marr
marri
marria
marriag
marry
marrying
marsh
marsha
marshal
mart
marth
martha
marti
martia
martial
martian
martin
marty
martyr
martyrdom
marv
mary
mas
masc
mascu
mascul
masculi
masculin
mask
masku
maskul
maskull
mason
mass
massiv
mast
mat
match
matt
matth
matu
matur
mau
maud
mauric
max
maxi
maxim
maximi
maximu
may
mayb
maz
maza
mazar
mazari
mazarin
mi
mic
mica
micaw
micawb
mich
micha
mid
midd
middl
midn
midnight
midw
mig
migh
might
mign
migr
mih
mik
mil
mili
milit
milita
militar
military
milk
mill
million
millions
mim
mimi
min
mind
mini
minia
miniatu
miniatur
minis
minist
mino
minor
minu
minut
mir
mira
mirac
miracl
miraculous
miran
mirand
miranda
miri
miria
miriam
mirr
mirro
mirror
mirth
mis
misc
misch
mischi
misfor
misfort
misfortu
misfortun
misgiving
mish
miss
mission
missiona
missionar
missionari
missionary
mississippi
missour
missouri
mist
mistak
mistr
mistrus
mistrust
misu
misun
misund
mit
mix
mixt
mixtu
mixtur
mo
moa
moan
mob
mock
mocking
mod
modif
modifi
modification
moh
moha
moham
mohamm
moi
mois
moist
moistu
moistur
mol
mold
moll
molly
mom
mon
mong
monk
monmouth
monopo
monotonous
montgom
month
months
monum
moo
mood
moon
moonlight
moor
mor
morbi
morbid
mormon
morrow
mortification
mortim
mos
moscow
most
mostly
mot
moth
moti
motion
motionl
motiv
moto
motor
mott
mou
moul
mould
moun
mount
mounta
mountai
mountain
mountains
mounting
mour
mourn
mournful
mourning
mous
moust
mousta
moustach
mouth
mov
moving
mow
mu
much
muck
mud
mudd
muddy
muff
muffl
mug
mul
mull
mult
multi
multip
multipl
multipli
multiply
multit
multitu
multitud
mum
mumm
mun
muni
munic
munici
municip
municipa
municipal
mur
murd
murm
murmu
murmur
murmuring
mus
musc
muscl
muscu
muscul
muscula
muscular
mush
musi
music
musk
muslin
must
mustach
mustn't
mut
muti
mutil
mutin
mutt
mutton
mutu
mutua
mutual
muzzl
my
mystic
mytho
mythol
mytholo
mytholog
n
nak
nancy
naomi
napol
narrow
narrowly
nation
nationa
national
nativ
natur
natura
natural
naturally
naught
naughty
nav
nava
naval
navi
navig
navigation
navy
nic
nicho
nichol
nichola
nicholas
nick
nickl
nico
nicol
nig
nigg
nigh
night
nightfall
nipp
no
noah
nob
nobi
nobil
nobili
nobilit
nobility
nobl
nobo
nobod
nobody
nogh
noght
nomin
nomina
norfolk
northumb
northward
not
noth
nothi
nothin
nothing
notic
noticing
notorious
notwith
notwiths
notwithst
notwithsta
notwithstan
notwithstand
notwithstanding
nought
nourish
now
nowh
nu
nuc
nud
nui
nuis
nuisanc
num
numb
nun
nup
nupt
nupti
nuptia
nuptial
nur
nurs
nursing
nut
nymph
o
o'
o'c
o'cl
o'clo
o'clock
oak
oath
ob
obj
obl
obli
oblig
obligation
obligations
obliging
obliqu
oblit
obliv
oblivi
oblivio
oblivion
obs
obscu
obscur
obscuri
obscurit
obscurity
obt
obta
obtai
obtain
obtaining
obv
obvi
obviou
obvious
obviousl
obviously
oc
occ
occa
occas
occasi
occasio
occasion
occasionally
occu
occup
occupa
occupan
occupant
occupat
occupati
occupatio
occupation
occupi
occupy
occupying
occur
occurr
occurring
oct
octa
octav
octo
octob
odious
odour
of
off
offi
offic
offici
officia
official
og
oh
ol
ola
olaf
old
oli
oliv
olivi
olivia
oly
olymp
olympi
om
omi
omin
ominous
omit
omitt
omn
omni
on
onc
only
onward
op
oph
opinion
opium
opp
oppo
oppor
opport
opportu
opportun
opportuni
opportunit
opportunity
oppos
opposi
opposing
opposit
opposition
oppr
opul
or
orang
orator
orch
orcha
orchar
orchard
org
orga
organ
organi
organic
organis
organism
organiz
organization
orig
origi
origin
origina
original
originally
originat
orph
orpha
orphan
orthodox
oswald
oth
ou
ought
ounc
our
ous
out
outbu
outbur
outburs
outburst
outcom
outlin
outwa
outwar
outward
ov
ow
owl
own
ox
oxf
oxfo
oxfor
oxford
oxi
oxid
oxy
oz
ozm
ozma
p
pa
pac
pacific
pacing
pack
packag
packing
pad
padd
paddl
pag
pai
paid
pain
painful
painfully
paint
painting
pair
pal
pala
palac
palat
pall
palli
palm
palom
palomi
palomid
palp
pamphl
pan
pang
panic
pantag
pantagr
pantagru
panth
panu
panur
panurg
pap
par
para
parad
paradi
paradis
parag
paragr
paragra
paragraph
parall
paraly
paralys
parap
parc
parch
parchm
pard
pardon
pari
paris
parish
park
parl
parli
parlia
parliam
parlo
parlor
parlour
paro
part
partak
partially
partic
partici
particip
participa
particl
particula
particular
particularly
partition
partly
party
pas
pasc
pasca
pascal
pass
passag
passing
passion
passiv
past
pasto
pastor
pastora
pastur
pat
patch
path
patho
pathw
pathwa
pathway
pati
patr
patri
patria
patriar
patriarch
patrici
patricia
patrician
patrio
patriot
patrioti
patriotic
patriotis
patriotism
patro
patron
pau
paul
paulin
paup
paus
pausing
pav
pavilion
paw
pawn
pay
paying
paym
ph
pha
phan
phant
phantom
phar
phara
pharao
pharaoh
phas
phi
phil
phila
philad
philan
philanth
philanthr
philanthro
philanthrop
phili
philip
philipp
philis
philist
philisti
philistin
phill
philo
philos
philoso
philosoph
philosophi
philosophic
philosophica
philosophical
philosophy
phl
pho
phon
phot
photo
photog
photogr
photogra
photograph
phr
phra
phras
phy
phys
physi
physic
physica
physical
physically
physio
physiol
physiolo
physiolog
pi
pic
pick
picking
pickw
pickwick
pict
pictu
pictur
pig
pik
pil
pilgrim
pilgrima
pilgrimag
pill
pilla
pillag
pillar
pillars
pillow
pilo
pilot
pin
pinch
pink
pion
pious
pip
piqu
pistol
pit
pitch
pitiful
pity
pl
pla
plac
plagu
plai
plain
plainly
plaintiv
plan
planch
plank
planks
plant
plantation
plas
plast
plat
platform
plato
plausibl
play
playful
playing
plo
plod
plot
plough
plow
plu
pluck
plum
plumb
plump
plun
plund
plung
plunging
plur
plura
plural
plut
po
pock
poi
poin
point
pointing
pois
poison
poisonous
pok
pol
poli
polic
policy
polish
polit
politi
politic
politica
political
poll
pollu
pollut
polly
poly
pom
pomp
pon
pond
pont
pontiff
pony
poo
pooh
pool
poor
pop
popp
popu
popul
popula
populac
popular
populat
populati
population
populous
por
porc
porch
pork
port
portho
porthos
portion
portugu
pos
posi
posit
position
positiv
poss
possib
possibi
possibil
possibili
possibilit
possibiliti
possibility
possibl
possibly
post
posth
postpon
postu
postur
pot
pou
pouch
poul
poult
pound
pounds
pour
pouring
pov
pow
pr
practic
practica
practical
practically
pri
pric
prick
prid
prim
prima
primar
primary
primi
primit
primitiv
princ
princip
principa
principal
principally
principl
prio
prior
pris
prison
prith
priv
priva
privat
privi
privil
priz
pro
prob
proba
probab
probabi
probabil
probabili
probabilit
probability
probabl
probably
probl
proc
proclaim
procop
procu
procur
prodigal
prodigious
produc
producing
production
productiv
prof
proff
profi
profil
profit
profitabl
profound
profoundly
profus
prog
progr
prohibit
proj
prol
prolong
prom
promi
promin
promis
promising
promo
promot
promotion
prompt
promptly
pronounc
proof
prop
propag
propaga
proph
propo
propor
proportion
propos
proposition
pros
prosp
prot
proud
proudly
prov
provi
provid
providing
provin
provinc
provinci
provincia
provincial
proving
provision
provisions
provo
provocation
provok
prow
prowl
proxim
pru
prud
psycholog
psychologi
pu
publ
publi
public
publication
publicly
publish
puck
pud
pudd
pudding
puff
pug
pul
pull
pulling
pulp
pulpi
pulpit
puls
pump
pun
punc
punch
punct
punctu
punctua
punctual
punish
punishm
pup
pupi
pupil
pupils
pupp
pur
purch
purcha
purchas
purg
puri
purif
purit
purita
puritan
purity
purp
purpl
purpo
purpos
purs
pursu
pursui
pursuing
pursuit
push
pushing
put
puzz
puzzl
q
qu
qua
quad
quadr
quadru
quadrup
quai
quail
quain
quaint
quak
qual
quali
qualif
qualifi
qualific
qualifica
qualificat
qualificati
qualificatio
qualification
qualit
qualiti
quality
quan
quant
quanti
quantit
quantity
quar
quarr
quart
quay
qui
quick
quickl
quickly
quill
quinc
quit
quiv
quix
quixo
quixot
quo
quot
quotation
quoth
r
rabb
rabbi
rabbit
rack
raff
raffl
rag
ragg
raging
raim
rain
rainbow
ralph
ramp
rampa
rampar
rampart
ranch
rang
rank
raoul
raph
rapha
rapp
raptur
rash
rath
rav
ravag
ravi
ravin
raymond
raz
rh
rhin
rho
rhod
rhy
rhym
rhyth
rhythm
rib
ribb
ribbo
ribbon
ribbons
ribs
ric
rich
richly
richmon
richmond
rick
ridicul
ridiculous
rif
rifl
rig
rigg
rigging
righ
right
rigi
rigid
rim
ripp
rippl
riv
ro
roa
road
roam
roar
roaring
rob
robb
robi
robin
robus
robust
roch
rock
rocking
rod
rog
rogu
rol
rolf
roll
rolling
rom
roma
roman
romanc
romantic
roo
roof
room
roos
root
roots
rop
ros
rosamond
rot
rott
rou
roug
rough
roughly
roun
round
rous
rout
routin
rov
row
rowl
rowla
rowlan
rowland
rox
roy
roya
royal
ru
rub
rubb
rubbing
rubbish
rubi
ruby
rud
rudd
ruddy
rudim
rudo
rudolf
ruff
ruffi
ruffia
ruffian
ruffl
rug
rugg
rui
ruin
rul
ruling
rum
rumo
rumor
rumour
run
runn
running
rup
rupt
ruptu
ruptur
rus
rush
rushing
russ
russi
russia
russian
rust
rustic
rustl
rustling
rusty
ruth
s
sa
sab
sabb
sabba
sabbath
sac
sack
sacr
sacrific
sad
sadd
saddl
sadly
saf
sag
saga
sagaci
sagacit
sagacity
sai
said
sail
sailing
sailo
sailor
sailors
sain
saint
saith
sal
sala
salad
salar
salary
salisbury
sall
salli
salmon
salo
salon
saloon
salt
salu
salut
salutation
salv
salvation
sam
samo
samp
sampl
samps
sampson
samu
san
sancho
sanction
sanctu
sanctua
sanctuar
sanctuary
sand
sandwich
sandy
sang
sangu
sangui
sanguin
sap
sapt
sar
sara
sarac
sarah
sarc
sarca
sarcas
sat
sati
satis
satisf
satisfa
satisfaction
satisfactory
satisfi
satisfy
saturn
sau
sauc
saul
saun
saunt
saus
sav
savag
saving
saviour
savour
saw
sax
saxon
say
saying
sc
sca
scaffo
scaffol
scaffold
scal
scalp
scamp
scan
scand
scanda
scandal
scant
scanty
scap
scar
scarc
scarf
scarl
scat
scatt
sch
scho
schol
schola
scholar
scholars
schoo
school
schoolbo
schoolboy
schoolm
schoolma
schoolmas
schoolmast
schoon
sci
sco
scoff
scol
scold
scop
scor
scorn
scornful
scot
scotch
scotl
scotla
scotlan
scotland
scott
scottish
scou
scoun
scound
scoundr
scour
scourg
scout
scow
scowl
scr
scra
scrambl
scrap
scrat
scratch
scrib
scriptur
scro
scru
scrup
scrupl
scrut
scruti
scrutin
scrutiny
scu
scul
sculp
sculpt
sculptu
sculptur
scur
scut
sh
shabb
shabby
shadow
shagg
shaggy
shak
shaking
shall
shift
shifting
shilling
shillings
shim
shipping
shiv
sho
shock
shocking
shoo
shook
shoot
shooting
shop
shor
short
shortly
shot
shou
shoul
should
shouldn't
shout
shouting
shov
show
showing
shrank
shrill
shrink
shrinking
shriv
shroud
shrugg
shrunk
shu
shuff
shuffl
shut
sicily
sick
sickly
sigh
sighing
sight
sign
signatur
signifi
signific
significa
significan
significanc
significant
signify
signo
signor
sigur
sigurd
silk
sill
silly
silv
sim
simi
simil
simila
similar
similarly
simon
simp
simpl
simplic
simplici
simplicit
simplicity
simply
simu
simul
simult
simulta
simultan
sinc
sinful
singul
singula
singular
singularly
sink
sioux
situa
situat
situation
six
sixp
sixth
siz
sk
ski
skil
skilful
skill
skim
skin
skipp
skir
skirt
skirts
sku
skull
sky
slack
slain
slang
slaught
slav
slic
slight
slightl
slightly
slim
slipp
slipping
slop
sloping
slow
slowl
slowly
slu
sluggish
slumb
smack
small
smash
smith
smo
smok
smooth
smoothly
smot
smoth
sniff
snow
snuff
snug
so
sob
sobb
sobbing
soc
soci
socia
social
sociali
socialis
socialism
socialist
sock
socr
socra
socrat
sof
soft
softly
sojourn
sol
sold
soldi
soli
solic
solici
solicit
solicitu
solicitud
solid
solit
solita
solitar
solitary
solitu
solitud
solomon
solution
solv
som
somb
sombr
son
song
soon
sooth
soph
sophi
sophis
sophist
sophy
sorrow
sorrowf
sorrowfu
sorrowful
sou
sought
soul
soun
sound
sounding
soup
sour
sourc
south
southw
southwa
southwar
southward
sow
sown
sp
spacious
spain
spak
spanish
sparrow
sph
spi
spic
spid
spik
spil
spill
spin
spinn
spinning
spir
spira
spiral
spiri
spirit
spiritu
spiritua
spiritual
spit
splash
splin
splint
spo
spoi
spoil
spok
spong
spoon
spor
sport
sporting
spot
spout
sprang
sprinkl
spruc
spu
spun
spur
squ
squa
squad
squadr
squadron
squal
squall
squar
squat
squatt
squaw
squi
squir
stack
staff
stag
stagg
stalk
stall
stamp
stamping
statu
stick
sticking
stiff
stiffly
stifl
still
stimu
stimul
stimula
stimulat
stirrup
stock
stocking
stockings
stol
stom
stoma
stomach
stood
stool
stooping
stop
stopp
stopping
stor
stori
storm
stormy
story
stout
stow
straggl
straight
straightway
strain
strang
stratag
stric
strick
strict
strictly
strif
striking
stripp
strok
strong
strongly
strov
struck
structu
structur
struggl
struggling
stu
stubbo
stubbor
stubborn
stuck
stud
studi
studio
study
studying
stuff
stumbl
stump
stun
stunn
stup
stupi
stupid
stupidi
stupidit
stupidity
stur
sturd
sturdy
su
sub
subd
subdu
subj
sublim
subm
subma
submar
submari
submarin
submi
submis
submiss
submissi
submissio
submission
submissiv
submit
submitt
subo
subor
subord
subordi
subordin
subordina
subordinat
subs
subsc
subscr
subscri
subscrib
subsi
subsid
subsis
subsist
subst
substa
substan
substanc
substant
substanti
substantia
substantial
substi
substit
substitu
substitut
subt
subtl
subu
subur
suburb
suburbs
suc
succ
succou
succour
such
suck
sud
sudd
suff
suffi
suffic
suffici
suffolk
sug
suga
sugar
sugg
sui
suic
suici
suicid
suit
suitabl
suito
suitor
sul
sulk
sull
sulph
sulphu
sulphur
sult
sulta
sultan
sum
summ
summon
sumptuous
sun
sunk
sunlight
sunshin
sup
supp
suppl
suppli
supplic
supplica
supplicat
supplicati
supplicatio
supplication
supply
suppo
suppor
support
supporting
suppos
supposing
supposition
sur
surf
surfa
surfac
surg
surmount
surp
surpa
surpas
surpass
surpl
surpr
surpri
surpris
surprising
surround
surrounding
surroundings
surv
survi
surviv
survivo
survivor
sus
susa
susan
susc
susp
suspicion
suspicious
sust
susta
sustai
sustain
sw
swagg
swamp
swif
swift
swiftly
swim
swimm
swimming
swing
swinging
switch
swo
swoll
swoon
swor
sword
swung
syllabl
symbo
symbol
symp
sympa
sympath
sympathy
symptom
symptoms
syracus
t
tabl
tack
tackl
tactic
taint
tak
taking
talk
talking
tall
tang
tangl
tank
tapp
tapping
taught
th
thank
thankful
thick
thickly
think
thinking
thogh
thoma
thomas
thorough
thoroughf
thoroughfa
thoroughfar
thoroughl
thoroughly
thou
though
thought
thoughtfu
thoughtful
thoughtfull
thoughtfully
thous
thousa
thousan
thousand
thrift
thrilling
throbbing
throng
through
throughou
throughout
throw
throwing
thrown
thumb
tib
tic
tick
tickl
tig
tight
tightl
tightly
till
tim
timb
tin
tink
tinkl
tiny
tion
tipp
titanic
titus
to
tobacco
toby
tomorrow
tongu
too
took
tooth
topic
topics
topp
tortur
touch
touching
tough
tow
towa
towar
toward
towards
town
track
tradition
traffic
tragic
train
traitor
tramp
tranquil
tranquillity
triangl
trib
tribu
tribun
tribuna
tribunal
tribut
trick
trickl
trif
trifl
trifling
trim
trimm
triumph
triumpha
triumphan
triumphant
triumphantly
triv
trivi
trivia
trivial
troj
troja
trojan
troop
troops
trop
troph
tropi
tropic
tropica
tropical
troth
troubl
trough
trous
trout
trow
truc
truck
trump
trunk
truth
truthful
tu
tub
tuck
tuf
tuft
tug
tul
tuli
tulip
tull
tum
tumbl
tumbling
tumu
tumul
tumult
tumultuous
tun
tunn
tupp
tur
turb
turbul
turk
turkish
turn
turning
tuto
tutor
tw
twain
twi
twic
twig
twigs
twilight
twin
twink
twinkl
twinkling
twis
twist
twisting
twit
two
typical
u
ug
ugl
ugli
ugly
ul
ult
ulti
ultim
ultima
ultimat
um
umb
umbr
ums
umsl
umslo
umslop
umslopo
umslopog
umslopoga
umslopogaa
umslopogaas
un
unabl
unaccountabl
unawar
unb
unbou
unboun
unbound
unbrok
unc
unch
unchang
uncl
unco
uncom
uncomf
uncomfo
uncomfor
uncomfort
uncomfortabl
uncomm
uncommo
uncommon
uncon
unconc
uncons
unconsc
unconsci
unconsciou
unconscious
unconsciousl
unconsciously
uncouth
uncov
und
undisturb
undoubt
unf
unfa
unfai
unfair
unfam
unfami
unfamil
unfamili
unfamilia
unfamiliar
unfi
unfinish
unfit
unfo
unfor
unfort
unfortu
unfortun
unfortuna
unfortunat
ung
ungo
ungr
ungra
ungrat
ungu
unh
unha
unhapp
unhappi
unhappy
unho
uni
uniform
unin
unint
union
uniqu
unit
unity
univ
unju
unjus
unjust
unk
unki
unkin
unkind
unknow
unknown
unl
unli
unlik
unlim
unlimi
unlimit
unlock
unluck
unlucky
unmistakabl
unmov
unob
unobs
unp
unpa
unpar
unpl
unpo
unpr
unpro
unqu
unsh
unsucc
unt
unti
until
unto
unu
unus
unusu
unusua
unusual
unusually
unw
unwa
unwi
unwil
unwill
unwilling
unwo
unwor
unworth
unworthy
up
uph
upho
uphol
uplift
upo
upon
upp
upright
upwa
upwar
upward
ur
urb
urba
urban
urg
urging
uri
urin
ursula
us
usag
ush
usu
usua
usual
usuall
usually
usur
usurp
ut
uti
util
utili
utilit
utility
utm
utmo
utmos
utmost
utt
v
vacation
vag
vaga
vagabon
vagabond
vagu
vain
vainly
valj
vall
valour
valu
valuabl
vanish
vanquish
vapor
vapour
various
vault
vb
vi
vib
vibr
vibra
vibrat
vibration
vic
vici
vicin
vicini
vicinit
vicinity
vicious
vicom
vicomt
vict
victim
victo
victor
victori
victoria
victorious
victory
victu
victua
victual
vig
vigi
vigil
vigila
vigilan
vigilanc
vigo
vigor
vigorous
vigorously
vigour
vill
villa
villag
villain
vinc
vio
viol
violin
virtu
virtuous
visibl
visibly
vision
visitor
visitors
viv
viva
vivi
vivid
vividly
viz
vo
voc
voca
vocabula
vocabular
vocal
vocation
voi
voic
void
vol
volc
volca
volcan
volcano
voll
volu
volum
volun
volunt
volunta
voluntar
voluntari
voluntarily
voluntary
vom
vomi
vomit
vot
vouch
vouchs
vouchsa
vouchsaf
vow
voy
voya
voyag
vul
vulg
vulga
vulgar
w
wa
wad
waf
wag
wagg
waggo
waggon
wagon
wai
wail
wailing
wais
waist
waistco
waistcoa
waistcoat
wait
waiting
wak
waking
wal
wald
walk
walking
wall
walls
walt
wan
wand
want
wanting
wanton
war
wardrob
warf
warfa
warfar
warm
warmly
warmth
warwick
was
wash
washing
washingt
washingto
washington
wasn't
wat
watch
watchful
watching
wav
waving
wax
way
wh
wha
whal
what
what's
whi
which
whil
whim
whims
whin
whip
whipp
whir
whirl
whirling
whirlw
whirlwin
whirlwind
whis
whisk
whisky
whisp
whist
whistl
whistling
whit
whith
who
whol
wholly
whom
why
wick
widow
wif
wig
wilbur
wilk
wilki
will
win
winc
winch
wind
winding
window
wink
winkl
wisdom
wish
wishing
witch
witchc
witchcr
witchcra
witchcraf
witchcraft
with
withhold
within
withou
without
wo
wol
wold
wolf
wolv
wom
woma
woman
woman's
womb
won
won't
wond
wondrous
woo
wood
wool
wor
word
words
wordswo
wordswor
wordsworth
work
working
workshop
worl
world
world's
worm
worship
worshipp
worth
worthy
wou
woul
would
wouldn't
woun
wound
wragg
wrang
wrangl
wright
wrinkl
wrong
wroth
wrought
wuz
x
xi
xii
xiii
xiv
xix
xl
xli
xlv
xv
xvi
xvii
xviii
xx
xxi
xxii
xxiii
xxiv
xxv
xxvi
xxvii
xxviii
xxx
xxxi
xxxii
xxxv
xxxvi
xxxvii
y
yach
yacht
yank
yo
yok
yon
yond
yor
york
you
you'
you'll
you'v
young
youth
youthful
yuh
z
zo
zu
