##'
##'a
##'d
##'l
##'ll
##'n
##'r
##'s
##'t
##'v
##'ve
##a
##a's
##aac
##ab
##aba
##abb
##abbl
##abi
##abia
##abian
##ability
##abl
##ablish
##ablishm
##ably
##abo
##abol
##abor
##abora
##aborious
##abour
##about
##abouts
##abul
##abula
##aby
##ac
##acc
##acco
##ach
##aching
##achus
##aci
##acia
##acific
##acious
##acit
##acity
##ack
##acking
##acl
##acob
##acon
##acqu
##acrific
##act
##actic
##actically
##action
##activ
##acto
##actur
##acu
##acy
##ad
##aday
##adful
##adfully
##adian
##adical
##adily
##adin
##ading
##adition
##adlong
##ado
##ador
##adow
##adows
##adth
##adually
##ady
##af
##aff
##affi
##aft
##ag
##agg
##agging
##agic
##ago
##agon
##agoni
##agu
##ah
##aham
##ahom
##ai
##aiah
##aic
##aid
##aight
##aightw
##aightwa
##aightway
##ail
##ailing
##aill
##ailway
##aim
##ain
##ainbow
##aining
##ainly
##aint
##air
##aircas
##ais
##ait
##aith
##aithful
##aitor
##ajor
##ak
##akabl
##akf
##akfa
##akfas
##akfast
##aking
##akon
##al
##alanc
##alcony
##ali
##alian
##alin
##aling
##alis
##alist
##ality
##aliz
##alization
##alizing
##alj
##alk
##alking
##all
##alli
##allic
##allin
##allop
##allow
##ally
##alogu
##alous
##alousy
##alph
##alstaff
##alth
##althy
##alty
##alu
##aluabl
##aly
##am
##ama
##amag
##aman
##amatic
##amb
##ambl
##ambo
##aming
##amo
##amond
##amor
##amous
##amp
##amph
##amping
##ampl
##an
##ana
##anc
##anch
##ancholy
##anctu
##ancy
##andfath
##andmoth
##andsom
##ang
##anging
##angl
##angu
##ani
##ania
##anic
##anical
##anim
##aning
##anish
##aniz
##anization
##ank
##ankful
##anking
##ankly
##annah
##anor
##anqu
##anquil
##anquish
##ans
##ansaction
##ansf
##ansform
##ansg
##ansgr
##anship
##anslat
##anslation
##ansom
##anspar
##ansport
##ant
##antic
##antly
##anwhil
##ap
##apabl
##aph
##apha
##aphic
##aphy
##aping
##apl
##apol
##apon
##apons
##apor
##app
##apping
##appl
##apt
##aptiz
##aptur
##ar
##aranc
##aratus
##arb
##arba
##arbican
##arbor
##arbour
##arch
##arching
##ard
##ardi
##ardship
##arful
##arg
##argain
##ari
##aria
##ariably
##arian
##aric
##arily
##arin
##aring
##arious
##arius
##ark
##arkabl
##arking
##arly
##armony
##arnish
##aron
##arply
##arquis
##arrativ
##arri
##arrica
##arrow
##ars
##art
##arth
##artially
##articula
##artily
##artur
##ary
##arzan
##as
##asant
##asantly
##ascal
##ash
##ashi
##ashing
##asil
##asin
##asing
##asion
##ask
##asmuch
##ason
##asonabl
##asonably
##asoning
##asph
##assur
##ast
##astic
##astical
##astroph
##asur
##at
##atch
##atching
##ath
##atha
##athan
##athing
##athl
##athsh
##atic
##atigu
##ating
##atio
##ation
##ational
##atis
##atisf
##ativ
##ato
##ator
##atory
##atric
##att
##attl
##attling
##atu
##atulat
##atur
##atural
##aturally
##atus
##au
##aubon
##augh
##aught
##aughty
##aul
##ault
##aum
##aunt
##aus
##aut
##auti
##autiful
##autifully
##autilus
##auty
##aux
##av
##avi
##avian
##avily
##aving
##aviour
##avish
##avo
##avor
##avour
##avourabl
##avy
##aw
##awar
##away
##awful
##awing
##awn
##ax
##axon
##ay
##ayl
##aylight
##aylo
##az
##aza
##azar
##azi
##azing
##azzl
##b
##ba
##babl
##bable
##bably
##bacco
##back
##bal
##ball
##ban
##band
##band's
##bar
##bat
##bb
##bbing
##bbish
##bbl
##bbo
##bbot
##bi
##bic
##bica
##bican
##bil
##bili
##bilit
##bility
##bish
##bit
##bj
##bl
##blish
##blishm
##bo
##boa
##boar
##board
##bod
##body
##bol
##bon
##book
##bor
##borious
##born
##borough
##bou
##bour
##bourn
##bout
##bow
##boy
##bridg
##brow
##brows
##bru
##bruar
##bruary
##bt
##bts
##bu
##buk
##bul
##bur
##burg
##burgh
##burn
##bury
##bus
##by
##c
##ca
##cad
##cal
##call
##cally
##cam
##camp
##can
##cant
##cap
##capabl
##cas
##cast
##castl
##cation
##caus
##cay
##cc
##cca
##cco
##ccomm
##ccommo
##ccomp
##ccompl
##ccomplish
##ccou
##ccu
##ccumul
##ccup
##ccustom
##ch
##cha
##chaic
##chan
##chang
##chanical
##chant
##chbish
##chbisho
##chbishop
##chful
##chi
##chin
##ching
##chio
##cho
##chol
##choly
##choo
##chu
##ci
##cial
##cially
##cian
##ciat
##ciation
##cibl
##cid
##cifi
##cific
##cifica
##cifical
##cifically
##ciful
##cil
##cill
##cim
##cion
##cious
##cip
##cipi
##cipic
##cipit
##cipitat
##cis
##cision
##cisiv
##cit
##cival
##ck
##ckl
##cknow
##ckon
##ckoning
##cl
##clar
##claration
##cliff
##clin
##clination
##clining
##clo
##cloth
##clu
##co
##coat
##cob
##cock
##cog
##cogn
##cogni
##cognis
##cognition
##cogniz
##cohol
##col
##coll
##com
##comb
##coming
##comm
##como
##comp
##compl
##complish
##con
##conc
##conci
##concil
##cond
##conom
##cony
##cop
##cor
##cora
##corat
##coration
##cord
##cot
##cou
##coun
##count
##cour
##coura
##courag
##cours
##cov
##cow
##cqu
##craft
##cri
##crib
##crific
##cription
##criptur
##cross
##crow
##cru
##crup
##ct
##ctabl
##ctac
##ctacl
##ctation
##ctato
##ctator
##ctators
##ctful
##ctic
##ctically
##ctil
##cting
##ction
##ctionat
##ctiv
##ctly
##cto
##ctor
##ctorious
##ctric
##ctu
##ctua
##ctual
##ctually
##ctur
##ctus
##cu
##cul
##cula
##cular
##culat
##culation
##culi
##culia
##culiar
##culiarit
##culiarly
##culous
##cumb
##cumul
##cun
##cur
##curi
##curit
##curity
##cus
##custom
##cut
##cution
##cutiv
##cy
##d
##dain
##dapt
##day
##ddison
##ddition
##dfath
##dg
##dgat
##dian
##diat
##dibl
##dica
##dical
##dicat
##dication
##dicin
##dict
##diction
##dicul
##diculous
##did
##didat
##diff
##dific
##digious
##dignant
##dignation
##dinal
##dinary
##dinburgh
##diot
##dious
##disc
##dison
##distinct
##dit
##ditary
##ditat
##ditation
##dition
##ditor
##dium
##dividual
##dj
##djac
##djoining
##dju
##dmini
##dmirabl
##dmiration
##dmission
##dmit
##dmitt
##dmoth
##dmund
##dn't
##dol
##dolph
##dom
##doo
##door
##dop
##dor
##dorn
##dour
##dow
##dox
##draw
##drawn
##droom
##dscap
##dship
##dsom
##dual
##dually
##duc
##ducation
##duction
##ductiv
##dulg
##duli
##dulit
##dulity
##dulous
##dult
##dust
##dvanc
##dvantag
##dvic
##dvis
##dvocat
##dward
##dwin
##e
##eighbor
##eighborhood
##eighbors
##eighbour
##eighbourhood
##eighbouring
##eighing
##ejoic
##ejoicing
##elightful
##elligibl
##emarkabl
##emarkably
##endship
##ength
##erything
##erywh
##f
##fac
##facto
##factor
##factur
##fall
##fast
##fath
##fax
##ff
##fi
##fianc
##fic
##fication
##fici
##ficia
##ficial
##figu
##figur
##fil
##fin
##fini
##finit
##fish
##fit
##fix
##fl
##flow
##fly
##fo
##fol
##fold
##folk
##foo
##foot
##for
##form
##formation
##forming
##forth
##found
##frain
##ft
##fu
##fug
##ful
##fully
##fus
##fusal
##g
##ga
##gain
##gal
##gan
##ganiz
##ganization
##gant
##gar
##gard
##garding
##gat
##gation
##gativ
##gaz
##gg
##gga
##ggar
##gging
##ggo
##ggot
##ggott
##ggotty
##gh
##gi
##gia
##gian
##gibl
##gil
##gim
##gin
##gini
##ginia
##ginn
##ginning
##gion
##gions
##gious
##gis
##gisl
##gislatur
##gist
##gitimat
##giving
##gl
##gnant
##gnifi
##gnifica
##gnifican
##gnificanc
##gnition
##gniz
##gnom
##gnomi
##gnor
##gnoranc
##gnorant
##go
##gom
##gon
##gor
##gory
##got
##goti
##gour
##graph
##grim
##gro
##ground
##gu
##gua
##guar
##guard
##gui
##gul
##gula
##gular
##gularly
##gulat
##gulation
##gum
##gun
##gy
##gyman
##h
##ha
##hab
##half
##ham
##han
##hand
##hap
##haps
##hav
##haviour
##hi
##hib
##hic
##hicl
##hin
##hind
##ho
##hol
##hold
##hom
##hoo
##hood
##hous
##how
##ht
##hu
##i
##ia
##iabl
##iably
##iabol
##iac
##iag
##iah
##ial
##ially
##ialogu
##iam
##ian
##ianc
##ians
##iant
##ianus
##iard
##iary
##ias
##iastical
##iat
##iatic
##iating
##iation
##ib
##iba
##ibal
##ibb
##ibbl
##ibbo
##ibi
##ibil
##ibili
##ibilit
##ibility
##ibl
##ibly
##ibu
##ibus
##ic
##ica
##icabl
##ical
##ically
##icat
##ication
##ich
##icho
##ici
##icia
##ician
##icin
##icion
##icious
##icit
##icity
##ick
##icking
##ickwick
##ico
##ict
##iction
##ictly
##ictorious
##icul
##icula
##icular
##iculous
##icult
##icultu
##icultur
##icus
##id
##idat
##idg
##idicul
##idiculous
##idious
##idity
##idly
##idn't
##idow
##idual
##iendship
##if
##iff
##ifi
##ific
##ifica
##ification
##ifl
##iform
##ift
##iful
##ify
##ifying
##ig
##iga
##igat
##igation
##igg
##igging
##iggl
##igh
##ighb
##ighbo
##ighbor
##ighborh
##ighborho
##ighborhoo
##ighborhood
##ighbors
##ighbou
##ighbour
##ighbourh
##ighbourho
##ighbourhoo
##ighbourhood
##ighbouring
##ighing
##ight
##ightfu
##ightful
##ightw
##igibl
##igion
##igious
##igm
##igma
##ign
##ignan
##ignant
##ignat
##ignation
##ignifi
##ignifican
##ignificanc
##igo
##igour
##igu
##igur
##ih
##ihi
##ihood
##iht
##ii
##iii
##ik
##iking
##il
##ilbur
##ilgrim
##iling
##ilion
##ility
##ilk
##ill
##illa
##illing
##illion
##illow
##illy
##ilous
##ilus
##ilv
##ilway
##ily
##im
##imation
##imb
##imbl
##imi
##imin
##iminish
##imit
##imm
##imon
##imp
##impl
##imu
##imus
##in
##in't
##ina
##inac
##inal
##inar
##inary
##inat
##ination
##inbow
##inburgh
##inc
##inct
##inctiv
##indow
##ing
##ingham
##ingl
##ington
##inguish
##ingul
##ini
##inia
##inian
##inion
##inish
##inishing
##inity
##ink
##inking
##inkl
##ino
##inous
##int
##inth
##inu
##inuous
##inus
##io
##ioch
##iol
##ion
##iot
##iour
##ious
##iously
##ip
##ipat
##ipic
##ipl
##ipp
##ippi
##ipping
##ippo
##ipt
##iption
##iptur
##ipus
##iqu
##iqui
##iquit
##iquity
##ir
##irabl
##iration
##ircas
##irch
##irship
##irth
##irthday
##irtuous
##irty
##is
##isapp
##isc
##iscourag
##iscours
##iscu
##isdom
##ish
##ishing
##ishly
##ishm
##ishop
##isibl
##ising
##ision
##isk
##isl
##ism
##ismount
##ison
##ispos
##isposition
##ission
##issippi
##ist
##istanc
##istant
##istian
##istibl
##istic
##istin
##istinct
##istinguish
##istmas
##istoc
##istoph
##istribut
##ists
##isur
##it
##ita
##itabl
##itably
##itain
##itanc
##itanic
##itary
##itat
##itating
##itation
##itativ
##itch
##itching
##ith
##ithf
##ithfu
##ithful
##iti
##itimat
##iting
##ition
##itious
##itish
##itiv
##itor
##itory
##itu
##itua
##ituation
##itud
##itur
##itus
##itution
##itutions
##ity
##itz
##ium
##iumph
##ius
##iv
##ivabl
##ival
##ividual
##iving
##ivision
##ix
##ixth
##iz
##ization
##izing
##izon
##izz
##izzl
##j
##ja
##jac
##jah
##jam
##jami
##jar
##jo
##joi
##joic
##joicing
##join
##joining
##jor
##jou
##jour
##journ
##joy
##joying
##ju
##jud
##judi
##judic
##k
##ka
##kabl
##ki
##kin
##king
##kins
##kwa
##l
##la
##lab
##labora
##lac
##lack
##lagu
##lai
##lain
##lam
##lan
##lanc
##lanch
##lancholy
##land
##lang
##lank
##lant
##lantic
##lap
##lapping
##lar
##larm
##las
##lashing
##lasph
##lass
##last
##lasting
##lat
##lating
##lation
##lations
##lativ
##laught
##lav
##law
##lax
##lay
##laz
##lazing
##lb
##lbow
##lbur
##lbury
##lch
##lcohol
##lcom
##lcony
##ld
##lding
##ldom
##lf
##lfish
##lgrim
##li
##lia
##lian
##lib
##lic
##lica
##licac
##licacy
##licat
##lication
##lici
##licious
##licit
##licity
##lick
##liff
##lig
##light
##lightf
##lightfu
##lightful
##ligibl
##ligion
##ligious
##lik
##lim
##limi
##limm
##limp
##lin
##lina
##lination
##ling
##lio
##lion
##lious
##lip
##lipp
##lipping
##lis
##lish
##list
##lit
##lity
##lium
##liv
##lix
##liz
##lizing
##lj
##lk
##lking
##ll
##lla
##llabl
##llation
##llig
##lligibl
##lling
##llion
##llo
##llock
##llop
##lloq
##llous
##llow
##llowing
##llowsh
##llowshi
##llusion
##lly
##lmighty
##lmo
##lo
##lob
##lock
##lod
##lof
##log
##logi
##logu
##logy
##lom
##loma
##lomon
##lon
##lond
##long
##longing
##loo
##look
##loom
##lop
##loping
##lopm
##loq
##lor
##lorious
##lot
##loth
##louc
##loud
##lough
##lour
##lourish
##lous
##lously
##lousy
##lov
##low
##lowing
##lowl
##lp
##lph
##lphi
##lphia
##lping
##lpl
##lsh
##lsion
##lso
##lstaff
##lt
##ltar
##lthough
##ltog
##lty
##lu
##luabl
##luck
##luct
##lucta
##luctan
##luctanc
##luctant
##lud
##luff
##lug
##lum
##lumb
##lung
##lus
##lush
##lushing
##lusion
##lution
##lv
##lvan
##lvation
##lving
##lway
##ly
##m
##mag
##mai
##maid
##main
##maining
##mal
##mall
##man
##man's
##mand
##mark
##markabl
##markably
##marks
##mart
##mas
##mash
##matic
##mation
##matur
##may
##maz
##mazing
##mb
##mba
##mbition
##mbitious
##mbl
##mblanc
##mbling
##mbly
##mbo
##mbranc
##mbros
##mbul
##mi
##miabl
##mic
##mical
##mid
##might
##mighty
##mil
##min
##mina
##minat
##mination
##mind
##mini
##minin
##minish
##mirabl
##miration
##mis
##mish
##miss
##mission
##mist
##mit
##mitat
##mitation
##mith
##mitt
##mitting
##mity
##mmon
##mmor
##mnant
##mo
##moc
##mock
##mocr
##mocra
##mod
##mog
##moi
##mois
##mok
##mol
##mon
##mond
##mong
##moni
##monious
##mons
##monst
##monstr
##monstrat
##monstration
##mont
##mony
##mooth
##mor
##morabl
##mori
##moria
##morial
##morrow
##mors
##mory
##mos
##mosph
##most
##mot
##moth
##motion
##mou
##moun
##mount
##mour
##mous
##mously
##mouth
##mov
##moval
##moving
##mp
##mpath
##mph
##mphi
##mpl
##mplat
##mplation
##mplish
##mpo
##mpor
##mpora
##mporal
##mporar
##mporari
##mporary
##mpt
##mptation
##mpting
##mption
##mptom
##mptuous
##mu
##much
##mun
##mund
##mur
##mus
##n
##n't
##nacl
##nah
##nai
##nalty
##nanc
##nant
##napp
##natch
##nation
##nativ
##nator
##natural
##nay
##nbow
##nburgh
##nc
##ncapabl
##nch
##nchar
##nchard
##nching
##nchm
##nchma
##nchman
##ncholy
##nci
##ncil
##ncomp
##ncount
##ncour
##ncumb
##ncy
##ndfath
##ndicat
##ndid
##ndiff
##ndmoth
##ndor
##ndow
##ndship
##ndsom
##ng
##ngh
##ngha
##ngham
##ngth
##ngu
##nham
##nial
##nic
##nical
##nically
##nico
##niff
##nifi
##nifica
##night
##nion
##nious
##niquity
##nish
##nishing
##nishm
##nition
##nius
##nix
##niz
##nization
##nizing
##njami
##njamin
##njoy
##njoying
##nju
##nk
##nkful
##nki
##nking
##nnah
##nnico
##nnicot
##nnicott
##nnounc
##nnyson
##no
##noc
##nod
##nom
##nomi
##noon
##nor
##nora
##noranc
##norant
##nos
##not
##noth
##nough
##nounc
##nouncing
##nour
##nourabl
##now
##nown
##noy
##nquil
##nquir
##nquiring
##nquish
##nquisiti
##nrod
##nsation
##nsations
##nshin
##nship
##nsibility
##nsibl
##nsible
##nsibly
##nsion
##nsions
##nsitiv
##nsiv
##nson
##nstan
##nsur
##nt
##ntal
##ntally
##ntangl
##ntary
##ntation
##ntativ
##ntelligibl
##nthrop
##ntial
##ntially
##ntic
##ntific
##ntil
##ntim
##ntin
##ntion
##ntional
##ntious
##ntiquity
##ntist
##ntiv
##ntl
##ntly
##ntor
##ntral
##ntric
##ntuck
##ntur
##nturi
##ntury
##nu
##nual
##nuff
##nui
##nuin
##nuit
##nuity
##num
##nuous
##nus
##nut
##nvisibl
##nwhil
##nxious
##nybody
##nyhow
##nyson
##nything
##nywh
##nza
##nzo
##o
##oa
##oach
##oaching
##oad
##ob
##obabl
##obably
##obation
##obb
##obbing
##obi
##obl
##oc
##ocation
##occup
##och
##oci
##ociat
##ociation
##ocious
##ocit
##ocity
##ock
##ocking
##ocl
##ocur
##odigious
##odor
##odox
##oduc
##oducing
##oduction
##of
##off
##ofound
##og
##ogh
##ognition
##ogniz
##ograph
##ography
##ogu
##ohib
##ohol
##oic
##oid
##oin
##ois
##oit
##oj
##oja
##ok
##oking
##ol
##ola
##olat
##olation
##old
##olic
##olin
##oll
##olling
##ollow
##ollowing
##olly
##olog
##ologi
##ologic
##ologica
##ological
##ology
##olomon
##olong
##olph
##olu
##olut
##olution
##olv
##olving
##om
##oma
##omi
##omon
##omp
##ompl
##omplish
##ompt
##on
##on's
##on't
##onabl
##onably
##onag
##onal
##onally
##ong
##oni
##onia
##onian
##onic
##onicl
##onio
##onious
##onish
##onishing
##onishm
##onius
##ono
##onom
##onounc
##onour
##onourabl
##onous
##onsible
##ontan
##onz
##oo
##ood
##oof
##ook
##ooking
##ool
##oom
##ooming
##oon
##oop
##ooping
##ooth
##oov
##op
##oph
##oping
##opl
##oplan
##opo
##opol
##opp
##opping
##oq
##oqu
##or
##ora
##oranc
##orant
##ordship
##org
##ori
##orial
##orical
##orious
##oris
##orizon
##orn
##orough
##orous
##orp
##orribl
##orribly
##orrow
##orshipp
##ort
##orthwith
##ory
##os
##oscop
##osition
##osity
##osius
##oss
##ossibl
##ot
##oth
##othing
##otic
##otion
##ott
##oty
##otyp
##ou
##oubl
##oubt
##ouc
##ouch
##oud
##oudly
##ough
##ought
##oul
##oun
##ounc
##ound
##oup
##our
##ourabl
##ourish
##ous
##ousa
##ousan
##ousand
##ously
##out
##outh
##oux
##ov
##oving
##ovision
##ovok
##ow
##owing
##owl
##ox
##oxi
##oxic
##oxim
##oy
##oz
##p
##pabl
##pai
##pair
##pairing
##pap
##par
##parat
##paration
##parations
##paring
##part
##partm
##partur
##pas
##pass
##patch
##pay
##pg
##ph
##phan
##phant
##phi
##phic
##phin
##pho
##phon
##phor
##phy
##pi
##pic
##pica
##picion
##picious
##pid
##pin
##ping
##pir
##piration
##piring
##pis
##pit
##pl
##pla
##plac
##pli
##plo
##ploma
##plor
##ply
##po
##poch
##poi
##pol
##pon
##pons
##ponsible
##poo
##pool
##por
##port
##ports
##pos
##posi
##posit
##position
##post
##pot
##poth
##pour
##pow
##pp
##pping
##pril
##pris
##priv
##proach
##pron
##pt
##pth
##pths
##ptibl
##ptic
##ptil
##ption
##ptiv
##ptur
##pu
##publi
##public
##publican
##pul
##pulch
##pulchr
##puls
##put
##putation
##q
##qu
##qual
##quat
##qui
##quil
##quin
##quir
##quiring
##quis
##quish
##quisi
##quisit
##quisiti
##quit
##r
##rab
##rabian
##rabl
##rably
##rac
##racious
##rack
##ract
##ractic
##ractically
##raction
##ractiv
##racy
##radition
##radually
##raffi
##raft
##rag
##ragg
##ragging
##ragic
##ragon
##raid
##raight
##raightway
##rail
##rain
##raining
##rais
##rait
##raitor
##ral
##rality
##rama
##ramatic
##ramp
##rampl
##ranc
##ranch
##randfath
##randmoth
##rang
##rank
##rankly
##ranquil
##rans
##ransaction
##ransf
##ransform
##ransgr
##ranslat
##ranslation
##ranspar
##ransport
##raph
##raphic
##raphy
##rapp
##rary
##ration
##rations
##rativ
##rator
##ratus
##raught
##rav
##raw
##rawing
##rawl
##rawn
##ray
##rba
##rbican
##rbit
##rbl
##rboard
##rbor
##rbour
##rbury
##rcas
##rch
##rchaic
##rchant
##rchbishop
##rchi
##rching
##rciful
##rcis
##rcival
##rcours
##rcul
##rcy
##rday
##rdict
##rdship
##rength
##rform
##rforma
##rformanc
##rfu
##rful
##rfum
##rgain
##rgil
##rginia
##rgo
##rgon
##rgu
##rgum
##rgy
##rgyman
##rhaps
##ri
##riably
##riag
##rial
##rian
##rib
##ribl
##ribly
##ribu
##ribut
##ric
##rica
##rical
##rican
##rich
##ricity
##rick
##rict
##rictly
##ricultur
##rid
##ridg
##riendship
##rif
##riff
##rifi
##rific
##rift
##riga
##rigg
##right
##rightful
##rik
##riking
##ril
##rill
##rilling
##rilous
##rim
##rimm
##rimon
##rina
##rinc
##rink
##rinking
##rinkl
##rint
##rio
##riod
##rior
##riority
##rious
##riously
##rip
##ripping
##ription
##riptur
##ris
##rish
##rishm
##rising
##risk
##rist
##ristian
##ristin
##ristmas
##ristoc
##ristoph
##rit
##ritabl
##ritain
##ritanc
##ritat
##riting
##ritish
##ritory
##riumph
##riv
##riving
##rizon
##rizzl
##rkabl
##rlasting
##rlook
##rlour
##rman
##rmany
##rmin
##rminat
##rmination
##rmission
##rmit
##rmitt
##rmony
##rmor
##rmost
##rmount
##rmour
##rnacl
##rnation
##rnativ
##rnatural
##rnish
##rnoon
##rnor
##ro
##roach
##roaching
##road
##roat
##rob
##robabl
##robably
##robation
##robl
##roc
##roch
##rocious
##rocur
##rod
##rodigious
##roduc
##roducing
##roduction
##rof
##rofound
##rog
##roga
##rohib
##roic
##roid
##roj
##rok
##roll
##rolling
##rolong
##rom
##roma
##romat
##romi
##rompt
##ron
##rong
##ronic
##ronica
##ronicl
##ronom
##ronounc
##ront
##ronz
##roo
##rood
##roof
##rook
##room
##roop
##rooping
##rop
##roph
##roplan
##ropo
##ropol
##ropoli
##ropp
##ropping
##ror
##ros
##rosity
##ross
##rot
##roth
##rou
##roubl
##roud
##roudly
##rough
##rought
##round
##rounding
##roup
##rous
##rout
##rov
##roving
##rovision
##rovok
##row
##rowing
##rown
##roxim
##roy
##roz
##rpl
##rpo
##rpos
##rpow
##rpris
##rquis
##rrang
##rray
##rribl
##rrible
##rribly
##rrifi
##rrific
##rritat
##rritory
##rriv
##rroga
##rror
##rround
##rrounding
##rrow
##rrowing
##rrows
##rrupt
##rruption
##rsation
##rship
##rshipp
##rsion
##rsist
##rson
##rsonag
##rsonal
##rsonali
##rsonalit
##rsonality
##rsonally
##rstand
##rstanding
##rstition
##rstitious
##rstood
##rsuad
##rsuasion
##rtain
##rtaining
##rtainly
##rtainm
##rtainty
##rtak
##rtaking
##rthday
##rthur
##rthward
##rthwith
##rti
##rtially
##rticl
##rticula
##rtific
##rtil
##rtill
##rtion
##rtions
##rtis
##rtist
##rtistic
##rtook
##rtrud
##rtu
##rtuous
##rtur
##rty
##ru
##ruc
##ruck
##ruct
##ruction
##ructiv
##ructu
##rud
##rug
##rugg
##ruggl
##ruggling
##rui
##rum
##rump
##run
##rung
##runk
##runo
##rup
##rupt
##ruption
##rusal
##rush
##rushing
##rust
##ruth
##rutus
##rval
##rvals
##rvant
##rvants
##rvation
##rvi
##rvic
##rving
##rvous
##rvously
##rward
##rwards
##rwick
##rwin
##rwis
##ry
##rybody
##rything
##rywh
##rzan
##s
##saac
##sab
##sail
##sapp
##sarily
##sary
##sation
##satisf
##saubon
##sault
##say
##sband
##sband's
##sborn
##sburg
##sbury
##scal
##scap
##scop
##scor
##scount
##scourag
##scours
##scri
##scrib
##scribing
##scription
##scu
##sday
##sgiving
##sgu
##sh
##sha
##sham
##shaw
##shi
##shin
##shing
##ship
##shipp
##shir
##shly
##shm
##sho
##shol
##shold
##siastical
##sibility
##sibl
##sid
##sign
##signat
##signation
##simi
##sion
##sip
##sippi
##sirabl
##sist
##sistanc
##sistant
##sistibl
##sisting
##sitat
##sitating
##sitation
##siting
##sition
##sitiv
##sitor
##siv
##sk
##skin
##sking
##sland
##smith
##smount
##smuch
##sn't
##so
##sociat
##sociation
##solat
##solation
##solut
##solution
##solv
##som
##son
##son's
##sonabl
##sonably
##sonag
##sonal
##sonally
##sor
##sort
##soul
##sour
##sourc
##spair
##spap
##spass
##spatch
##sphor
##spicion
##spicious
##spir
##spiration
##spiring
##spis
##spit
##spon
##spond
##sponding
##spons
##sponsi
##sponsib
##sponsibi
##sponsibil
##sponsibili
##sponsibilit
##sponsibility
##sponsible
##spos
##sposition
##spot
##ssail
##ssarily
##ssary
##ssault
##ssay
##ssibl
##ssion
##ssional
##ssip
##ssippi
##ssist
##ssistanc
##ssistant
##ssiv
##ssociat
##ssociation
##sson
##ssons
##ssor
##ssors
##ssum
##ssur
##ssuranc
##st
##stabl
##stablish
##stablishm
##stacia
##staff
##stair
##stall
##stallin
##stam
##stan
##stanc
##stand
##standing
##stant
##stantly
##station
##staurant
##stial
##stian
##stibl
##stic
##stick
##stigat
##stigation
##stil
##stimat
##stimony
##stin
##stination
##stinct
##stinctiv
##stinguish
##stiny
##stion
##stioning
##stition
##stitious
##stitut
##stitution
##stitutions
##stiv
##stiva
##stival
##stmas
##stoc
##stock
##stol
##stom
##ston
##stonish
##stonishing
##stonishm
##stood
##stoph
##stor
##stow
##strain
##straint
##strang
##stribut
##stril
##strod
##stronom
##stroph
##stroy
##struct
##struction
##structiv
##strum
##stur
##stward
##stwood
##su
##suad
##suasion
##suff
##sula
##sult
##sum
##suming
##sumption
##sur
##suranc
##swald
##sylum
##t
##tability
##tabl
##tablish
##tablishm
##tach
##tachm
##tacia
##tack
##tacl
##taff
##tagg
##tagoni
##tai
##tail
##tails
##tain
##taining
##tainly
##tair
##taircas
##tak
##taking
##tal
##tality
##talk
##tall
##tallic
##tallin
##tamp
##tan
##tanc
##tand
##tanding
##tangl
##tanic
##tant
##tantly
##tary
##tastroph
##tation
##tatu
##tau
##taur
##taurant
##tay
##tch
##tchful
##tching
##telligibl
##tful
##th
##than
##thday
##thful
##thin
##thing
##think
##tho
##thod
##thodi
##thodox
##thon
##thor
##thorn
##though
##thought
##throp
##thsh
##thu
##thur
##thus
##thwa
##thwar
##thward
##thwith
##ti
##tial
##tially
##tian
##tibl
##tic
##tical
##tically
##tick
##ticl
##tico
##ticul
##ticula
##tid
##tiff
##tifi
##tific
##tification
##tifl
##tiful
##tify
##tifying
##tig
##tigat
##tigation
##tigu
##til
##till
##tilus
##tily
##tim
##timat
##timation
##timon
##timony
##timul
##tina
##tinat
##tination
##tinct
##tinctiv
##tinguish
##tio
##tioch
##tion
##tious
##tiqu
##tiquity
##tis
##tist
##tistic
##tit
##tition
##titious
##titu
##titud
##titut
##titution
##titutions
##tiv
##tlantic
##tmas
##tmin
##tmins
##tminst
##tmosph
##tnight
##to
##toc
##tock
##tocking
##tog
##tok
##tol
##tom
##tomi
##ton
##tonia
##tonio
##tonish
##tonishing
##tonishm
##tood
##took
##tool
##top
##toph
##topp
##topping
##tor
##toric
##torical
##torious
##tors
##tort
##tory
##tot
##tout
##tow
##town
##toxic
##tract
##traction
##tractiv
##traight
##traightway
##train
##trang
##traw
##tray
##trength
##tribut
##trical
##tricity
##trick
##trif
##triking
##trio
##tro
##trod
##troduc
##troduction
##trog
##trok
##trong
##tronom
##troph
##trov
##troy
##tru
##truck
##truct
##truction
##tructiv
##tructu
##trud
##truggl
##truggling
##tt
##tta
##ttach
##ttachm
##ttack
##ttain
##tti
##tting
##ttitud
##ttl
##ttling
##tto
##ttom
##ttract
##ttraction
##ttractiv
##ttribut
##tty
##tu
##tua
##tual
##tually
##tuation
##tubb
##tubbo
##tuck
##tud
##tuff
##tulat
##tum
##tumbl
##tuous
##tur
##turally
##turb
##turn
##turning
##tury
##tus
##tution
##tutions
##tw
##tward
##twix
##twixt
##twood
##ty
##tz
##u
##ua
##uabl
##uad
##ual
##ually
##uasion
##uation
##ub
##ubb
##ubbing
##ubbo
##ubj
##ubl
##ubli
##ublim
##ublish
##ubon
##ubt
##uc
##ucation
##ucc
##uch
##uci
##ucid
##uck
##ucking
##uckl
##uct
##uctanc
##uction
##uctiv
##uctu
##ud
##udi
##udibl
##ufactur
##uff
##ug
##ugg
##uggl
##uggling
##ugh
##ught
##ugu
##uin
##uish
##uit
##uk
##ul
##ula
##ular
##ulat
##ulation
##uld
##ulg
##uli
##ull
##ulous
##ulously
##ulsion
##ult
##ulu
##um
##uman
##umb
##umbl
##umbling
##umm
##umou
##ump
##umph
##umption
##umul
##un
##unc
##unci
##unciation
##und
##ung
##unish
##unishm
##unk
##uno
##unshin
##unt
##uous
##uously
##up
##upon
##upp
##uption
##ur
##uranc
##urious
##urish
##urnish
##urop
##urrounding
##ursday
##us
##usal
##usband
##usband's
##ush
##ushing
##usion
##usiv
##uspicion
##uspicious
##ust
##ustin
##ustom
##ustr
##ustral
##ustrali
##ut
##uth
##utho
##utiful
##utilus
##ution
##utions
##utious
##utiv
##utom
##utu
##utum
##utumn
##utus
##uv
##ux
##uxurious
##uz
##uzz
##v
##vail
##val
##van
##vanc
##vant
##vantag
##variably
##vas
##vasion
##vation
##vato
##vator
##vi
##vic
##vil
##vill
##vin
##ving
##viour
##vious
##viousl
##viously
##vis
##vish
##visibl
##vision
##vit
##vitabl
##vitation
##viv
##vo
##voc
##vocat
##vocation
##voi
##vok
##vol
##volt
##volu
##volution
##volv
##volving
##vor
##vot
##votion
##vou
##vour
##vourabl
##vous
##vously
##vout
##vow
##w
##wa
##wai
##wak
##wal
##wald
##wall
##war
##ward
##warf
##wart
##wat
##way
##wful
##wh
##wha
##what
##whi
##whil
##wich
##wick
##wil
##wild
##will
##win
##wind
##wis
##wish
##with
##wix
##wkwa
##wman
##wo
##wok
##wom
##woma
##woman
##woo
##wood
##wor
##work
##worth
##worthy
##wright
##wspap
##wung
##x
##xa
##xan
##xand
##xandr
##xandri
##xas
##xation
##xi
##xibl
##xic
##xica
##xican
##xico
##xion
##xious
##xit
##xity
##xon
##xp
##xpl
##xt
##xth
##xurious
##xx
##y
##y'
##y'll
##y'r
##yard
##ybo
##ybod
##ybody
##ycl
##ydgat
##yhow
##ylight
##ylin
##yllabl
##ylum
##ymbo
##ymond
##ympath
##ymph
##ymptom
##ynch
##yon
##yond
##ypo
##ypoc
##yrian
##yship
##yson
##ything
##ywh
##z
##za
##zan
##zi
##zing
##zo
##zy
##zz
##zza
##zzar
##zzl
[UNK]
a
aaron
ab
aba
aban
aband
abandon
abat
abb
abbot
abdom
abh
abho
abhor
abhorr
abi
abid
abil
abili
abilit
ability
abj
abl
abn
abo
aboar
aboard
abod
abol
abolish
abom
abomi
abomin
abomina
abominabl
abominat
abominati
abominatio
abomination
abou
aboun
abound
about
abov
above
abr
abra
abrah
abraha
abraham
abro
abroa
abroad
abru
abrup
abrupt
abruptly
abs
abso
absol
absolu
absolut
absor
absorb
abst
abstr
abstra
abstrac
abstract
absu
absur
absurd
abu
abun
abund
abunda
abundan
abundanc
abundance
abundant
abus
aby
abys
abyss
acad
acc
acci
accid
acco
accommo
accommod
accommoda
accommodat
accomp
accompa
accompan
accompani
accompany
accompl
accomplish
accomplishm
accomplishme
accomplishmen
accomplishment
accor
accord
according
accordingly
accou
accoun
account
accu
accumul
accumula
accumulat
accur
accura
accurat
accus
accusation
accustom
achi
acid
acknow
acknowl
acqu
acqua
acquai
acquain
acquaint
acquainta
acquaintan
acquaintanc
acquaintance
acqui
acquir
across
act
acting
action
activ
activi
activit
activity
actor
actual
actually
acut
adapt
addison
addition
additional
adj
adjac
adjoining
adju
adjus
adjust
admini
adminis
administ
administr
administration
admirabl
admiration
admission
admit
admitt
adop
adopt
ador
adorn
adult
advanc
advancing
advantag
advic
advis
advocat
af
afa
afar
aff
affa
affai
affair
affairs
affi
affir
affirm
affl
affli
afflic
afflict
affliction
affo
affor
afford
afr
afra
afrai
afraid
afri
afric
africa
african
aft
ag
aga
agai
again
agains
against
agg
aggr
aggra
agit
agitat
agitation
ago
agon
agony
agr
agricultur
ah
ahab
aim
ain't
airship
aisl
akin
al
alan
alarm
alas
alb
alcohol
alic
alik
aliv
alk
all
allianc
allow
allowanc
allu
allud
allur
allusion
alm
almighty
almo
almos
almost
alof
aloft
alon
along
aloud
alph
alr
also
alt
altar
although
altog
alway
always
amaz
amazing
amba
ambas
ambass
ambassad
ambassado
ambassador
ambition
ambitious
ambros
amiabl
amid
amids
amidst
ammon
among
amongst
amory
amoun
amount
amphi
ampl
amus
amusing
an
analy
anc
ancho
anchor
anci
and
ang
angl
angr
angrily
angry
angu
anguish
anim
anima
animal
animals
animat
annix
annixt
announc
annoy
annual
anoin
anoint
anon
anoth
antagoni
antagonis
anthon
anthony
anti
antic
antici
anticip
anticipa
anticipat
antioch
antiqu
antiquity
anton
antonia
antonio
antony
anxi
anxious
anxiously
any
anybody
anyhow
anything
anyway
anywh
apart
apartm
apo
apol
apoll
apollo
apolo
apolog
apology
apos
apost
apostl
app
appa
appall
appar
apparatus
appl
appla
applau
applaud
applaus
appli
application
apply
appo
appoi
appoin
appoint
appointm
approach
approaching
approp
appropr
appropri
appropria
appropriat
approv
approval
april
apron
arab
arabian
arabs
arbit
arbitr
arch
archaic
archbishop
archi
archit
argu
argum
aris
aristoc
aristocr
armor
armour
aros
around
arrang
array
arriv
arrival
arrow
arrows
arthur
articl
artific
artifici
artificia
artificial
artill
artist
artistic
artists
as
asc
ash
asham
asho
ashor
asia
ask
asking
aspir
assail
assault
assign
assist
assistanc
assistant
associat
association
assum
assur
assuranc
astonish
astonishing
astonishm
astronom
asylum
at
atlantic
atmosph
atom
att
attach
attachm
attack
attain
attir
attitud
attor
attorn
attract
attraction
attractiv
attribut
aud
audi
audibl
aug
augu
augus
august
augustu
augustus
aunt
aust
austr
australi
austri
auth
autho
author
authori
authorit
authority
autom
autumn
avail
avoi
avoid
awa
awai
await
awaiting
awak
awar
away
awful
awfully
awhil
awkwa
awkwar
awkward
awok
ax
axi
axis
b
bab
babi
baby
babyl
babylon
back
background
backw
backwa
backwar
backward
bacon
bad
badg
badly
baff
baffl
bag
bagg
bagga
baggag
bai
bail
bait
balanc
balcony
ball
balla
ballad
ballo
balloon
ban
band
bang
banish
bank
bann
banqu
bapt
bapti
baptis
baptism
baptist
baptiz
bar
barb
barba
barbar
barbara
barbari
barbaria
barbarian
barbarians
barbarous
barbican
bargain
bark
barl
barn
baron
barri
barrica
barricad
bas
basi
basil
basin
basis
bask
bathsh
bathshe
bathsheb
bathsheba
batt
battl
bay
bibl
bibli
bid
bidd
bidding
big
bigg
bil
bill
billy
biol
birch
birth
birthday
bishop
bit
bitt
bl
black
blad
blak
blam
blanch
blank
blasph
blast
blaz
blazing
blin
blind
blis
bliss
blo
block
bloo
blood
bloody
bloom
blos
blossom
blot
blow
blowing
blu
bluff
blunt
blush
bo
boa
boar
board
boas
boast
boat
bob
bobb
bod
bodi
bodily
body
bog
boh
boi
boil
boiling
bois
bol
bold
boldly
boldwood
bolt
bomb
bon
bond
bonds
bonn
boo
book
books
boot
boots
bor
bord
born
borrow
bos
bosom
boss
bost
boston
bot
both
bott
bottl
bottom
bou
bough
boughs
bought
boul
boun
bound
boundar
bount
bour
bourg
bout
bow
bowl
box
boy
boys
brac
brain
branch
brav
bri
brib
brick
brid
bridg
bridl
briga
bright
brightly
brill
brilli
brillia
brillian
brilliant
brim
brink
brisk
brist
brit
britain
british
broad
brod
brok
bronz
brood
brook
broom
broth
brough
brought
brow
brown
browning
brows
bru
brui
bruis
bruno
brush
brut
brutal
brutus
bu
bubb
bubbl
buck
buckl
bud
budd
buff
buffa
buffal
buffalo
bug
bui
buil
build
building
built
bul
bulg
bulk
bull
bullock
bully
bulstrod
bump
bun
bunch
bund
bundl
buo
buoy
bur
burd
burg
buri
burial
burk
burn
burning
burnt
burs
burst
bursting
bury
bus
bush
busi
busin
bust
bustl
busy
but
butch
button
buy
buying
buzz
by
byron
byz
byza
byzan
byzant
c
ca
cab
cabi
cabin
cabl
cag
cak
cal
cala
calam
calami
calamit
calamity
calc
calcu
calcul
calcula
calculat
calculation
calf
cali
califor
californ
californi
california
call
calling
calm
calmly
calv
cam
camb
cambr
cambri
camp
campa
campaign
can
can't
canal
candidat
cann
canno
cannon
cannot
cano
canon
canvas
cap
capa
capabl
capable
capac
capaci
capacit
capacity
capi
capit
capita
capital
capt
capta
captai
captain
capti
captiv
captivi
captivit
captivity
captu
captur
car
carbo
carbon
carca
carcas
cardinal
cargo
carl
carol
carolin
carp
carri
carriag
carry
carrying
cart
carth
carv
cas
casaubon
cash
cask
cast
casting
castl
casu
casua
casual
cat
catastroph
catch
catching
cath
catho
cathol
catholi
catholic
catt
cattl
cau
caught
caus
causing
caution
cautious
cautiousl
cautiously
cav
caval
cavalr
cavalry
cavi
cavit
ch
cha
chad
chai
chain
chains
chair
chal
chalk
chall
chamb
champ
champi
champio
champion
chan
chanc
chang
changing
chann
chant
chap
chapm
chapt
chapte
chapter
char
chara
charac
charact
characte
character
characteri
characteris
characteristic
characteriz
charg
chari
chario
chariot
charit
charity
charl
charlo
charlot
charlott
charm
charming
chart
chas
chast
chasti
chat
chatt
chau
chauc
chi
chic
chica
chicag
chicago
chick
chil
child
childh
childho
childhoo
childhood
childish
childr
childre
children
chill
chim
chimn
chin
china
chiv
chiva
chival
chivalr
chlo
chlor
cho
choi
choic
chok
choo
choos
chop
chor
chorus
chos
chris
christ
christian
christiani
christianit
christianity
christmas
christoph
chron
chronicl
chu
chuck
chuckl
chur
church
churchyard
ci
cic
cig
ciga
cigar
cin
cir
circ
circl
circu
circui
circuit
circul
circula
circular
circulat
circum
circums
circumst
circumsta
circumstan
circumstanc
cit
citi
citiz
citize
citizen
citizens
city
civ
civi
civil
civili
civilis
civiliz
civiliza
civilizat
civilizati
civilizatio
civilization
cl
cla
clad
clai
claim
clam
clamo
clamor
clan
clapp
clar
clara
clark
clas
clasp
class
classic
clat
clatt
clau
claud
claudi
claus
claw
clay
clayt
clayton
cli
cliff
cliffor
clifford
cliffs
clim
clima
climat
climb
climbing
clo
cloa
cloak
clock
clos
closing
cloth
clothing
clou
cloud
clouds
clov
clow
clown
clu
club
clum
clums
clumsy
clung
clus
clust
clut
clutch
co
coa
coach
coachm
coachma
coachman
coal
coar
coars
coas
coast
coat
cob
cobb
cock
coco
cod
coff
coffi
coffin
cog
coil
coin
coinc
coinci
coincid
col
cold
coldly
coli
coll
colla
collar
colloq
colo
colon
coloni
colony
color
colou
colour
colu
colum
columb
column
columns
com
comb
comba
combat
combi
combin
combination
comf
comfo
comfor
comfort
comfortabl
comfortably
coming
comm
comma
comman
command
commanding
commandm
commi
commis
commission
commit
committ
commo
commod
common
commonly
commonp
commonpl
commonpla
commonplac
commu
commun
communi
communic
communica
communicat
communicati
communicatio
communication
communit
community
comp
compa
compac
compact
compan
compani
companio
companion
companions
company
compar
comparativ
compari
comparis
comparison
compas
compass
compassi
compassio
compassion
compl
compla
complac
complai
complain
complaint
complic
complica
complicat
complim
compo
compos
composi
composit
compositi
compositio
composition
compou
compoun
compound
compr
comprom
compromi
compromis
compu
comstock
con
conc
concl
conclu
conclud
conclusion
concu
concur
cond
condi
condit
conditi
conditio
condition
condu
conduc
conduct
condy
conf
confi
confid
confin
confir
confirm
confl
confli
conflic
conflict
confo
confor
conform
confou
confoun
confound
confron
confront
confu
confus
confusi
confusio
confusion
cong
congr
congratulat
conj
conju
conjur
conn
conqu
cons
consc
consci
conscie
conscien
conscienc
conscience
conscio
consciou
conscious
consi
consid
conside
consider
considerabl
considerably
consideration
considering
consis
consist
consisting
conso
consol
consola
consolat
consolati
consolatio
consolation
consp
conspi
conspic
conspicu
conspicuou
conspicuous
conspir
conspira
conspirac
conspiracy
const
consta
constabl
constable
constan
constant
constanti
constantin
constantino
constantinop
constantinopl
constantinople
constantl
constantly
consti
constit
constitu
constitut
constituti
constitutio
constitution
constr
constra
constrai
constrain
constru
construc
construct
constructi
constructio
construction
consu
consul
consult
consum
cont
conta
contact
contain
containing
conti
contin
continu
continual
continually
continuous
contr
contra
contrac
contract
contrad
contradic
contrar
contrary
contras
contrast
contribu
contribut
contriv
contriva
contrivan
contrivanc
contro
control
controv
conv
convi
convic
convict
conviction
convin
convinc
convul
convuls
coo
cook
cooking
cool
coop
cop
copi
copp
copy
cor
cora
coral
cord
cordi
cordia
cordial
cork
corn
coron
corp
corpo
corpor
corpora
corporat
corps
corr
corri
corrid
corrido
corridor
corru
corrup
corrupt
corruption
cos
cost
costum
cot
cott
cottag
cotton
cou
couch
cough
coul
could
couldn't
coun
counc
counci
council
couns
counse
counsel
count
countr
countri
country
countrym
coup
coupl
cour
coura
courag
cours
court
courtyard
cous
cousi
cousin
cov
cow
cowa
cowar
coward
cowardl
cowardly
cowp
cows
cr
cra
crab
crack
crad
cradl
craf
craft
cran
crash
crav
craw
crawfor
crawford
crawl
craz
crazy
cri
crick
crim
crimi
crimin
crimina
criminal
crimson
cripp
crippl
critic
critical
critici
criticis
criticism
cro
crook
crop
cros
cross
crossing
crouch
crow
crowd
crown
cru
cruis
crush
crust
cry
crying
cryst
crystal
crystallin
cu
cub
cubi
cubit
cubits
cud
cuff
cul
cult
culti
cultiv
cultiva
cultivat
cultu
cultur
cum
cun
cunn
cunning
cup
cupb
cupbo
cupboa
cupboar
cupboard
cur
curi
curio
curios
curiosi
curiosit
curiosity
curiou
curious
curiously
curl
curr
curs
curt
curtain
curtains
curv
cus
cush
cushi
cushio
cushion
cust
custo
custom
customar
customary
cut
cutt
cutting
cy
cylin
cylind
cyp
cypr
d
d'
da
dad
dagg
dai
daily
daint
dainty
dair
dais
daisy
dam
dama
damag
damn
damp
dams
dan
danc
dancing
dang
dani
dann
danni
dar
dark
darkn
darl
darling
dart
dash
dat
dau
daught
daughte
daughter
dav
davi
david
davy
daw
dawn
day
daylight
days
dazzl
delightful
di
diabol
dial
dialogu
diam
diamond
dian
diana
diary
dic
dick
dict
dicta
dictat
did
didn't
diff
diffi
diffic
difficu
difficul
difficult
difficulty
diffu
diffus
dig
digging
dign
digni
dignifi
dignit
dignity
dil
dilig
dim
diminish
dimly
din
dinah
dining
dinn
dip
diploma
dipp
dir
dirt
dirty
dis
disa
disag
disagr
disapp
disappo
disappoi
disappoin
disappoint
disappointm
disappointme
disappointmen
disappointment
disas
disast
disc
disch
discha
dischar
discharg
disci
discip
discipl
discipli
disciplin
discl
disclo
disclos
disco
discom
discon
discont
discor
discord
discourag
discours
discov
discr
discu
discus
discuss
discussion
disdain
disg
disgr
disgra
disgrac
disgu
disgui
disguis
disgus
disgust
dish
disho
dishon
disin
disl
disli
dislik
dism
disma
dismal
dismay
dismi
dismis
dismiss
dismount
diso
disob
disor
disord
disp
dispa
dispat
dispatch
displ
displa
display
dispos
disposition
dispu
disput
dissolv
dist
dista
distan
distanc
distant
disti
distill
distin
distinc
distinct
distinction
distinctly
distinguish
distr
distra
distrac
distract
distri
distribut
distric
district
distru
distrus
distrust
distu
distur
disturb
disturbanc
ditch
div
divi
divid
divin
divini
divinit
division
divo
divor
divorc
do
dobb
dobbi
dobbin
doc
dock
doct
docto
doctor
doctr
doctri
doctrin
docu
docum
dodg
dog
dogg
dogs
doll
dolla
dollar
dollars
dom
domi
domin
domina
domini
dominio
dominion
don
don't
donk
doo
doom
door
doorw
doorwa
doorway
doroth
dorothy
doth
dou
doubl
doubt
doubtf
doubtfu
doubtful
doug
dow
down
downstair
downstairs
downwa
downwar
downward
doz
drag
dragg
dragging
dragon
drain
drama
dramatic
drank
draught
draw
drawing
drawn
dri
drif
drift
drink
drinking
driv
driving
drop
dropp
dropping
drov
drow
drown
drows
drug
drum
drunk
dry
dryd
du
dub
duc
duch
duck
dug
duk
dull
dumb
dun
dunc
dung
dunstan
dup
dur
duration
during
durs
dus
dusk
dust
dusty
dut
dutch
duti
duty
dw
dwarf
e
ea
each
eag
eagl
ear
earl
earli
early
earn
ears
earth
earthly
eas
easi
easily
east
eastw
eastwa
eastwar
eastward
easy
eat
eating
ec
ecc
eccl
echo
ecl
econom
economi
economic
economy
ecs
ecst
ecsta
ecstas
ed
edd
edg
edict
edific
edinburgh
edit
edith
edition
editor
edmund
educ
educa
educat
education
edward
eff
effic
effo
effor
effort
efforts
eg
egg
eggs
egy
egyp
egypt
egypti
egyptia
egyptian
eh
eight
eighth
eith
eithe
either
ej
eja
ejac
ejacu
ejacul
ejacula
ejaculat
ek
el
elabora
elaborat
elap
elaps
elastic
elbow
eld
elf
elfr
elfri
elfrid
eli
elin
elino
elinor
eliz
eliza
elizab
ell
ellio
elliot
elm
elnora
eloqu
els
em
emb
emba
embar
embark
embarr
embarra
embarras
embarrass
embarrassm
embl
embo
embr
embra
embrac
embro
embroi
embroid
emi
emig
emigr
emil
emin
emm
emma
emotion
emp
emph
empha
emphas
emphasi
emphasis
emphat
emphati
emphatic
empi
empir
empl
emplo
employ
employm
employme
employmen
employment
empt
empti
empty
en
enabl
enc
ench
encha
enchan
enchant
enci
encir
encirc
encircl
encl
enclo
enclos
enclosu
enclosur
encount
encour
encoura
encourag
end
endow
endu
endur
enfor
enforc
eng
enga
engag
engi
engin
engl
engla
englan
england
english
englishm
englishma
englishman
enjoy
enjoying
enjoym
enjoyme
enjoymen
enjoyment
enl
enlar
enlarg
enlight
eno
enor
enormous
enough
enquir
ensu
ent
entangl
enth
enthu
enthus
enthusi
enthusia
enthusias
enthusiasm
enthusiast
enthusiasti
enthusiastic
enti
entir
entit
entitl
entranc
entry
env
envi
envy
ep
eph
epi
epic
epis
epist
epistl
epoch
equ
equa
equal
equali
equalit
equality
equall
equally
equi
equip
equiv
equiva
equival
equivale
equivalen
equivalent
er
era
error
errors
es
escap
escor
escort
esp
ess
essay
est
establish
establishm
establishme
establishmen
establishment
estat
estimat
et
etc
eth
eu
eug
eun
europ
eustacia
ev
everything
everywh
everywhe
everywher
everywhere
evi
evid
evil
evolution
ex
exa
exac
exact
exactl
exactly
exagg
exagge
exagger
exaggera
exaggerat
exal
exalt
exam
exami
examin
examina
examinat
examinati
examinatio
examination
examining
exampl
exas
exasp
exc
exch
excha
exchang
exci
excit
exciting
excl
excla
exclai
exclaim
exclam
exclama
exclamat
exclamati
exclamatio
exclamation
exclu
exclud
exclus
exclusi
exclusiv
excu
excur
excurs
excursi
excursion
excus
exh
exha
exhau
exhaus
exhaust
exhi
exhib
exhibi
exhibit
exhibition
exho
exhor
exhort
exi
exil
exis
exist
existing
exit
exo
exp
expan
expand
expir
expl
expla
explai
explain
explaining
explan
explanation
explo
exploi
exploit
explor
explosion
expo
expos
exposu
exposur
expr
exqu
exqui
exquis
exquisi
exquisit
exquisite
ext
extinguish
exto
extr
extra
extrac
extract
extrao
extraor
extraord
extraordi
extraordin
extraordina
extraordinar
extraordinary
extrav
extrava
extravag
extravaga
extravagan
extravagant
exu
exul
exult
ey
f
fa
fab
fabl
fabr
fabric
fac
facil
facili
facilit
fact
faction
facto
factor
factory
facul
facult
faculti
faculty
fad
fag
fai
fail
failing
failu
failur
fain
faint
faintly
fair
fairly
fairy
faith
faithful
faithfully
fal
fall
falling
fals
falstaff
falt
fam
fami
famil
famili
familia
familiar
family
famous
fan
fana
fanc
fanci
fancy
fang
fann
fanny
fant
fanta
fantas
fantast
fantastic
far
farm
farth
fas
fasc
fasci
fascin
fascina
fascinat
fashi
fashio
fashion
fashionabl
fast
fat
fatal
fath
fathom
fatigu
fau
faul
fault
favo
favor
favorabl
favori
favorit
favour
favourabl
favouri
favourit
faw
fi
fib
fiction
fif
fift
fifth
fifty
fig
fight
fighting
figu
figur
fil
fill
filling
filth
fin
final
finally
financ
find
finding
fing
finish
fir
firm
firmly
firs
first
fish
fishing
fist
fit
fitt
fitting
fitz
fiv
fix
fl
fla
flag
flam
flaming
flan
flank
flann
flash
flashing
flat
flatt
fli
flick
flight
flin
flint
flit
flo
floa
float
floating
flock
flocks
floo
flood
floor
flor
flori
flos
flour
flourish
flow
flowing
flu
flui
fluid
flung
flush
flut
flutt
fly
flying
fo
foam
fog
fogg
fol
fold
foli
folia
foliag
folk
folks
follow
following
folly
fon
fond
foo
food
fool
foolish
foot
footst
for
forb
forbi
forbid
forbidd
forc
forg
forgi
forgiv
forgo
forgot
forgott
forgotte
forgotten
forlo
forlor
forlorn
form
formal
formation
formid
formidabl
formul
formula
forth
forthwith
fortnight
fortu
fortun
fortuna
fortunat
forty
forwa
forwar
forward
fost
fou
fought
foul
foun
found
foundation
fount
founta
fountai
fountain
four
fourt
fourth
fowl
fox
fr
frag
fragm
fragr
fragran
fragrant
frail
fram
fran
franc
franci
francis
francisc
francisco
frank
frankl
frankli
franklin
frankly
frantic
frau
fraud
fray
fri
friar
friday
friendship
fright
frightful
fro
frock
frog
from
fron
front
fronti
fros
frost
frown
froz
fru
frui
fruit
fruitful
fu
fug
fugi
fugit
fugiti
fugitiv
ful
fulf
fulfi
fulfil
fulfill
full
fully
fum
fun
function
functions
fund
funn
funny
fur
furious
furiousl
furiously
furn
furna
furnac
furni
furnish
furnit
furnitu
furnitur
furth
fury
fus
fuss
fut
futil
futu
futur
g
ga
gab
gabr
gabri
gad
gai
gaily
gain
gait
gal
gall
galla
gallan
gallant
gallop
gallow
gam
gambl
gambling
gan
gang
gap
gar
gard
garl
garla
garlan
garland
garm
garr
garri
garris
garrison
gas
gasp
gat
gath
gau
gaul
gaun
gaunt
gav
gawa
gawai
gawain
gay
gaz
gazing
gha
ghas
ghast
ghastly
gho
ghos
ghost
gi
gia
gian
giant
gib
gibbo
gibbon
gid
gidd
gif
gift
gifts
gig
giga
gigan
gigantic
gil
gilb
gild
gill
gin
gir
gird
girdl
girl
girl's
git
giv
giving
gl
gla
glac
glaci
glad
gladly
glan
glanc
glancing
glar
glas
glass
gli
glid
glimm
glimp
glimps
glis
glist
glit
glitt
glo
glob
gloom
gloomy
glor
glori
glorious
glory
glos
gloss
glouc
glov
glow
glowing
glu
go
goat
goats
gobl
god
god's
godf
godfr
going
gol
gold
gon
goo
good
goos
gossip
got
goth
gothic
gov
gow
gown
gr
gra
grac
gracious
grad
gradu
gradua
gradually
graham
grain
gram
gramm
gramma
grammar
gran
grand
grandfath
grandmoth
grandson
grani
granit
grant
grap
graph
gras
grasp
grass
grat
gratifi
gratitud
grav
gravi
gravit
gravity
gray
gri
grim
grin
grind
grinn
grip
gro
groan
groom
grop
gros
gross
grot
ground
group
grov
grow
growing
growl
grown
growth
gru
grud
grudg
grun
grunt
gu
gua
guar
guard
guardi
guardian
gui
guid
guil
guilt
guilty
guin
gulf
gull
gum
gun
guns
gust
gut
h
ha
hab
habi
habit
habitation
habitu
habitua
hack
had
hadn't
hag
hagg
hai
hail
hair
hakon
hal
half
hall
halt
ham
hamil
hamilt
hamilton
haml
hamm
hamp
han
hand
handful
handk
handl
hands
handsom
hang
hanging
hannah
hans
hap
happ
happi
happily
happin
happy
har
haral
harald
harbor
harbour
hard
hardly
hardship
hark
harl
harm
harml
harmony
harn
haro
harp
harr
harri
harris
harry
harsh
hart
harv
has
hast
hastily
hasting
hastings
hasty
hat
hatch
hath
hau
haughty
haul
haun
haunt
hav
having
haw
hawk
hay
haz
haza
hazar
hazard
hi
hid
hidd
hiding
high
highly
highw
highwa
highway
hil
hild
hilda
hill
hills
him
hin
hind
hint
hip
hippo
hir
his
histor
histori
historian
historical
history
hit
hith
ho
hoa
hoar
hoars
hobb
hog
hoi
hois
hoist
hol
hold
holding
holi
holid
holida
holiday
holl
holla
hollan
holland
hollow
holly
holm
holy
hom
hon
hono
honor
honorabl
honour
honourabl
hoo
hood
hoof
hoofs
hook
hop
hor
hora
hord
horizon
horizont
horizonta
horizontal
horn
horns
horr
horri
horribl
horrible
horribly
horrid
horro
horror
hors
hos
hosp
hospi
hospit
hospita
hospital
hospitali
hospitalit
hospitality
host
hosti
hostil
hostili
hostilit
hot
hou
houn
hound
hour
hours
hous
hov
how
howling
hu
huck
hud
huds
hudson
hug
hugh
hull
hum
huma
human
humani
humanit
humanity
humbl
humbly
humi
humil
humili
humiliation
humilit
humility
humm
humo
humor
humou
humour
hun
hund
hundr
hung
hungar
hungr
hungry
hunt
hunting
hur
hurl
hurr
hurri
hurry
hurrying
hurstwood
hurt
husband
husband's
hush
husk
hut
hypoc
hypocr
hypocri
i
i'
i'l
i'll
i'm
i'v
i've
ic
idiot
idol
idols
if
ignor
ignoranc
ignorant
iii
ill
illu
illum
illumi
illumin
illumina
illuminat
illus
illusion
illust
illustr
illustra
illustrat
illustration
illustrious
imag
imagi
imagin
imaginar
imaginary
imagination
imitat
imitation
immor
immort
immorta
immortal
imp
impa
impar
impart
impat
impati
impl
impli
implo
implor
impo
impor
import
importa
importan
importanc
important
impos
impossibl
impr
imprison
improp
improv
impu
impud
impul
impuls
imput
in
inc
incapabl
incapable
inch
incid
inclin
inclination
inclo
inclos
inclu
includ
including
incomp
incon
incons
inconsi
inconv
incor
incr
incur
indian
indians
indicat
indication
indiff
indiffe
indiffer
indiffere
indifferen
indifferenc
indifferent
indignant
indignation
indisc
individual
induc
indulg
indust
industr
industry
inf
infa
infam
infan
infant
infi
infin
infini
infinit
infir
infirm
infl
infla
inflam
infli
inflic
inflict
influ
inform
information
ing
inh
inha
inhab
inhabi
inhabit
inhabita
inhabitan
inhabitant
inhabitants
iniquity
inju
injur
injuri
injury
injus
injust
injusti
injustic
innoc
innum
inquir
inquiri
inquiring
inquiry
inquisiti
inscription
insid
insist
inspir
inspiration
instanc
instant
instantly
instinct
instinctiv
institut
institution
institutions
instruct
instruction
instructions
instrum
insuff
insult
insur
int
intim
intima
intimac
intimacy
intimat
into
intoxic
introduc
introduction
intrud
inval
invali
invalid
invariably
invasion
invisibl
invit
invitation
involu
involun
involunt
involunta
involuntar
involv
inward
irish
iron
irritat
is
isaac
isab
island
islands
isn't
issu
it
it's
italian
italy
ivan
ivo
ivor
ivory
ix
j
ja
jack
jacob
jai
jail
jam
jan
janu
janua
januar
january
jap
japa
japan
jar
jas
jasp
jav
jaw
jaws
jim
jimm
jimmy
jo
job
joh
john
johnson
joi
join
joint
jok
jolly
jon
jonath
jonatha
jonathan
jonson
jos
josh
joshu
joshua
jou
jour
journ
journal
jov
jovi
joy
joyf
joyfu
joyful
joyou
joyous
jpg
ju
jud
juda
judah
judg
judgm
judgme
judgmen
judgment
judi
judic
judici
judicia
judicial
jug
jui
juic
jul
juli
julia
julian
july
jump
jumping
jun
jung
jungl
jungle
jup
jupi
jupit
jur
jurg
jurgi
jurgis
juri
juris
jurisd
jurisdi
jurisdiction
jury
jus
just
justic
justif
justifi
justify
justin
justini
justinia
justinian
k
ka
kal
kan
kat
katy
kh
ki
kick
kid
kil
kill
killing
kin
kind
kindl
kindly
king
king's
kingdom
kins
kinsm
kir
kis
kiss
kissing
kit
kitch
kitt
kn
knav
knif
knight
knit
knitt
kniv
kno
knock
knocking
knot
know
knowing
knowl
ko
kor
ku
l
l'
la
lab
labor
laborious
labour
lac
lack
lad
ladd
laddi
ladi
lady
lady's
lag
lai
laid
lak
lam
laman
lamani
lamanit
lamb
lamp
lamps
lan
lanc
land
landing
landl
landlady
landlo
landlor
landlord
landscap
lang
langu
langua
languag
language
lant
lap
laph
lapha
lapham
laps
lar
larg
lark
las
lash
lass
last
lat
latin
latt
lau
laud
laugh
laughing
laught
laughte
laughter
laun
launch
laur
laura
lauri
lav
law
lawful
lawy
lay
laying
laz
lazy
length
li
lib
library
lic
lick
lif
lift
lifting
lig
ligh
light
lightly
lik
liking
lil
lily
lim
limb
limbs
limi
limit
limp
lin
linco
lincol
lincoln
link
lion
lip
lips
liqu
liqui
liquid
liquo
liquor
lis
list
lit
lith
litt
littl
liv
living
liz
ll
lo
loa
load
loaf
loan
loath
lob
loc
loca
local
lock
lod
lodg
lodging
lodgings
lof
loft
lofty
log
logi
logic
lon
lond
london
long
loo
look
looking
loom
loos
lop
lor
lord
lordship
los
losing
lost
lot
lou
loud
loudly
loui
louis
louisa
loung
lov
loving
low
loy
loyal
loyalt
loyalty
lu
luc
luci
luck
lucky
lucy
lud
lugg
luk
lum
lumb
lumi
lumin
luminous
lump
lun
luna
lunch
lung
lungs
lur
lus
lust
luth
lux
luxu
luxur
luxuri
luxurious
luxury
lx
lxx
ly
lydgat
lying
m
ma
mac
maca
macau
macaul
macaula
macaulay
mach
machi
machin
mack
mad
madam
madrid
mag
magaz
magazi
magazin
magi
magic
magici
magician
magis
magist
magistr
magistra
magistrat
magn
magni
magnif
magnifi
magnific
magnu
magnus
mah
mahom
mai
maid
mail
main
mainly
maint
mainta
maintai
maintain
maj
major
majori
majorit
majority
mak
making
mal
mala
malic
malicious
malig
malign
mall
mam
mamm
mamma
man
man's
manag
mang
manho
manhoo
manhood
manif
mankin
mankind
mann
mansion
mansoul
manufactur
manus
manusc
manuscr
manuscri
manuscrip
manuscript
many
map
mar
marbl
marc
march
marching
marco
marcu
marcus
marg
marga
margar
margi
margin
margu
mari
maria
marian
mariann
marill
marilla
marin
marion
mariu
marius
mark
marquis
marr
marri
marria
marriag
marry
marrying
mars
marsh
marsha
marshal
mart
marth
martha
marti
martia
martial
martian
martin
marty
martyr
marv
mary
mas
mask
mason
mass
massiv
mast
mat
match
math
matil
matild
matilda
matron
matt
matth
matu
matur
mau
max
maxi
maxim
may
mayb
mayor
mi
mic
mica
micaw
micawb
mich
micha
mid
midd
middl
midnight
mids
midst
migh
might
mih
mil
mild
mildr
mili
milit
milita
militar
military
milk
mill
million
millions
milt
milton
min
mind
mingl
mini
minis
minist
mino
minor
minu
minut
mir
mira
mirac
miracl
mirr
mirro
mirror
mirth
mis
misc
misch
mischi
misfor
misfort
misfortu
misfortun
miss
mission
missiona
missionar
mississippi
mist
mistak
mistr
misu
mit
mix
mixtu
mixtur
mo
moa
moan
mob
mock
mod
modif
moi
mois
moist
mol
mold
moll
mom
mon
mona
monarch
monas
monast
monday
monk
mono
monot
monst
monstrous
mont
month
months
monum
moo
mood
moon
moonlight
moor
mor
moral
morali
moralit
morbi
morbid
morn
morning
morris
morrow
mortal
mos
most
mostly
mot
moth
moti
motio
motion
motionl
motiv
moto
motor
mou
moul
mould
moun
mount
mounta
mountai
mountain
mountains
mour
mourn
mournful
mourning
mous
mouth
mov
moving
mow
mu
much
mud
mudd
muff
muffl
mul
mult
multi
multip
multipl
multipli
multit
multitu
multitud
mum
mun
mur
murd
murm
murmu
murmur
mus
musc
muscl
musi
music
musical
musician
musing
musk
must
mut
muti
mutt
mutu
mutua
mutual
my
myst
n
nail
nails
nak
nam
nancy
nap
napol
nardi
narrativ
narrow
nation
nationa
national
nations
nativ
natur
natura
natural
naturally
nau
naught
naut
nautilus
nav
nava
naval
navy
nay
neighbor
neighborhood
neighbors
neighbour
neighbourhood
neighbouring
neighbours
ni
nic
nicho
nichol
nick
nigg
nigh
night
nil
nin
ninth
nit
no
noah
nob
nobi
nobil
nobili
nobilit
nobility
nobl
nobo
nobod
nobody
nogh
noght
nois
noisy
noon
norman
northward
nostril
nostrils
not
nothin
nothing
notic
notion
notwith
notwiths
notwithst
notwithsta
notwithstan
notwithstand
notwithstanding
nought
nov
now
nowaday
nowadays
nowh
nu
num
numb
nun
nur
nurs
nut
nymph
o
o'
o'c
o'cl
o'clo
o'clock
oak
oar
oars
oath
ob
obj
obl
obli
oblig
obligation
obliv
oblivi
obs
obscu
obscur
obscuri
obscurit
obscurity
obstacl
obstinat
obt
obta
obtai
obtain
obv
obvi
obviou
obvious
obviousl
obviously
oc
occ
occa
occas
occasi
occasio
occasion
occasional
occasionally
occu
occup
occupa
occupan
occupat
occupati
occupatio
occupation
occupi
occupy
occur
occurr
oct
octa
octo
octob
odious
odor
of
off
offi
offic
official
og
oh
ohg
oil
ol
ola
olaf
old
oli
oliv
oly
olymp
om
omi
omit
omn
on
onc
only
onward
op
oph
opinion
opp
oppo
oppon
oppor
opport
opportu
opportun
opportuni
opportunit
opportunity
oppos
opposi
opposit
opposition
oppr
or
orang
orato
orator
orch
orchar
orchard
ordain
ordinary
organ
organi
organis
organiz
organization
orig
origi
origin
origina
original
originally
orph
orpha
orphan
orthodox
osborn
ost
oswald
oth
ott
ou
ought
ounc
our
ous
out
outlaw
outlin
outrag
outsid
outwar
outward
ov
ow
owl
own
ox
oxf
oxfo
oxfor
oxford
oz
ozm
ozma
p
pa
pac
pacific
pack
packag
packing
pad
padd
paddl
pag
paga
pagan
pai
paid
pail
pain
painful
painfully
pains
paint
painting
pair
pal
pala
palac
pall
palm
pan
pang
panic
pant
panting
pap
papa
par
para
parad
paradi
paradis
parall
paraly
paras
parc
parch
pard
pardon
pari
paris
parish
park
parl
parli
parlia
parliam
parlo
parlor
parlour
paro
parson
part
partak
parti
partial
partially
partic
partici
particip
particl
particula
particular
particularly
partly
party
pas
pass
passag
passing
passion
passiona
passionat
passiv
past
pasto
pastor
pastur
pat
patch
path
pati
patr
patri
patria
patriar
patriarch
patrio
patriot
patron
patt
paul
paulin
paus
pav
paw
pay
paying
paym
ph
pha
phan
phant
phantom
phar
phara
pharao
pharaoh
phas
phi
phil
phila
philad
phili
philip
philis
philist
philisti
philistin
philo
philos
philoso
philosoph
philosophi
philosophic
philosophy
pho
phot
photo
photog
photogr
photogra
photograph
phr
phra
phras
phy
phys
physi
physic
physica
physical
physici
physician
physio
physiol
pi
pian
piano
pic
pick
picking
pickwick
pict
pictu
pictur
pig
pik
pil
pilgrim
pilgrima
pilgrimag
pill
pilla
pillar
pillars
pillow
pilo
pilot
pin
pinch
pink
pious
pip
pistol
pit
pitch
piti
pitiful
pitt
pity
pl
pla
plac
placid
plagu
plai
plain
plainly
plan
plank
plant
plantation
plas
plast
plat
platform
play
playing
plo
plot
plough
plow
plu
pluck
plum
plump
plun
plund
plung
plur
plural
po
pock
poi
poin
point
pointing
pois
poison
pok
pol
poli
polic
policy
polish
polit
politi
politic
politica
political
poll
polly
poly
pom
pomp
pon
pond
pont
pony
poo
pool
poor
pop
popu
popul
popula
popular
populat
populati
population
por
porch
port
portion
portrait
pos
posi
posit
position
positiv
poss
possib
possibi
possibil
possibili
possibilit
possibiliti
possibility
possibl
possibly
post
postu
postur
pot
pota
potat
potato
pott
pou
poun
pound
pounds
pour
pouring
pov
pow
poy
poys
pr
pra
prac
pract
practi
practic
practical
practically
practis
prai
prair
prairi
prais
pray
praying
pri
pric
prick
prid
prim
prima
primar
primi
primit
primiti
primitiv
prin
princ
princi
princip
principa
principal
principl
print
printing
prio
prior
pris
prison
priv
priva
privat
privi
privil
priz
pro
prob
proba
probab
probabi
probabil
probabili
probabilit
probability
probabl
probable
probably
probl
proc
procl
procla
proclaim
procur
prod
prodigious
produc
producing
product
production
prof
profan
profi
profit
profound
profus
prog
progr
prohib
proj
prol
prolong
prom
promi
promin
promis
promising
promo
promot
prompt
promptl
promptly
pron
pronounc
proof
prop
proph
propo
propor
proport
proporti
proportio
proportion
propos
proposal
proposition
propri
pros
prosp
prost
prostr
prostrat
prot
proud
proudly
prov
provi
provid
provin
provinc
provinci
provincia
provincial
provision
provisions
provok
prow
pru
prud
pu
publ
publi
public
publication
publicly
publish
puck
pud
pudd
puff
pul
pull
pulling
pulp
pulpi
pulpit
puls
pump
pun
punc
punch
punct
punctu
punish
punishm
pup
pupi
pupil
pupils
pur
purch
purcha
purchas
purg
puri
purit
purity
purp
purpl
purpo
purpos
purs
pursu
pursui
pursuing
pursuit
pus
push
pushing
put
putt
putting
puzz
puzzl
q
qu
qua
quad
quadr
quai
quain
quaint
quak
qual
quali
qualif
qualifi
qualit
qualiti
quality
quan
quant
quanti
quantit
quantity
quar
quarr
quart
qui
quick
quickl
quickly
quilp
quinc
quit
quitt
quiv
quo
quot
quoth
r
rabb
rabbi
rabbit
rac
rach
rack
radian
radiant
radical
raf
raff
raffl
raft
rag
ragg
raging
rai
rail
railr
railro
railroa
railroad
railway
rain
rainbow
rais
raising
ralph
ramp
rampa
ran
ranch
rang
rank
ransom
rap
rapi
rapid
rapidly
raptur
rascal
rash
rath
rational
rattl
rattling
rav
raw
rawd
rawdon
ray
rays
rejoic
rejoice
rejoiced
rejoicing
remarkabl
remarkable
remarkably
rh
rhin
rho
rhy
rhym
rib
ribbo
ribbon
ribs
ric
rich
richa
richar
richard
rid
ridd
riddl
ridg
ridicul
ridiculous
riding
rif
rifl
rig
righ
right
rigi
rigid
rigo
rigor
rim
rio
riot
rip
ripp
rippl
ris
rising
risk
rit
riv
rival
ro
roa
road
roam
roar
roaring
roast
rob
robb
robi
robin
rock
rocks
rod
rog
rogu
roll
rolling
rom
roma
roman
romanc
romantic
roo
roof
room
root
roots
rop
ros
rosa
rosalin
rosalind
rosamond
rot
rott
rou
rough
roughly
roun
round
rous
rout
row
rowl
rowla
rowlan
rowland
rows
roy
roya
royal
ru
rub
rubb
rubbing
rud
rudd
ruff
rug
rugg
rui
ruin
rul
rum
rumou
rumour
run
runn
running
rup
rus
rush
rushing
russ
russi
russia
russian
rust
rustic
rustl
rusty
ruth
s
sa
sab
sabb
sabba
sabbath
sac
sack
sacr
sacrific
sad
sadd
saddl
sadly
saf
sag
sai
said
sail
sailing
sailo
sailor
sailors
sain
saint
saith
sak
sal
sala
salar
salary
salo
saloon
salt
salu
salut
salvation
sam
samu
san
sanc
sanctu
sanctua
sanctuar
sanctuary
sand
sandy
sang
sant
sap
sar
sara
sarac
sarah
sarc
sarca
sarcas
sat
satan
sati
satin
satis
satisf
satisfa
satisfac
satisfact
satisfaction
satisfacto
satisfactor
satisfactory
satisfi
satisfy
satur
saturd
saturda
saturday
sau
sauc
saul
sav
savag
saving
saw
saxon
say
saying
says
sc
sca
scal
scan
scand
scanda
scandal
scant
scar
scarc
scarl
scat
scatt
sch
schal
scho
schol
schola
scholar
schold
schoo
school
schoolm
schoolma
schoolmas
schoolmast
schoon
sci
sco
scol
scold
scop
scor
scorn
scot
scotch
scotl
scotla
scotlan
scotland
scott
scou
scoun
scound
scoundr
scour
scout
scow
scowl
scr
scra
scrambl
scrap
scrat
scratch
scrib
scriptur
scro
scru
scrup
scrupl
scrut
scu
scul
sculp
sculpt
scy
scyth
sh
shabb
shabby
shad
shadow
shaf
shaft
shagg
shaggy
shak
shaking
shal
shall
shallow
shalt
sham
shap
shar
shark
sharp
sharply
shatt
shaw
shawl
shi
shift
shilling
shillings
shin
shining
ship
shiv
sho
shock
shoo
shook
shoot
shooting
shop
shor
short
shortly
shot
shou
shoul
should
shouldn't
shout
shouting
shov
show
showing
shrank
shri
shrill
shrink
shroud
shrugg
shu
shud
shudd
shuff
shuffl
shun
shut
shutt
si
sici
sick
sickn
sid
sig
sigh
sight
sign
signal
signifi
significan
significanc
significant
sigur
sigurd
sil
silas
silk
sill
silly
silv
sim
simi
simil
simila
similar
simon
simpl
simplic
simplici
simplicit
simplicity
simply
simu
simul
simult
simulta
simultan
sin
sinc
singl
singul
singula
singular
sini
sinis
sinist
sink
sinn
sins
sion
sir
sis
sist
sit
sitt
sitting
situa
situat
situation
six
sixp
sixt
sixth
sixty
siz
sk
skat
ski
skil
skilful
skill
skin
skir
skirt
skirts
sku
skul
skull
sky
sl
slack
slain
slang
slat
slaught
slav
slay
sli
slid
slight
slightl
slightly
slim
slip
slipp
slipping
slop
slow
slowl
slowly
slumb
small
smart
smash
smil
smiling
smit
smith
smo
smok
smooth
smot
smoth
snapp
snatch
sniff
snor
snow
snuff
so
soap
sob
sobbing
soc
soci
socia
social
sociali
socialis
sock
sof
sofa
soft
softly
soil
sol
sold
soldi
soli
solic
solici
solicit
solid
solit
solita
solitar
solitary
solitu
solitud
solomon
solution
solv
som
somb
sombr
son
song
songs
soon
sooth
soothing
soph
sophi
sophy
sorrow
sorrowf
sorrowfu
sorrowful
sou
sought
soul
soun
sound
sounding
soup
sour
sourc
south
southw
southwa
southwar
sow
sp
spa
spac
spacious
spad
spain
spak
span
spani
spaniar
spaniard
spanish
spar
spark
sparkl
sparkling
sph
spi
spic
spid
spin
spinn
spinning
spir
spiri
spirit
spiritu
spiritua
spiritual
spit
spl
splash
spli
split
spo
spoi
spoil
spok
spong
spontan
spoon
spor
sport
spot
spott
sprang
spray
sprink
sprinkl
sprung
spu
spur
squ
squa
squad
squal
squar
squat
squi
squir
st
sta
stabl
staff
stag
stagg
stai
stain
stair
staircas
stairs
stak
stal
stalk
stall
stam
stamm
stamp
stan
stand
standar
standard
standing
star
staring
start
starting
startl
startling
starv
stat
station
statu
statur
statut
stay
staying
sti
stick
stiff
stifl
stil
still
stimul
stimula
stimulat
stir
stirr
stirring
sto
stock
stocking
stockings
stol
stom
stoma
stomach
ston
stood
stool
stoop
stop
stopp
stopping
stor
stori
storm
story
stout
stov
stow
str
straight
straightway
strain
strait
stran
strand
strang
strat
straw
stray
strength
strick
strict
strictly
strid
strif
strik
striking
string
strip
stripp
striv
stro
strod
strok
stroll
strong
strongly
strov
struck
structu
structur
struggl
struggle
struggling
stu
stubb
stubbo
stubbor
stubborn
stuck
stud
studi
study
studying
stuff
stumbl
stump
stun
stup
stupi
stupid
stur
sturd
sty
styl
su
sub
subd
subdu
subj
sublim
subm
submi
submis
submiss
submissi
submissio
submission
submit
submitt
subo
subor
subord
subordi
subordin
subordina
subordinat
subs
subsc
subscr
subscri
subsi
subsid
subsis
subsist
subst
substa
substan
substanc
substance
substant
substanti
substantia
substantial
substi
substit
substitu
substitut
subt
subtl
subu
subur
suburb
suburbs
suc
succ
such
suck
sud
sudd
suff
suffi
suffic
suffici
sufficie
sufficien
sufficient
sufficientl
sufficiently
suffo
suffrag
sug
suga
sugar
sugg
sugge
sugges
suggest
suggesti
suggestio
suggestion
sui
suic
suici
suicid
suit
suitabl
sul
sull
sulph
sulphu
sulphur
sult
sulta
sultan
sum
summ
summi
summit
summon
sun
sund
sunda
sunday
sung
sunk
sunlight
sunshin
sup
supp
suppl
suppli
supplic
supplica
supplicat
supply
suppo
suppor
support
supporting
suppos
suppr
sur
surf
surfa
surfac
surg
surp
surpas
surpass
surpr
surpri
surpris
surprising
surround
surrounding
surroundings
surv
survi
surviv
sus
susa
susan
susc
susp
suspicion
suspicious
sust
susta
sustai
sustain
sw
swa
swallow
swam
swamp
swan
swar
swarm
sway
swif
swift
swiftly
swim
swimm
swimming
swin
swing
swinging
swo
swol
swor
sword
swung
syllabl
symbo
symbol
sympath
sympathi
sympathy
symptom
symptoms
t
ta
tab
tabl
table
taci
tack
tackl
tail
tailo
tailor
tain
tak
taking
tal
talk
talking
tall
tam
tan
tang
tangl
tank
tann
tant
tap
tart
tartar
tarzan
task
tast
tatt
tau
taught
tax
taylo
taylor
th
than
thank
thankful
that
that's
thick
think
thinking
thirty
this
thogh
thoma
thomas
thorn
thorough
thoroughl
thoroughly
thorp
thos
thou
though
thought
thoughtfu
thoughtful
thoughtfull
thoughtfully
thousand
thrill
throat
throng
through
throughou
throughout
throw
throwing
thrown
thrust
thumb
thund
thursday
thus
ti
tic
tick
tid
tiding
tidings
tig
tight
tightly
til
till
tilt
tim
timb
timid
tin
tink
tint
tiny
tion
tip
tips
tir
tis
tissu
tit
titanic
titl
tiv
to
tobacco
today
tog
toil
told
tomorrow
tongu
tongue
tonight
too
took
tool
tools
tooth
topic
torch
tortur
total
touch
touching
tough
tour
tow
towa
towar
toward
towards
town
trac
track
tract
tradition
trag
tragic
trail
train
training
trait
traitor
tramp
trampl
tranquil
tranquill
trans
transaction
transf
transform
transgr
translat
translation
transpar
transport
trav
tray
tri
trial
trib
tribu
tribun
tribut
trick
tricks
trif
trifl
trifling
trim
trimm
trina
trip
triumph
triumpha
triumphan
triumphant
triv
trivi
trivia
trivial
tro
trod
troop
troops
trop
tropi
tropic
tropica
tropical
trot
trott
troubl
trous
troy
tru
truly
trump
trunk
trust
truth
try
trying
tu
tub
tuck
tuf
tuft
tum
tumbl
tumu
tumul
tumult
tun
tunn
tur
turb
turf
turk
turkish
turn
turning
tut
tw
twa
twas
twi
twic
twice
twig
twilight
twin
twink
twinkl
twis
twist
twit
two
u
ug
ugl
ugly
ul
ult
ulti
ultim
ultima
ultimat
um
umb
umbr
un
una
unabl
unable
unb
unc
unch
uncl
unco
uncom
uncomf
uncomfo
uncomfor
uncomfort
uncomfortabl
uncomm
uncommo
uncommon
uncon
uncons
unconsc
unconsci
unconscio
unconsciou
unconscious
unconsciousl
unconsciously
uncov
uncove
uncover
und
undis
undoubt
unf
unfa
unfi
unfo
unfol
unfold
unfor
unfort
unfortu
unfortun
unfortuna
unfortunat
unfortunate
unfortunatel
unfortunately
unfr
ung
ungr
unh
unha
unhapp
unhappy
uni
uniform
unin
unint
union
unit
univ
unju
unjus
unjust
unk
unki
unkin
unkind
unkn
unknow
unknown
unl
unli
unlik
unluck
unm
unma
unmi
unnatural
unp
unpa
unpl
unpr
unpro
unqu
uns
unsp
unt
unti
until
unto
unu
unus
unusu
unusua
unusual
unw
unwi
unwil
unwill
unwilling
unwo
unwor
unworth
unworthy
up
upo
upon
upp
upright
upro
upstair
upstairs
upwa
upwar
upward
ur
urb
urg
uri
ursula
us
usag
ush
usu
usua
usual
usuall
usually
usur
usurp
ut
uti
util
utm
utmo
utmos
utmost
utt
utte
utter
utteranc
utterl
utterly
v
va
vac
vacan
vacant
vag
vaga
vagu
vain
val
vali
valia
valian
valiant
valj
vall
valo
valor
valu
valuabl
valv
van
vand
vani
vanish
vanit
vanity
vanquish
vapor
var
vari
various
vary
vas
vast
vault
vb
vi
vib
vibr
vibra
vic
vica
vicar
vici
vicin
vicious
vict
victi
victim
victo
victor
victori
victorious
victory
vig
vigi
vigil
vigila
vigilan
vigo
vigor
vigorous
vii
viii
vil
vill
villa
villag
villain
vin
vinc
vio
viol
violat
violin
virginia
virtu
virtuous
vis
visag
visibl
vision
visit
visiting
visitor
visitors
vit
vital
viv
vivi
vivid
viz
vo
voc
voi
voic
void
vol
volc
volca
volcan
volu
volum
volun
volunt
volunta
voluntar
voluntary
vot
vouch
vow
voy
voya
voyag
vul
vulg
vulga
vulgar
w
wa
wad
wag
wagg
waggo
waggon
wagon
wai
wail
wais
waist
waistco
waistcoa
waistcoat
wait
waiting
wak
waking
wal
wald
walk
walking
wall
walls
walt
wan
wand
want
wanting
wanton
war
warlik
warm
warmly
warmth
warn
warning
warrio
warrior
warriors
warwick
was
wash
washing
washingt
washingto
washington
wasn't
wat
watch
watching
watson
wav
waving
wax
way
wh
wha
whal
whar
what
what's
whatso
whi
which
whil
whilst
whim
whims
whin
whip
whipp
whir
whirl
whis
whisk
whisp
whist
whistl
whistling
whit
whith
who
whol
wholly
whom
whoso
why
wick
wid
widow
wif
wig
wil
wilbur
wild
wildly
wilk
wilki
will
william
willing
willingly
willow
wilson
wilt
win
wind
winding
window
wink
winkl
winn
winning
wint
wip
wis
wisdom
wish
wist
wit
witch
with
withdraw
withdrawn
within
withou
without
witn
witt
wiv
wiz
wiza
wizar
wizard
wo
wol
wold
wolf
wolv
wom
woma
woman
woman's
womb
won
won't
wond
wondrous
wont
woo
wood
woodman
woods
wool
wor
word
words
work
working
worl
world
worm
worn
worri
worry
wors
worship
worshipp
worst
worth
worthl
worthy
wot
wou
woul
would
wouldn't
woun
wound
wov
wrapp
wrinkl
wrist
writ
writing
writt
wrong
wrot
wrought
x
xi
xii
xiii
xiv
xix
xl
xli
xv
xvi
xvii
xviii
xx
xxi
xxii
xxv
xxvi
xxvii
xxx
xxxi
xxxv
y
yar
yard
yards
yaw
yawn
yi
yo
yok
yon
yond
yor
york
you
you'
you'll
you'v
you've
young
youth
youthful
z
za
zo
